{
  "version": "1.0",
  "truncation": null,
  "padding": null,
  "added_tokens": [
    {
      "id": 0,
      "content": "[UNK]",
      "single_word": false,
      "lstrip": false,
      "rstrip": false,
      "normalized": false,
      "special": true
    },
    {
      "id": 1,
      "content": "[PAD]",
      "single_word": false,
      "lstrip": false,
      "rstrip": false,
      "normalized": false,
      "special": true
    },
    {
      "id": 2,
      "content": "[SOS]",
      "single_word": false,
      "lstrip": false,
      "rstrip": false,
      "normalized": false,
      "special": true
    },
    {
      "id": 3,
      "content": "[EOS]",
      "single_word": false,
      "lstrip": false,
      "rstrip": false,
      "normalized": false,
      "special": true
    }
  ],
  "normalizer": null,
  "pre_tokenizer": {
    "type": "Whitespace"
  },
  "post_processor": null,
  "decoder": null,
  "model": {
    "type": "BPE",
    "dropout": null,
    "unk_token": "[UNK]",
    "continuing_subword_prefix": null,
    "end_of_word_suffix": null,
    "fuse_unk": false,
    "byte_fallback": false,
    "vocab": {
      "[UNK]": 0,
      "[PAD]": 1,
      "[SOS]": 2,
      "[EOS]": 3,
      "!": 4,
      "\"": 5,
      "#": 6,
      "$": 7,
      "%": 8,
      "&": 9,
      "'": 10,
      "(": 11,
      ")": 12,
      "*": 13,
      "+": 14,
      ",": 15,
      "-": 16,
      ".": 17,
      "/": 18,
      "0": 19,
      "1": 20,
      "2": 21,
      "3": 22,
      "4": 23,
      "5": 24,
      "6": 25,
      "7": 26,
      "8": 27,
      "9": 28,
      ":": 29,
      ";": 30,
      "<": 31,
      "=": 32,
      ">": 33,
      "?": 34,
      "A": 35,
      "B": 36,
      "C": 37,
      "D": 38,
      "E": 39,
      "F": 40,
      "G": 41,
      "H": 42,
      "I": 43,
      "J": 44,
      "K": 45,
      "L": 46,
      "M": 47,
      "N": 48,
      "O": 49,
      "P": 50,
      "Q": 51,
      "R": 52,
      "S": 53,
      "T": 54,
      "U": 55,
      "V": 56,
      "W": 57,
      "X": 58,
      "Y": 59,
      "Z": 60,
      "[": 61,
      "]": 62,
      "^": 63,
      "_": 64,
      "`": 65,
      "a": 66,
      "b": 67,
      "c": 68,
      "d": 69,
      "e": 70,
      "f": 71,
      "g": 72,
      "h": 73,
      "i": 74,
      "j": 75,
      "k": 76,
      "l": 77,
      "m": 78,
      "n": 79,
      "o": 80,
      "p": 81,
      "q": 82,
      "r": 83,
      "s": 84,
      "t": 85,
      "u": 86,
      "v": 87,
      "w": 88,
      "x": 89,
      "y": 90,
      "z": 91,
      "{": 92,
      "}": 93,
      "£": 94,
      "°": 95,
      "×": 96,
      "é": 97,
      "ñ": 98,
      "–": 99,
      "—": 100,
      "‘": 101,
      "’": 102,
      "“": 103,
      "”": 104,
      "≈": 105,
      "🇱": 106,
      "🇳": 107,
      "th": 108,
      "in": 109,
      "an": 110,
      "re": 111,
      "er": 112,
      "on": 113,
      "at": 114,
      "the": 115,
      "en": 116,
      "to": 117,
      "es": 118,
      "ou": 119,
      "ing": 120,
      "or": 121,
      "al": 122,
      "and": 123,
      "is": 124,
      "ar": 125,
      "om": 126,
      "ti": 127,
      "ed": 128,
      "as": 129,
      "of": 130,
      "le": 131,
      "it": 132,
      "ch": 133,
      "st": 134,
      "he": 135,
      "ic": 136,
      "ve": 137,
      "ro": 138,
      "you": 139,
      "ion": 140,
      "ent": 141,
      "ac": 142,
      "se": 143,
      "be": 144,
      "for": 145,
      "de": 146,
      "il": 147,
      "ow": 148,
      "su": 149,
      "me": 150,
      "ation": 151,
      "us": 152,
      "ly": 153,
      "are": 154,
      "pro": 155,
      "ol": 156,
      "that": 157,
      "ce": 158,
      "Tom": 159,
      "id": 160,
      "tion": 161,
      "ab": 162,
      "ge": 163,
      "ne": 164,
      "ver": 165,
      "ir": 166,
      "ke": 167,
      "te": 168,
      "ay": 169,
      "can": 170,
      "ig": 171,
      "im": 172,
      "com": 173,
      "ter": 174,
      "ith": 175,
      "con": 176,
      "ate": 177,
      "tr": 178,
      "ad": 179,
      "mo": 180,
      "lo": 181,
      "with": 182,
      "res": 183,
      "fe": 184,
      "un": 185,
      "ess": 186,
      "ul": 187,
      "ts": 188,
      "The": 189,
      "wh": 190,
      "di": 191,
      "pe": 192,
      "we": 193,
      "ma": 194,
      "ers": 195,
      "ld": 196,
      "ur": 197,
      "am": 198,
      "pl": 199,
      "ment": 200,
      "ap": 201,
      "ex": 202,
      "li": 203,
      "all": 204,
      "his": 205,
      "your": 206,
      "po": 207,
      "ci": 208,
      "ct": 209,
      "ant": 210,
      "?.": 211,
      "ri": 212,
      "qu": 213,
      "ave": 214,
      "ould": 215,
      "ity": 216,
      "ain": 217,
      "so": 218,
      "du": 219,
      "out": 220,
      "do": 221,
      "per": 222,
      "sh": 223,
      "wor": 224,
      "igh": 225,
      "go": 226,
      "our": 227,
      "ill": 228,
      "cl": 229,
      "ll": 230,
      "por": 231,
      "ple": 232,
      "ther": 233,
      "fr": 234,
      "cre": 235,
      "co": 236,
      "no": 237,
      "one": 238,
      "ut": 239,
      "their": 240,
      "bo": 241,
      "em": 242,
      "fic": 243,
      "ag": 244,
      "age": 245,
      "This": 246,
      "Wh": 247,
      "ome": 248,
      "ren": 249,
      "any": 250,
      "ting": 251,
      "have": 252,
      "end": 253,
      "able": 254,
      "by": 255,
      "oun": 256,
      "was": 257,
      "vi": 258,
      "si": 259,
      "port": 260,
      "hel": 261,
      "ine": 262,
      "king": 263,
      "pr": 264,
      "help": 265,
      "ure": 266,
      "ks": 267,
      "od": 268,
      "ach": 269,
      "cess": 270,
      "et": 271,
      "from": 272,
      "ary": 273,
      "str": 274,
      "ener": 275,
      "gh": 276,
      "more": 277,
      "ist": 278,
      "iz": 279,
      "whi": 280,
      "fo": 281,
      "now": 282,
      "um": 283,
      "use": 284,
      "pre": 285,
      "form": 286,
      "In": 287,
      "here": 288,
      "tor": 289,
      "dat": 290,
      "tive": 291,
      "has": 292,
      "ough": 293,
      "up": 294,
      "gr": 295,
      "est": 296,
      "It": 297,
      "ces": 298,
      "ence": 299,
      "ef": 300,
      "time": 301,
      "gy": 302,
      "cus": 303,
      "this": 304,
      "ta": 305,
      "ard": 306,
      "tions": 307,
      "its": 308,
      "ight": 309,
      "tom": 310,
      "tic": 311,
      "will": 312,
      "vid": 313,
      "ally": 314,
      "art": 315,
      "ud": 316,
      "ign": 317,
      "ep": 318,
      "av": 319,
      "know": 320,
      "work": 321,
      "op": 322,
      "ten": 323,
      "ans": 324,
      "als": 325,
      "ase": 326,
      "comp": 327,
      "data": 328,
      "ive": 329,
      "low": 330,
      "comm": 331,
      "ies": 332,
      "way": 333,
      "such": 334,
      "new": 335,
      "not": 336,
      "about": 337,
      "which": 338,
      "der": 339,
      "very": 340,
      "spe": 341,
      "ace": 342,
      "other": 343,
      "ning": 344,
      "thing": 345,
      "ance": 346,
      "lear": 347,
      "sy": 348,
      "dif": 349,
      "ven": 350,
      "they": 351,
      "ble": 352,
      "ame": 353,
      "ind": 354,
      "red": 355,
      "ations": 356,
      "dis": 357,
      "some": 358,
      "ous": 359,
      "ear": 360,
      "ty": 361,
      "ater": 362,
      "ties": 363,
      "ack": 364,
      "ust": 365,
      "incl": 366,
      "bet": 367,
      "He": 368,
      "ful": 369,
      "ite": 370,
      "like": 371,
      "el": 372,
      "ass": 373,
      "Th": 374,
      "ong": 375,
      "ated": 376,
      "could": 377,
      "ves": 378,
      "ang": 379,
      "ice": 380,
      "sp": 381,
      "act": 382,
      "need": 383,
      "ound": 384,
      "tw": 385,
      "inter": 386,
      "alth": 387,
      "also": 388,
      "row": 389,
      "produ": 390,
      "feren": 391,
      "**": 392,
      "get": 393,
      "des": 394,
      "ser": 395,
      "ress": 396,
      "cial": 397,
      "br": 398,
      "ents": 399,
      "enti": 400,
      "We": 401,
      "over": 402,
      "stem": 403,
      "make": 404,
      "ph": 405,
      "them": 406,
      "used": 407,
      "ction": 408,
      "did": 409,
      "day": 410,
      "eng": 411,
      "erson": 412,
      "au": 413,
      "cont": 414,
      "What": 415,
      "Mary": 416,
      "ical": 417,
      "custom": 418,
      "don": 419,
      "would": 420,
      "int": 421,
      "system": 422,
      "redu": 423,
      "ast": 424,
      "ok": 425,
      "ree": 426,
      "chn": 427,
      "You": 428,
      "car": 429,
      "ating": 430,
      "into": 431,
      "par": 432,
      "rough": 433,
      "want": 434,
      "How": 435,
      "col": 436,
      "import": 437,
      "health": 438,
      "olo": 439,
      "if": 440,
      "incre": 441,
      "techn": 442,
      "ob": 443,
      "ink": 444,
      "ased": 445,
      "velo": 446,
      "Do": 447,
      "cur": 448,
      "man": 449,
      "ber": 450,
      "ide": 451,
      "mar": 452,
      "ular": 453,
      "differen": 454,
      "velop": 455,
      "through": 456,
      "own": 457,
      "how": 458,
      "ures": 459,
      "there": 460,
      "ility": 461,
      "sure": 462,
      "where": 463,
      "inform": 464,
      "energy": 465,
      "ie": 466,
      "person": 467,
      "ual": 468,
      "ange": 469,
      "ca": 470,
      "les": 471,
      "ople": 472,
      "air": 473,
      "med": 474,
      "ving": 475,
      "bus": 476,
      "pen": 477,
      "ue": 478,
      "plan": 479,
      "exper": 480,
      "vide": 481,
      ":.": 482,
      "sa": 483,
      "ish": 484,
      "but": 485,
      "care": 486,
      "top": 487,
      "come": 488,
      "bu": 489,
      "should": 490,
      "rest": 491,
      "sum": 492,
      "using": 493,
      "what": 494,
      "ments": 495,
      "cts": 496,
      "water": 497,
      "ild": 498,
      "commun": 499,
      "ck": 500,
      "cy": 501,
      "gre": 502,
      "ities": 503,
      "may": 504,
      "divid": 505,
      "people": 506,
      "ween": 507,
      "between": 508,
      "important": 509,
      "je": 510,
      "my": 511,
      "ms": 512,
      "pon": 513,
      "iness": 514,
      "trans": 515,
      "her": 516,
      "val": 517,
      "inte": 518,
      "tim": 519,
      "stand": 520,
      "when": 521,
      "information": 522,
      "ake": 523,
      "cri": 524,
      "fol": 525,
      "ip": 526,
      "ily": 527,
      "sup": 528,
      "impro": 529,
      "play": 530,
      "pos": 531,
      "take": 532,
      "ele": 533,
      "high": 534,
      "vis": 535,
      "ved": 536,
      "vir": 537,
      "imp": 538,
      "ques": 539,
      "includ": 540,
      "fer": 541,
      "ho": 542,
      "reg": 543,
      "process": 544,
      "ys": 545,
      "ates": 546,
      "ise": 547,
      "develop": 548,
      "ak": 549,
      "bl": 550,
      "ctive": 551,
      "cho": 552,
      "dr": 553,
      "eas": 554,
      "vol": 555,
      "arch": 556,
      "ural": 557,
      "learning": 558,
      "technolo": 559,
      "cr": 560,
      "cor": 561,
      "cal": 562,
      "pow": 563,
      "sm": 564,
      "ters": 565,
      "fici": 566,
      "two": 567,
      "gg": 568,
      "ia": 569,
      "tal": 570,
      "provid": 571,
      "net": 572,
      "ult": 573,
      "experi": 574,
      "grow": 575,
      "list": 576,
      "ude": 577,
      "xt": 578,
      "than": 579,
      "think": 580,
      "rel": 581,
      "who": 582,
      "allow": 583,
      "ources": 584,
      "speci": 585,
      "ew": 586,
      "line": 587,
      "ative": 588,
      "ari": 589,
      "ions": 590,
      "set": 591,
      "del": 592,
      "cost": 593,
      "effe": 594,
      "ways": 595,
      "reduce": 596,
      "back": 597,
      "coun": 598,
      "dy": 599,
      "gan": 600,
      "pres": 601,
      "individ": 602,
      "arm": 603,
      "They": 604,
      "enerate": 605,
      "aw": 606,
      "each": 607,
      "fac": 608,
      "many": 609,
      "ness": 610,
      "sto": 611,
      "sur": 612,
      "old": 613,
      "tory": 614,
      "follow": 615,
      "num": 616,
      "these": 617,
      "provide": 618,
      "adv": 619,
      "under": 620,
      "stru": 621,
      "didn": 622,
      "bs": 623,
      "bal": 624,
      "cle": 625,
      "fin": 626,
      "year": 627,
      "mem": 628,
      "exam": 629,
      "does": 630,
      "Why": 631,
      "ize": 632,
      "business": 633,
      "af": 634,
      "sol": 635,
      "ability": 636,
      "tri": 637,
      "create": 638,
      "AI": 639,
      "En": 640,
      "ather": 641,
      "fi": 642,
      "oth": 643,
      "access": 644,
      "search": 645,
      "respon": 646,
      "design": 647,
      "serv": 648,
      "customer": 649,
      "cent": 650,
      "fun": 651,
      "home": 652,
      "just": 653,
      "plo": 654,
      "pur": 655,
      "ss": 656,
      "she": 657,
      "ices": 658,
      "being": 659,
      "sul": 660,
      "good": 661,
      "ages": 662,
      "Ex": 663,
      "ever": 664,
      "fy": 665,
      "long": 666,
      "ost": 667,
      "pol": 668,
      "ings": 669,
      "ication": 670,
      "acti": 671,
      "sel": 672,
      "marke": 673,
      "improve": 674,
      "including": 675,
      "00": 676,
      "ds": 677,
      "had": 678,
      "vari": 679,
      "ick": 680,
      "model": 681,
      "life": 682,
      "technology": 683,
      "power": 684,
      "ced": 685,
      "every": 686,
      "fam": 687,
      "gi": 688,
      "hap": 689,
      "ific": 690,
      "sk": 691,
      "sign": 692,
      "most": 693,
      "social": 694,
      "while": 695,
      "fore": 696,
      "personal": 697,
      "based": 698,
      "lar": 699,
      "edu": 700,
      "been": 701,
      "tional": 702,
      "There": 703,
      "riend": 704,
      "prom": 705,
      "compu": 706,
      "down": 707,
      "friend": 708,
      "hand": 709,
      "ns": 710,
      "cons": 711,
      "well": 712,
      "qui": 713,
      "going": 714,
      "ized": 715,
      "different": 716,
      "Con": 717,
      "nat": 718,
      "pat": 719,
      "wr": 720,
      "ors": 721,
      "let": 722,
      "made": 723,
      "body": 724,
      "food": 725,
      "include": 726,
      "cap": 727,
      "cour": 728,
      "dri": 729,
      "pt": 730,
      "tas": 731,
      "ution": 732,
      "step": 733,
      "dec": 734,
      "vers": 735,
      "impact": 736,
      "example": 737,
      "bre": 738,
      "min": 739,
      "uch": 740,
      "three": 741,
      "stud": 742,
      "dep": 743,
      "viron": 744,
      "An": 745,
      "If": 746,
      "ding": 747,
      "ot": 748,
      "tain": 749,
      "anal": 750,
      "comple": 751,
      "place": 752,
      "soci": 753,
      "world": 754,
      "specific": 755,
      "Ad": 756,
      "One": 757,
      "Re": 758,
      "cation": 759,
      "gor": 760,
      "put": 761,
      "ze": 762,
      "atch": 763,
      "ese": 764,
      "organ": 765,
      "often": 766,
      "proble": 767,
      "feel": 768,
      "aging": 769,
      "cause": 770,
      "experience": 771,
      "understand": 772,
      "pri": 773,
      "though": 774,
      "ins": 775,
      "irst": 776,
      "team": 777,
      "making": 778,
      "both": 779,
      "Can": 780,
      "Des": 781,
      "Generate": 782,
      "St": 783,
      "ccess": 784,
      "mon": 785,
      "pu": 786,
      "sof": 787,
      "ants": 788,
      "resul": 789,
      "environ": 790,
      "iting": 791,
      "were": 792,
      "pop": 793,
      "ization": 794,
      "support": 795,
      "number": 796,
      "self": 797,
      "Ch": 798,
      "ben": 799,
      "econ": 800,
      "ality": 801,
      "char": 802,
      "action": 803,
      "user": 804,
      "identi": 805,
      "sitive": 806,
      "sible": 807,
      "tware": 808,
      "manage": 809,
      "__": 810,
      "clo": 811,
      "fl": 812,
      "find": 813,
      "ose": 814,
      "read": 815,
      "change": 816,
      "vel": 817,
      "tect": 818,
      "signific": 819,
      "cing": 820,
      "ctr": 821,
      "gu": 822,
      "jo": 823,
      "pa": 824,
      "ption": 825,
      "tur": 826,
      "vent": 827,
      "ict": 828,
      "sever": 829,
      "show": 830,
      "view": 831,
      "better": 832,
      "small": 833,
      "significant": 834,
      "De": 835,
      "She": 836,
      "ail": 837,
      "bon": 838,
      "cu": 839,
      "light": 840,
      "mach": 841,
      "plain": 842,
      "poten": 843,
      "ills": 844,
      "That": 845,
      "angu": 846,
      "increase": 847,
      "said": 848,
      "computer": 849,
      "environment": 850,
      ").": 851,
      "cer": 852,
      "first": 853,
      "hy": 854,
      "less": 855,
      "ry": 856,
      "vo": 857,
      "ref": 858,
      "iss": 859,
      "tial": 860,
      "ital": 861,
      "chang": 862,
      "key": 863,
      "appl": 864,
      "prof": 865,
      "These": 866,
      "product": 867,
      "software": 868,
      "By": 869,
      "Com": 870,
      "On": 871,
      "lin": 872,
      "led": 873,
      "langu": 874,
      "ye": 875,
      "requi": 876,
      "ouse": 877,
      "see": 878,
      "tell": 879,
      "try": 880,
      "dition": 881,
      "webs": 882,
      "expen": 883,
      "ety": 884,
      "electr": 885,
      "growth": 886,
      "present": 887,
      "Pro": 888,
      "Un": 889,
      "bi": 890,
      "call": 891,
      "gener": 892,
      "hard": 893,
      "ses": 894,
      "sal": 895,
      "invol": 896,
      "only": 897,
      "online": 898,
      "ask": 899,
      "lead": 900,
      "ited": 901,
      "ics": 902,
      "dev": 903,
      "train": 904,
      "resources": 905,
      "mail": 906,
      "gram": 907,
      "him": 908,
      "hum": 909,
      "mer": 910,
      "ps": 911,
      "say": 912,
      "sim": 913,
      "ted": 914,
      "uals": 915,
      "ward": 916,
      "ences": 917,
      "asing": 918,
      "actions": 919,
      "beh": 920,
      "look": 921,
      "feat": 922,
      "pect": 923,
      "perform": 924,
      "goals": 925,
      "Here": 926,
      "customers": 927,
      "systems": 928,
      "family": 929,
      "econom": 930,
      "potential": 931,
      ":**": 932,
      "even": 933,
      "email": 934,
      "face": 935,
      "kes": 936,
      "pass": 937,
      "rele": 938,
      "ons": 939,
      "level": 940,
      "program": 941,
      "keep": 942,
      "aving": 943,
      "typ": 944,
      "cribe": 945,
      "effective": 946,
      "given": 947,
      "large": 948,
      "natural": 949,
      "website": 950,
      "Be": 951,
      "Some": 952,
      "found": 953,
      "lim": 954,
      "oks": 955,
      "part": 956,
      "tre": 957,
      "vity": 958,
      "too": 959,
      "off": 960,
      "sub": 961,
      "meas": 962,
      "ider": 963,
      "lobal": 964,
      "why": 965,
      "appro": 966,
      "point": 967,
      "que": 968,
      "ending": 969,
      "sive": 970,
      "learn": 971,
      "media": 972,
      "great": 973,
      "ject": 974,
      "valu": 975,
      "others": 976,
      "tasks": 977,
      "publ": 978,
      "benef": 979,
      "charac": 980,
      "several": 981,
      "For": 982,
      "Is": 983,
      "cam": 984,
      "fil": 985,
      "job": 986,
      "oper": 987,
      "ris": 988,
      "sis": 989,
      "sci": 990,
      "tle": 991,
      "ensure": 992,
      "algor": 993,
      "stay": 994,
      "success": 995,
      "cture": 996,
      "ights": 997,
      "class": 998,
      "focus": 999,
      "known": 1000,
      "audi": 1001,
      "development": 1002,
      "following": 1003,
      "years": 1004,
      "doesn": 1005,
      "decis": 1006,
      "language": 1007,
      "algorith": 1008,
      "As": 1009,
      "ctor": 1010,
      "house": 1011,
      "mul": 1012,
      "mone": 1013,
      "pare": 1014,
      "right": 1015,
      "sen": 1016,
      "ency": 1017,
      "tool": 1018,
      "ases": 1019,
      "accur": 1020,
      "gether": 1021,
      "consum": 1022,
      "adi": 1023,
      "main": 1024,
      "uring": 1025,
      "positive": 1026,
      "ship": 1027,
      "again": 1028,
      "strate": 1029,
      "effici": 1030,
      "phys": 1031,
      "colle": 1032,
      "build": 1033,
      "machine": 1034,
      "Bost": 1035,
      "Cre": 1036,
      "My": 1037,
      "cti": 1038,
      "dress": 1039,
      "flow": 1040,
      "gies": 1041,
      "must": 1042,
      "much": 1043,
      "range": 1044,
      "sing": 1045,
      "warm": 1046,
      "together": 1047,
      "start": 1048,
      "protect": 1049,
      "ately": 1050,
      "works": 1051,
      "achie": 1052,
      "diffic": 1053,
      "something": 1054,
      "communication": 1055,
      "possible": 1056,
      "individual": 1057,
      "individuals": 1058,
      "analy": 1059,
      "identify": 1060,
      "Boston": 1061,
      "Don": 1062,
      "Fren": 1063,
      "Over": 1064,
      "land": 1065,
      "pay": 1066,
      "sti": 1067,
      "story": 1068,
      "thod": 1069,
      "indu": 1070,
      "anced": 1071,
      "rect": 1072,
      "research": 1073,
      "ones": 1074,
      "che": 1075,
      "state": 1076,
      "head": 1077,
      "method": 1078,
      "users": 1079,
      "never": 1080,
      "tem": 1081,
      "text": 1082,
      "pred": 1083,
      "prevent": 1084,
      "tical": 1085,
      "open": 1086,
      "contin": 1087,
      "various": 1088,
      "happen": 1089,
      "promo": 1090,
      "thought": 1091,
      "multi": 1092,
      "French": 1093,
      "Tr": 1094,
      "blo": 1095,
      "cult": 1096,
      "gn": 1097,
      "game": 1098,
      "lit": 1099,
      "table": 1100,
      "around": 1101,
      "active": 1102,
      "before": 1103,
      "sun": 1104,
      "next": 1105,
      "lie": 1106,
      "working": 1107,
      "got": 1108,
      "When": 1109,
      "side": 1110,
      "portun": 1111,
      "needs": 1112,
      "carbon": 1113,
      "ularly": 1114,
      "ield": 1115,
      "education": 1116,
      "joy": 1117,
      "benefits": 1118,
      "money": 1119,
      "physical": 1120,
      "To": 1121,
      "cul": 1122,
      "global": 1123,
      "ique": 1124,
      "ner": 1125,
      "run": 1126,
      "sle": 1127,
      "won": 1128,
      "reach": 1129,
      "told": 1130,
      "ort": 1131,
      "order": 1132,
      "always": 1133,
      "ism": 1134,
      "isn": 1135,
      "issu": 1136,
      "ash": 1137,
      "chan": 1138,
      "ically": 1139,
      "ables": 1140,
      "tru": 1141,
      "plement": 1142,
      "taking": 1143,
      "company": 1144,
      "engage": 1145,
      "However": 1146,
      "interest": 1147,
      "easy": 1148,
      "businesses": 1149,
      "patter": 1150,
      "problem": 1151,
      "audience": 1152,
      "Create": 1153,
      "Make": 1154,
      "yes": 1155,
      "inv": 1156,
      "chall": 1157,
      "comes": 1158,
      "conne": 1159,
      "few": 1160,
      "maint": 1161,
      "quality": 1162,
      "ource": 1163,
      "clim": 1164,
      "bot": 1165,
      "anything": 1166,
      "helps": 1167,
      "opportun": 1168,
      "type": 1169,
      "ateri": 1170,
      "els": 1171,
      "content": 1172,
      "curity": 1173,
      "questions": 1174,
      "ficial": 1175,
      "maintain": 1176,
      "\".": 1177,
      "Are": 1178,
      "Did": 1179,
      "bility": 1180,
      "ctions": 1181,
      "clear": 1182,
      "came": 1183,
      "ft": 1184,
      "five": 1185,
      "field": 1186,
      "ile": 1187,
      "materi": 1188,
      "sit": 1189,
      "sources": 1190,
      "reco": 1191,
      "ature": 1192,
      "then": 1193,
      "enjoy": 1194,
      "today": 1195,
      "ory": 1196,
      "role": 1197,
      "ilities": 1198,
      "vern": 1199,
      "igence": 1200,
      "peti": 1201,
      "amoun": 1202,
      "share": 1203,
      "govern": 1204,
      "emplo": 1205,
      "portation": 1206,
      "grou": 1207,
      "grap": 1208,
      "tail": 1209,
      "healthcare": 1210,
      "provides": 1211,
      "network": 1212,
      "member": 1213,
      "service": 1214,
      "purch": 1215,
      "market": 1216,
      "students": 1217,
      "Addition": 1218,
      "involves": 1219,
      "patterns": 1220,
      ",.": 1221,
      "Al": 1222,
      "Pl": 1223,
      "So": 1224,
      "With": 1225,
      "Where": 1226,
      "best": 1227,
      "ger": 1228,
      "ient": 1229,
      "ible": 1230,
      "mi": 1231,
      "save": 1232,
      "stor": 1233,
      "tu": 1234,
      "aning": 1235,
      "item": 1236,
      "child": 1237,
      "sty": 1238,
      "ications": 1239,
      "because": 1240,
      "uses": 1241,
      "ession": 1242,
      "wee": 1243,
      "exp": 1244,
      "pose": 1245,
      "uture": 1246,
      "overall": 1247,
      "skills": 1248,
      "consider": 1249,
      "steps": 1250,
      "Describe": 1251,
      "changes": 1252,
      "electric": 1253,
      "human": 1254,
      "features": 1255,
      "public": 1256,
      "Additionally": 1257,
      "da": 1258,
      "fu": 1259,
      "mary": 1260,
      "might": 1261,
      "oking": 1262,
      "ped": 1263,
      "same": 1264,
      "inst": 1265,
      "ances": 1266,
      "real": 1267,
      "oud": 1268,
      "stress": 1269,
      "acy": 1270,
      "cept": 1271,
      "ides": 1272,
      "comb": 1273,
      "term": 1274,
      "within": 1275,
      "maj": 1276,
      "quick": 1277,
      "rent": 1278,
      "strong": 1279,
      "reducing": 1280,
      "ished": 1281,
      "summary": 1282,
      "transportation": 1283,
      "intell": 1284,
      "providing": 1285,
      "setting": 1286,
      "marketing": 1287,
      "depend": 1288,
      "result": 1289,
      "turn": 1290,
      "require": 1291,
      "devices": 1292,
      "levels": 1293,
      "difficult": 1294,
      "Overall": 1295,
      "still": 1296,
      "Let": 1297,
      "avi": 1298,
      "aking": 1299,
      "bers": 1300,
      "ev": 1301,
      "eat": 1302,
      "hold": 1303,
      "lab": 1304,
      "source": 1305,
      "tar": 1306,
      "ths": 1307,
      "reas": 1308,
      "atter": 1309,
      "ens": 1310,
      "stri": 1311,
      "ently": 1312,
      "security": 1313,
      "project": 1314,
      "love": 1315,
      "mental": 1316,
      "app": 1317,
      "avel": 1318,
      "speak": 1319,
      "produce": 1320,
      "ential": 1321,
      "obje": 1322,
      "difference": 1323,
      "question": 1324,
      "relation": 1325,
      "society": 1326,
      "paign": 1327,
      "character": 1328,
      "climate": 1329,
      "Amer": 1330,
      "Im": 1331,
      "Ke": 1332,
      "Person": 1333,
      "Take": 1334,
      "aks": 1335,
      "bar": 1336,
      "equ": 1337,
      "fre": 1338,
      "fast": 1339,
      "ich": 1340,
      "mind": 1341,
      "rap": 1342,
      "tes": 1343,
      "wal": 1344,
      "anim": 1345,
      "really": 1346,
      "recomm": 1347,
      "erc": 1348,
      "atis": 1349,
      "ark": 1350,
      "tificial": 1351,
      "stain": 1352,
      "icate": 1353,
      "sugg": 1354,
      "move": 1355,
      "without": 1356,
      "doing": 1357,
      "avail": 1358,
      "things": 1359,
      "early": 1360,
      "assist": 1361,
      "sphere": 1362,
      "contro": 1363,
      "partic": 1364,
      "increasing": 1365,
      "safe": 1366,
      "times": 1367,
      "chool": 1368,
      "cru": 1369,
      "talk": 1370,
      "store": 1371,
      "function": 1372,
      "poll": 1373,
      "called": 1374,
      "behavi": 1375,
      "opportunities": 1376,
      "recogn": 1377,
      "employe": 1378,
      "week": 1379,
      "labor": 1380,
      "Americ": 1381,
      "Br": 1382,
      "Te": 1383,
      "ath": 1384,
      "cate": 1385,
      "dig": 1386,
      "dist": 1387,
      "during": 1388,
      "fit": 1389,
      "free": 1390,
      "future": 1391,
      "gl": 1392,
      "mess": 1393,
      "og": 1394,
      "usu": 1395,
      "wa": 1396,
      "wind": 1397,
      "instru": 1398,
      "another": 1399,
      "ering": 1400,
      "til": 1401,
      "tiv": 1402,
      "aster": 1403,
      "offer": 1404,
      "road": 1405,
      "youn": 1406,
      "acks": 1407,
      "accoun": 1408,
      "become": 1409,
      "belie": 1410,
      "means": 1411,
      "ational": 1412,
      "areas": 1413,
      "proper": 1414,
      "teach": 1415,
      "track": 1416,
      "feed": 1417,
      "fect": 1418,
      "cted": 1419,
      "creating": 1420,
      "cover": 1421,
      "book": 1422,
      "wasn": 1423,
      "waste": 1424,
      "forest": 1425,
      "pread": 1426,
      "tors": 1427,
      "ground": 1428,
      "healthy": 1429,
      "increased": 1430,
      "topic": 1431,
      "costs": 1432,
      "Explain": 1433,
      "popul": 1434,
      "popular": 1435,
      "management": 1436,
      "____": 1437,
      "expenses": 1438,
      "campaign": 1439,
      "algorithms": 1440,
      "invest": 1441,
      "challeng": 1442,
      "major": 1443,
      "intelligence": 1444,
      "recommend": 1445,
      "19": 1446,
      "20": 1447,
      "Au": 1448,
      "Every": 1449,
      "May": 1450,
      "No": 1451,
      "aut": 1452,
      "city": 1453,
      "gar": 1454,
      "hour": 1455,
      "ier": 1456,
      "ious": 1457,
      "last": 1458,
      "mal": 1459,
      "nu": 1460,
      "name": 1461,
      "ping": 1462,
      "pain": 1463,
      "scal": 1464,
      "tren": 1465,
      "wide": 1466,
      "ats": 1467,
      "thesis": 1468,
      "assi": 1469,
      "associ": 1470,
      "iter": 1471,
      "itch": 1472,
      "heart": 1473,
      "sequ": 1474,
      "sustain": 1475,
      "ket": 1476,
      "implement": 1477,
      "clus": 1478,
      "books": 1479,
      "Who": 1480,
      "vities": 1481,
      "cuss": 1482,
      "ards": 1483,
      "space": 1484,
      "products": 1485,
      "pho": 1486,
      "green": 1487,
      "value": 1488,
      "clean": 1489,
      "services": 1490,
      "complex": 1491,
      "complete": 1492,
      "Develop": 1493,
      "profession": 1494,
      "sales": 1495,
      "relev": 1496,
      "measures": 1497,
      "paren": 1498,
      "materials": 1499,
      "government": 1500,
      "events": 1501,
      "relationship": 1502,
      "crucial": 1503,
      "usually": 1504,
      "associated": 1505,
      "Go": 1506,
      "Jo": 1507,
      "ax": 1508,
      "bas": 1509,
      "done": 1510,
      "eth": 1511,
      "generate": 1512,
      "harm": 1513,
      "knew": 1514,
      "oc": 1515,
      "ox": 1516,
      "pict": 1517,
      "sl": 1518,
      "stop": 1519,
      "school": 1520,
      "test": 1521,
      "thin": 1522,
      "ines": 1523,
      "ints": 1524,
      "input": 1525,
      "represent": 1526,
      "atmo": 1527,
      "istic": 1528,
      "arth": 1529,
      "left": 1530,
      "area": 1531,
      "prog": 1532,
      "cell": 1533,
      "competi": 1534,
      "unique": 1535,
      "essential": 1536,
      "weather": 1537,
      "plant": 1538,
      "aper": 1539,
      "pot": 1540,
      "word": 1541,
      "classi": 1542,
      "utes": 1543,
      "stry": 1544,
      "common": 1545,
      "autom": 1546,
      "community": 1547,
      "higher": 1548,
      "allows": 1549,
      "purpose": 1550,
      "activities": 1551,
      "happ": 1552,
      "friends": 1553,
      "problems": 1554,
      "lines": 1555,
      "training": 1556,
      "economic": 1557,
      "tools": 1558,
      "methods": 1559,
      "temper": 1560,
      "graph": 1561,
      "items": 1562,
      "quickly": 1563,
      "target": 1564,
      "account": 1565,
      "relevant": 1566,
      "Ar": 1567,
      "Earth": 1568,
      "Fr": 1569,
      "Lo": 1570,
      "Sh": 1571,
      "Use": 1572,
      "aid": 1573,
      "ban": 1574,
      "bor": 1575,
      "ball": 1576,
      "din": 1577,
      "ired": 1578,
      "lay": 1579,
      "sw": 1580,
      "sor": 1581,
      "tual": 1582,
      "win": 1583,
      "went": 1584,
      "watch": 1585,
      "thor": 1586,
      "rece": 1587,
      "ene": 1588,
      "enough": 1589,
      "ists": 1590,
      "lect": 1591,
      "ste": 1592,
      "stren": 1593,
      "heat": 1594,
      "room": 1595,
      "meaning": 1596,
      "abl": 1597,
      "abilities": 1598,
      "vert": 1599,
      "ird": 1600,
      "contri": 1601,
      "address": 1602,
      "movi": 1603,
      "direct": 1604,
      "history": 1605,
      "door": 1606,
      "uting": 1607,
      "internet": 1608,
      "ression": 1609,
      "integr": 1610,
      "choose": 1611,
      "advant": 1612,
      "courage": 1613,
      "issions": 1614,
      "asked": 1615,
      "performance": 1616,
      "types": 1617,
      "successful": 1618,
      "decision": 1619,
      "industry": 1620,
      "sleep": 1621,
      "amount": 1622,
      "fuels": 1623,
      "Keep": 1624,
      "behavior": 1625,
      "employees": 1626,
      "young": 1627,
      "atmosphere": 1628,
      "streng": 1629,
      "12": 1630,
      "Col": 1631,
      "Su": 1632,
      "cure": 1633,
      "den": 1634,
      "date": 1635,
      "emo": 1636,
      "gin": 1637,
      "give": 1638,
      "hn": 1639,
      "itor": 1640,
      "ls": 1641,
      "night": 1642,
      "ore": 1643,
      "oid": 1644,
      "pir": 1645,
      "page": 1646,
      "satis": 1647,
      "spread": 1648,
      "tend": 1649,
      "ination": 1650,
      "ince": 1651,
      "ancial": 1652,
      "ata": 1653,
      "attr": 1654,
      "star": 1655,
      "ross": 1656,
      "dem": 1657,
      "necess": 1658,
      "concept": 1659,
      "tradi": 1660,
      "travel": 1661,
      "motiv": 1662,
      "resh": 1663,
      "until": 1664,
      "ury": 1665,
      "live": 1666,
      "yourself": 1667,
      "cip": 1668,
      "short": 1669,
      "fru": 1670,
      "code": 1671,
      "board": 1672,
      "practi": 1673,
      "avor": 1674,
      "compan": 1675,
      "compon": 1676,
      "author": 1677,
      "contain": 1678,
      "ideas": 1679,
      "calcul": 1680,
      "smart": 1681,
      "experiences": 1682,
      "affic": 1683,
      "000": 1684,
      "letter": 1685,
      "study": 1686,
      "Once": 1687,
      "wards": 1688,
      "risk": 1689,
      "consumption": 1690,
      "predic": 1691,
      "continu": 1692,
      "multiple": 1693,
      "little": 1694,
      "purchase": 1695,
      "rapid": 1696,
      "control": 1697,
      "photo": 1698,
      "John": 1699,
      "progress": 1700,
      "movie": 1701,
      "necessary": 1702,
      "Di": 1703,
      "Fin": 1704,
      "List": 1705,
      "Wr": 1706,
      "aim": 1707,
      "gative": 1708,
      "iti": 1709,
      "non": 1710,
      "sch": 1711,
      "ware": 1712,
      "review": 1713,
      "erg": 1714,
      "err": 1715,
      "onic": 1716,
      "touch": 1717,
      "ories": 1718,
      "least": 1719,
      "stre": 1720,
      "veget": 1721,
      "fort": 1722,
      "mee": 1723,
      "meet": 1724,
      "ney": 1725,
      "negative": 1726,
      "consequ": 1727,
      "tra": 1728,
      "true": 1729,
      "traffic": 1730,
      "respect": 1731,
      "wear": 1732,
      "mag": 1733,
      "makes": 1734,
      "exc": 1735,
      "expect": 1736,
      "lives": 1737,
      "living": 1738,
      "post": 1739,
      "cities": 1740,
      "due": 1741,
      "shop": 1742,
      "box": 1743,
      "Inter": 1744,
      "knowled": 1745,
      "optim": 1746,
      "computing": 1747,
      "someone": 1748,
      "full": 1749,
      "engine": 1750,
      "engaging": 1751,
      "idea": 1752,
      "cycl": 1753,
      "vision": 1754,
      "regul": 1755,
      "regular": 1756,
      "ysis": 1757,
      "choice": 1758,
      "allowing": 1759,
      "presents": 1760,
      "fix": 1761,
      "responsi": 1762,
      "ssil": 1763,
      "activity": 1764,
      "everyone": 1765,
      "everything": 1766,
      "versity": 1767,
      "break": 1768,
      "minutes": 1769,
      "And": 1770,
      "prior": 1771,
      "United": 1772,
      "simple": 1773,
      "typically": 1774,
      "effectively": 1775,
      "approach": 1776,
      "decisions": 1777,
      "strategies": 1778,
      "issues": 1779,
      "engagement": 1780,
      "children": 1781,
      "electricity": 1782,
      "pollution": 1783,
      "believe": 1784,
      "feedback": 1785,
      "challenges": 1786,
      "traditional": 1787,
      "consequences": 1788,
      "18": 1789,
      "Ap": 1790,
      "Cus": 1791,
      "Data": 1792,
      "Give": 1793,
      "Pe": 1794,
      "Po": 1795,
      "Ple": 1796,
      "Your": 1797,
      "bul": 1798,
      "bur": 1799,
      "case": 1800,
      "dom": 1801,
      "eyes": 1802,
      "four": 1803,
      "favor": 1804,
      "hun": 1805,
      "ied": 1806,
      "ife": 1807,
      "iques": 1808,
      "ken": 1809,
      "mor": 1810,
      "mil": 1811,
      "matter": 1812,
      "pie": 1813,
      "sco": 1814,
      "ually": 1815,
      "war": 1816,
      "anti": 1817,
      "renew": 1818,
      "ert": 1819,
      "erous": 1820,
      "ati": 1821,
      "atten": 1822,
      "artificial": 1823,
      "leg": 1824,
      "chat": 1825,
      "seen": 1826,
      "secure": 1827,
      "force": 1828,
      "ush": 1829,
      "verse": 1830,
      "terday": 1831,
      "conf": 1832,
      "conclus": 1833,
      "adap": 1834,
      "lot": 1835,
      "local": 1836,
      "web": 1837,
      "plat": 1838,
      "points": 1839,
      "soon": 1840,
      "sho": 1841,
      "illed": 1842,
      "ports": 1843,
      "prim": 1844,
      "print": 1845,
      "izing": 1846,
      "tics": 1847,
      "news": 1848,
      "discuss": 1849,
      "production": 1850,
      "**:": 1851,
      "brand": 1852,
      "phone": 1853,
      "techniques": 1854,
      "current": 1855,
      "differences": 1856,
      "medi": 1857,
      "plants": 1858,
      "planning": 1859,
      "posed": 1860,
      "hope": 1861,
      "easier": 1862,
      "corpor": 1863,
      "cording": 1864,
      "listen": 1865,
      "effects": 1866,
      "aware": 1867,
      "financial": 1868,
      "after": 1869,
      "fied": 1870,
      "designed": 1871,
      "drive": 1872,
      "feelings": 1873,
      "understanding": 1874,
      "insights": 1875,
      "close": 1876,
      "ready": 1877,
      "certain": 1878,
      "voice": 1879,
      "application": 1880,
      "programs": 1881,
      "appropri": 1882,
      "accuracy": 1883,
      "efficient": 1884,
      "achieve": 1885,
      "analyze": 1886,
      "promote": 1887,
      "culture": 1888,
      "tructure": 1889,
      "situ": 1890,
      "groups": 1891,
      "style": 1892,
      "walk": 1893,
      "ercise": 1894,
      "available": 1895,
      "digital": 1896,
      "population": 1897,
      "hours": 1898,
      "professional": 1899,
      "Custom": 1900,
      "Please": 1901,
      "renewable": 1902,
      "!.": 1903,
      "10": 1904,
      "Gi": 1905,
      "Le": 1906,
      "Ne": 1907,
      "Res": 1908,
      "US": 1909,
      "aur": 1910,
      "bro": 1911,
      "big": 1912,
      "cks": 1913,
      "cup": 1914,
      "dou": 1915,
      "ease": 1916,
      "fle": 1917,
      "father": 1918,
      "gard": 1919,
      "hab": 1920,
      "hip": 1921,
      "kind": 1922,
      "late": 1923,
      "pan": 1924,
      "pers": 1925,
      "paper": 1926,
      "ral": 1927,
      "rain": 1928,
      "round": 1929,
      "sent": 1930,
      "smo": 1931,
      "tro": 1932,
      "ug": 1933,
      "zing": 1934,
      "ane": 1935,
      "reli": 1936,
      "report": 1937,
      "ator": 1938,
      "tow": 1939,
      "total": 1940,
      "ising": 1941,
      "tili": 1942,
      "itation": 1943,
      "hear": 1944,
      "roll": 1945,
      "deep": 1946,
      "detail": 1947,
      "ili": 1948,
      "ilar": 1949,
      "coming": 1950,
      "condi": 1951,
      "concer": 1952,
      "looks": 1953,
      "resol": 1954,
      "urther": 1955,
      "among": 1956,
      "explo": 1957,
      "docu": 1958,
      "peri": 1959,
      "goal": 1960,
      "emissions": 1961,
      "Which": 1962,
      "ountain": 1963,
      "prin": 1964,
      "preferen": 1965,
      "forms": 1966,
      "establ": 1967,
      "tax": 1968,
      "avoid": 1969,
      "special": 1970,
      "sym": 1971,
      "dish": 1972,
      "ously": 1973,
      "fully": 1974,
      "else": 1975,
      "intro": 1976,
      "wanted": 1977,
      "importance": 1978,
      "olog": 1979,
      "medical": 1980,
      "buy": 1981,
      "restaur": 1982,
      "virtual": 1983,
      "regularly": 1984,
      "processing": 1985,
      "draw": 1986,
      "easily": 1987,
      "members": 1988,
      "models": 1989,
      "patient": 1990,
      "write": 1991,
      "capital": 1992,
      "driving": 1993,
      "States": 1994,
      "flu": 1995,
      "smaller": 1996,
      "significantly": 1997,
      "refers": 1998,
      "values": 1999,
      "sense": 2000,
      "ctives": 2001,
      "storage": 2002,
      "animals": 2003,
      "particularly": 2004,
      "categor": 2005,
      "scale": 2006,
      "thinking": 2007,
      "contribu": 2008,
      "companies": 2009,
      "components": 2010,
      "Write": 2011,
      "knowledge": 2012,
      "appropriate": 2013,
      "Given": 2014,
      "Dis": 2015,
      "Ef": 2016,
      "Fi": 2017,
      "Fo": 2018,
      "Id": 2019,
      "Mar": 2020,
      "Name": 2021,
      "Or": 2022,
      "Pr": 2023,
      "Will": 2024,
      "bed": 2025,
      "bit": 2026,
      "bud": 2027,
      "cir": 2028,
      "dark": 2029,
      "eco": 2030,
      "gas": 2031,
      "hor": 2032,
      "having": 2033,
      "jour": 2034,
      "lt": 2035,
      "lu": 2036,
      "law": 2037,
      "mom": 2038,
      "mist": 2039,
      "pair": 2040,
      "rate": 2041,
      "rise": 2042,
      "sc": 2043,
      "sound": 2044,
      "ton": 2045,
      "wo": 2046,
      "xim": 2047,
      "those": 2048,
      "income": 2049,
      "arri": 2050,
      "tit": 2051,
      "astructure": 2052,
      "leave": 2053,
      "leaving": 2054,
      "ches": 2055,
      "enter": 2056,
      "secre": 2057,
      "seem": 2058,
      "became": 2059,
      "def": 2060,
      "deli": 2061,
      "mechan": 2062,
      "contr": 2063,
      "tries": 2064,
      "trust": 2065,
      "advert": 2066,
      "log": 2067,
      "ules": 2068,
      "dia": 2069,
      "weight": 2070,
      "ampl": 2071,
      "plas": 2072,
      "appre": 2073,
      "pothesis": 2074,
      "cting": 2075,
      "rich": 2076,
      "dog": 2077,
      "shap": 2078,
      "words": 2079,
      "cloud": 2080,
      "frastructure": 2081,
      "cool": 2082,
      "cooking": 2083,
      "nothing": 2084,
      "emerg": 2085,
      "foot": 2086,
      "fossil": 2087,
      "takes": 2088,
      "option": 2089,
      "answ": 2090,
      "lower": 2091,
      "interact": 2092,
      "interactive": 2093,
      "parti": 2094,
      "color": 2095,
      "collabor": 2096,
      "saw": 2097,
      "timately": 2098,
      "cription": 2099,
      "plays": 2100,
      "visual": 2101,
      "includes": 2102,
      "networks": 2103,
      "related": 2104,
      "species": 2105,
      "country": 2106,
      "structure": 2107,
      "solu": 2108,
      "longer": 2109,
      "polic": 2110,
      "powerful": 2111,
      "personalized": 2112,
      "computers": 2113,
      "writing": 2114,
      "decid": 2115,
      "analysis": 2116,
      "organization": 2117,
      "priv": 2118,
      "expensive": 2119,
      "Provide": 2120,
      "behind": 2121,
      "party": 2122,
      "measure": 2123,
      "valuable": 2124,
      "algorithm": 2125,
      "against": 2126,
      "building": 2127,
      "ctivity": 2128,
      "warming": 2129,
      "statement": 2130,
      "predict": 2131,
      "channe": 2132,
      "yesterday": 2133,
      "termine": 2134,
      "Personal": 2135,
      "American": 2136,
      "fitness": 2137,
      "occur": 2138,
      "temperature": 2139,
      "directly": 2140,
      "rapidly": 2141,
      "favorite": 2142,
      "adapt": 2143,
      "conditions": 2144,
      "appreci": 2145,
      "Af": 2146,
      "Access": 2147,
      "Bo": 2148,
      "Bre": 2149,
      "Co": 2150,
      "Have": 2151,
      "New": 2152,
      "Redu": 2153,
      "Set": 2154,
      "away": 2155,
      "bt": 2156,
      "ded": 2157,
      "dro": 2158,
      "egg": 2159,
      "far": 2160,
      "fair": 2161,
      "faster": 2162,
      "fresh": 2163,
      "gam": 2164,
      "ition": 2165,
      "ibility": 2166,
      "ling": 2167,
      "men": 2168,
      "ming": 2169,
      "mus": 2170,
      "mun": 2171,
      "mountain": 2172,
      "nam": 2173,
      "os": 2174,
      "sand": 2175,
      "sides": 2176,
      "vac": 2177,
      "vation": 2178,
      "whe": 2179,
      "ina": 2180,
      "infrastructure": 2181,
      "reat": 2182,
      "remo": 2183,
      "recent": 2184,
      "remember": 2185,
      "recycl": 2186,
      "towards": 2187,
      "orig": 2188,
      "aling": 2189,
      "along": 2190,
      "andom": 2191,
      "ison": 2192,
      "isting": 2193,
      "argu": 2194,
      "offe": 2195,
      "chain": 2196,
      "icine": 2197,
      "acts": 2198,
      "sea": 2199,
      "forward": 2200,
      "decre": 2201,
      "ilt": 2202,
      "super": 2203,
      "ared": 2204,
      "verage": 2205,
      "imin": 2206,
      "iment": 2207,
      "constru": 2208,
      "convers": 2209,
      "conside": 2210,
      "loss": 2211,
      "unch": 2212,
      "diet": 2213,
      "diox": 2214,
      "appe": 2215,
      "ried": 2216,
      "quer": 2217,
      "please": 2218,
      "bots": 2219,
      "fication": 2220,
      "aged": 2221,
      "ends": 2222,
      "sition": 2223,
      "Incre": 2224,
      "datab": 2225,
      "ought": 2226,
      "grad": 2227,
      "knows": 2228,
      "speed": 2229,
      "syn": 2230,
      "spend": 2231,
      "spending": 2232,
      "needed": 2233,
      "serve": 2234,
      "series": 2235,
      "bring": 2236,
      "entire": 2237,
      "days": 2238,
      "busy": 2239,
      "planet": 2240,
      "communicate": 2241,
      "cycle": 2242,
      "transform": 2243,
      "countries": 2244,
      "faces": 2245,
      "suring": 2246,
      "balance": 2247,
      "solar": 2248,
      "Eng": 2249,
      "response": 2250,
      "responsible": 2251,
      "century": 2252,
      "larger": 2253,
      "friendly": 2254,
      "consist": 2255,
      "nature": 2256,
      "couraging": 2257,
      "task": 2258,
      "month": 2259,
      "monitor": 2260,
      "hypothesis": 2261,
      "applications": 2262,
      "password": 2263,
      "limit": 2264,
      "characters": 2265,
      "scient": 2266,
      "science": 2267,
      "accurate": 2268,
      "strategy": 2269,
      "industri": 2270,
      "happened": 2271,
      "group": 2272,
      "Social": 2273,
      "daily": 2274,
      "reasons": 2275,
      "sugges": 2276,
      "recognition": 2277,
      "message": 2278,
      "waiting": 2279,
      "auty": 2280,
      "trends": 2281,
      "sustainable": 2282,
      "relationships": 2283,
      "picture": 2284,
      "happy": 2285,
      "dinner": 2286,
      "demand": 2287,
      "vegetables": 2288,
      "meeting": 2289,
      "attention": 2290,
      "conclusion": 2291,
      "primary": 2292,
      "situation": 2293,
      "Customer": 2294,
      "garden": 2295,
      "town": 2296,
      "Identi": 2297,
      "budget": 2298,
      "channels": 2299,
      "After": 2300,
      "offee": 2301,
      "considered": 2302,
      "dioxide": 2303,
      "15": 2304,
      "Bu": 2305,
      "Both": 2306,
      "His": 2307,
      "Med": 2308,
      "Many": 2309,
      "Sy": 2310,
      "Wor": 2311,
      "Water": 2312,
      "bir": 2313,
      "cut": 2314,
      "card": 2315,
      "coffee": 2316,
      "evid": 2317,
      "ered": 2318,
      "fall": 2319,
      "gun": 2320,
      "hi": 2321,
      "har": 2322,
      "hav": 2323,
      "lat": 2324,
      "mid": 2325,
      "nal": 2326,
      "ned": 2327,
      "ply": 2328,
      "press": 2329,
      "ru": 2330,
      "ran": 2331,
      "sed": 2332,
      "tag": 2333,
      "tree": 2334,
      "une": 2335,
      "wall": 2336,
      "wild": 2337,
      "wants": 2338,
      "inno": 2339,
      "att": 2340,
      "atures": 2341,
      "atory": 2342,
      "took": 2343,
      "outs": 2344,
      "orrow": 2345,
      "ali": 2346,
      "alia": 2347,
      "artic": 2348,
      "edom": 2349,
      "itted": 2350,
      "stu": 2351,
      "across": 2352,
      "according": 2353,
      "seas": 2354,
      "beach": 2355,
      "begin": 2356,
      "beauty": 2357,
      "forget": 2358,
      "deter": 2359,
      "dead": 2360,
      "defin": 2361,
      "detect": 2362,
      "sugar": 2363,
      "prote": 2364,
      "cean": 2365,
      "neural": 2366,
      "condu": 2367,
      "conven": 2368,
      "add": 2369,
      "loc": 2370,
      "location": 2371,
      "looking": 2372,
      "respir": 2373,
      "felt": 2374,
      "dire": 2375,
      "dies": 2376,
      "pep": 2377,
      "weet": 2378,
      "ership": 2379,
      "lived": 2380,
      "perfect": 2381,
      "creative": 2382,
      "anyone": 2383,
      "price": 2384,
      "helping": 2385,
      "stralia": 2386,
      "ght": 2387,
      "tomorrow": 2388,
      "aves": 2389,
      "aved": 2390,
      "avig": 2391,
      "opin": 2392,
      "differ": 2393,
      "Health": 2394,
      "likely": 2395,
      "desired": 2396,
      "bright": 2397,
      "auti": 2398,
      "cars": 2399,
      "park": 2400,
      "cold": 2401,
      "colors": 2402,
      "ology": 2403,
      "caused": 2404,
      "medicine": 2405,
      "career": 2406,
      "jects": 2407,
      "critical": 2408,
      "elements": 2409,
      "developing": 2410,
      "black": 2411,
      "technologies": 2412,
      "cry": 2413,
      "talking": 2414,
      "relax": 2415,
      "effect": 2416,
      "factors": 2417,
      "advance": 2418,
      "advanced": 2419,
      "accessible": 2420,
      "central": 2421,
      "variety": 2422,
      "tainment": 2423,
      "Add": 2424,
      "results": 2425,
      "path": 2426,
      "device": 2427,
      "similar": 2428,
      "trees": 2429,
      "film": 2430,
      "ctors": 2431,
      "efficiency": 2432,
      "issue": 2433,
      "reason": 2434,
      "objects": 2435,
      "equal": 2436,
      "testing": 2437,
      "suggest": 2438,
      "recommendations": 2439,
      "Australia": 2440,
      "basic": 2441,
      "ethical": 2442,
      "Look": 2443,
      "layer": 2444,
      "advantages": 2445,
      "emotional": 2446,
      "attract": 2447,
      "authorized": 2448,
      "Finally": 2449,
      "shopping": 2450,
      "morning": 2451,
      "flex": 2452,
      "resolution": 2453,
      "preferences": 2454,
      "introdu": 2455,
      "journey": 2456,
      "luck": 2457,
      "moment": 2458,
      "advertising": 2459,
      "answer": 2460,
      "decided": 2461,
      "Identify": 2462,
      "haven": 2463,
      "article": 2464,
      "),": 2465,
      "):": 2466,
      ",\"": 2467,
      "30": 2468,
      "Ass": 2469,
      "Could": 2470,
      "Def": 2471,
      "Edu": 2472,
      "ID": 2473,
      "Mon": 2474,
      "Mach": 2475,
      "Nor": 2476,
      "Op": 2477,
      "Sw": 2478,
      "Sol": 2479,
      "Wi": 2480,
      "abe": 2481,
      "ago": 2482,
      "average": 2483,
      "bab": 2484,
      "cas": 2485,
      "dang": 2486,
      "event": 2487,
      "flo": 2488,
      "ges": 2489,
      "hom": 2490,
      "ire": 2491,
      "ived": 2492,
      "kid": 2493,
      "lap": 2494,
      "lack": 2495,
      "leng": 2496,
      "mas": 2497,
      "miss": 2498,
      "nor": 2499,
      "nar": 2500,
      "past": 2501,
      "ray": 2502,
      "rather": 2503,
      "random": 2504,
      "scre": 2505,
      "ture": 2506,
      "ues": 2507,
      "yet": 2508,
      "zz": 2509,
      "inc": 2510,
      "inten": 2511,
      "insp": 2512,
      "influ": 2513,
      "rely": 2514,
      "represents": 2515,
      "ont": 2516,
      "onest": 2517,
      "enh": 2518,
      "ensuring": 2519,
      "outh": 2520,
      "alle": 2521,
      "alone": 2522,
      "ised": 2523,
      "asc": 2524,
      "ites": 2525,
      "chem": 2526,
      "vey": 2527,
      "aces": 2528,
      "secon": 2529,
      "beauti": 2530,
      "mel": 2531,
      "meters": 2532,
      "cep": 2533,
      "idge": 2534,
      "near": 2535,
      "compl": 2536,
      "complain": 2537,
      "ither": 2538,
      "addi": 2539,
      "adjust": 2540,
      "mother": 2541,
      "moder": 2542,
      "mobi": 2543,
      "lost": 2544,
      "uni": 2545,
      "unauthorized": 2546,
      "white": 2547,
      "died": 2548,
      "diversity": 2549,
      "explain": 2550,
      "lif": 2551,
      "ciple": 2552,
      "boost": 2553,
      "ager": 2554,
      "agers": 2555,
      "agno": 2556,
      "prefer": 2557,
      "options": 2558,
      "venue": 2559,
      "earth": 2560,
      "earch": 2561,
      "interface": 2562,
      "getting": 2563,
      "phones": 2564,
      "parts": 2565,
      "married": 2566,
      "informed": 2567,
      "causing": 2568,
      "causes": 2569,
      "plane": 2570,
      "built": 2571,
      "communities": 2572,
      "transfer": 2573,
      "transparen": 2574,
      "playing": 2575,
      "highly": 2576,
      "vised": 2577,
      "hot": 2578,
      "hood": 2579,
      "akes": 2580,
      "drink": 2581,
      "volution": 2582,
      "gging": 2583,
      "ggest": 2584,
      "provided": 2585,
      "counts": 2586,
      "advice": 2587,
      "solution": 2588,
      "tried": 2589,
      "respond": 2590,
      "designing": 2591,
      "servation": 2592,
      "famous": 2593,
      "edule": 2594,
      "hands": 2595,
      "letters": 2596,
      "capabilities": 2597,
      "course": 2598,
      "Anal": 2599,
      "Reg": 2600,
      "Design": 2601,
      "resulting": 2602,
      "hydr": 2603,
      "changing": 2604,
      "requires": 2605,
      "bio": 2606,
      "salt": 2607,
      "humans": 2608,
      "economy": 2609,
      "limited": 2610,
      "lands": 2611,
      "check": 2612,
      "cultural": 2613,
      "liter": 2614,
      "interests": 2615,
      "expand": 2616,
      "requirements": 2617,
      "Impro": 2618,
      "________": 2619,
      "investment": 2620,
      "greenhouse": 2621,
      "classification": 2622,
      "strength": 2623,
      "Suggest": 2624,
      "schedule": 2625,
      "error": 2626,
      "responsibility": 2627,
      "breakfast": 2628,
      "awareness": 2629,
      "concerns": 2630,
      "principle": 2631,
      "restaurant": 2632,
      "contribute": 2633,
      "mistake": 2634,
      "wood": 2635,
      "contrast": 2636,
      "whether": 2637,
      "origin": 2638,
      "industries": 2639,
      "evidence": 2640,
      "determin": 2641,
      "Machine": 2642,
      "beautiful": 2643,
      "additional": 2644,
      "mobile": 2645,
      "24": 2646,
      "37": 2647,
      "All": 2648,
      "Ano": 2649,
      "During": 2650,
      "Em": 2651,
      "Each": 2652,
      "GP": 2653,
      "Get": 2654,
      "Just": 2655,
      "Now": 2656,
      "Of": 2657,
      "Our": 2658,
      "Ro": 2659,
      "Ren": 2660,
      "Sp": 2661,
      "Sum": 2662,
      "Ul": 2663,
      "ah": 2664,
      "afr": 2665,
      "bic": 2666,
      "bad": 2667,
      "brow": 2668,
      "catch": 2669,
      "dre": 2670,
      "ders": 2671,
      "dest": 2672,
      "eating": 2673,
      "eye": 2674,
      "gave": 2675,
      "gather": 2676,
      "gene": 2677,
      "hes": 2678,
      "ler": 2679,
      "lone": 2680,
      "mill": 2681,
      "match": 2682,
      "ove": 2683,
      "ocean": 2684,
      "pack": 2685,
      "rou": 2686,
      "rout": 2687,
      "rates": 2688,
      "rules": 2689,
      "spr": 2690,
      "since": 2691,
      "sampl": 2692,
      "tables": 2693,
      "ute": 2694,
      "vil": 2695,
      "vill": 2696,
      "inves": 2697,
      "incorpor": 2698,
      "ank": 2699,
      "redi": 2700,
      "recor": 2701,
      "tooth": 2702,
      "ingredi": 2703,
      "alter": 2704,
      "omen": 2705,
      "offic": 2706,
      "chick": 2707,
      "stant": 2708,
      "heard": 2709,
      "enty": 2710,
      "seve": 2711,
      "separ": 2712,
      "forts": 2713,
      "iles": 2714,
      "suf": 2715,
      "suit": 2716,
      "met": 2717,
      "meal": 2718,
      "usage": 2719,
      "aren": 2720,
      "ident": 2721,
      "keys": 2722,
      "kept": 2723,
      "tered": 2724,
      "imm": 2725,
      "images": 2726,
      "immedi": 2727,
      "terms": 2728,
      "constant": 2729,
      "trip": 2730,
      "addition": 2731,
      "loved": 2732,
      "pean": 2733,
      "wel": 2734,
      "mage": 2735,
      "maxim": 2736,
      "extr": 2737,
      "exercise": 2738,
      "existing": 2739,
      "position": 2740,
      "quanti": 2741,
      "shor": 2742,
      "ighting": 2743,
      "porting": 2744,
      "frame": 2745,
      "cred": 2746,
      "note": 2747,
      "noise": 2748,
      "agree": 2749,
      "While": 2750,
      "anymore": 2751,
      "istant": 2752,
      "updat": 2753,
      "gry": 2754,
      "taken": 2755,
      "diseas": 2756,
      "earning": 2757,
      "elimin": 2758,
      "interactions": 2759,
      "productivity": 2760,
      "ference": 2761,
      "describe": 2762,
      "serious": 2763,
      "brings": 2764,
      "entific": 2765,
      "engaged": 2766,
      "auce": 2767,
      "carry": 2768,
      "ift": 2769,
      "throughout": 2770,
      "standing": 2771,
      "players": 2772,
      "imply": 2773,
      "developed": 2774,
      "drug": 2775,
      "growing": 2776,
      "faction": 2777,
      "stood": 2778,
      "stored": 2779,
      "stock": 2780,
      "survi": 2781,
      "surpr": 2782,
      "numerous": 2783,
      "advent": 2784,
      "strugg": 2785,
      "balanced": 2786,
      "memory": 2787,
      "solving": 2788,
      "fire": 2789,
      "fund": 2790,
      "selves": 2791,
      "giving": 2792,
      "ification": 2793,
      "wrong": 2794,
      "driven": 2795,
      "breaks": 2796,
      "minim": 2797,
      "Remember": 2798,
      "organized": 2799,
      "feeling": 2800,
      "thoughts": 2801,
      "Commun": 2802,
      "trying": 2803,
      "general": 2804,
      "involve": 2805,
      "trained": 2806,
      "feature": 2807,
      "camer": 2808,
      "risks": 2809,
      "scientific": 2810,
      "classes": 2811,
      "achieved": 2812,
      "analyzing": 2813,
      "continue": 2814,
      "promoting": 2815,
      "block": 2816,
      "running": 2817,
      "wonder": 2818,
      "maintaining": 2819,
      "amounts": 2820,
      "stronger": 2821,
      "Implement": 2822,
      "frequ": 2823,
      "freedom": 2824,
      "assistant": 2825,
      "Tell": 2826,
      "distance": 2827,
      "wait": 2828,
      "teacher": 2829,
      "campaigns": 2830,
      "nutri": 2831,
      "implementing": 2832,
      "parents": 2833,
      "cellent": 2834,
      "competitive": 2835,
      "graphics": 2836,
      "swim": 2837,
      "receive": 2838,
      "satisfaction": 2839,
      "practice": 2840,
      "itize": 2841,
      "traits": 2842,
      "Apple": 2843,
      "People": 2844,
      "piece": 2845,
      "atives": 2846,
      "doubt": 2847,
      "perspe": 2848,
      "establish": 2849,
      "particip": 2850,
      "solutions": 2851,
      "recycling": 2852,
      "query": 2853,
      "database": 2854,
      "monthly": 2855,
      "Build": 2856,
      "respiratory": 2857,
      "North": 2858,
      "homes": 2859,
      "screen": 2860,
      "modern": 2861,
      "Another": 2862,
      "GPT": 2863,
      "Ultimately": 2864,
      "afraid": 2865,
      "office": 2866,
      "diseases": 2867,
      "(\"": 2868,
      "50": 2869,
      "AM": 2870,
      "But": 2871,
      "Based": 2872,
      "Cl": 2873,
      "Car": 2874,
      "Come": 2875,
      "Cho": 2876,
      "Further": 2877,
      "Jap": 2878,
      "Man": 2879,
      "Qu": 2880,
      "Red": 2881,
      "Se": 2882,
      "Secon": 2883,
      "Since": 2884,
      "TV": 2885,
      "Using": 2886,
      "Would": 2887,
      "ade": 2888,
      "aud": 2889,
      "band": 2890,
      "bits": 2891,
      "cis": 2892,
      "cau": 2893,
      "cards": 2894,
      "fed": 2895,
      "fact": 2896,
      "fish": 2897,
      "gent": 2898,
      "gate": 2899,
      "gases": 2900,
      "hal": 2901,
      "hic": 2902,
      "hur": 2903,
      "ime": 2904,
      "itive": 2905,
      "kill": 2906,
      "lighting": 2907,
      "nis": 2908,
      "nation": 2909,
      "navig": 2910,
      "pun": 2911,
      "pul": 2912,
      "phas": 2913,
      "ptom": 2914,
      "ra": 2915,
      "rights": 2916,
      "radi": 2917,
      "ronic": 2918,
      "sn": 2919,
      "spo": 2920,
      "squ": 2921,
      "slow": 2922,
      "spot": 2923,
      "tch": 2924,
      "vit": 2925,
      "vary": 2926,
      "wid": 2927,
      "wise": 2928,
      "wife": 2929,
      "zen": 2930,
      "zed": 2931,
      "thr": 2932,
      "throw": 2933,
      "third": 2934,
      "ining": 2935,
      "inary": 2936,
      "insul": 2937,
      "repl": 2938,
      "reci": 2939,
      "replace": 2940,
      "repair": 2941,
      "revenue": 2942,
      "onom": 2943,
      "encourage": 2944,
      "tour": 2945,
      "tori": 2946,
      "ork": 2947,
      "oring": 2948,
      "alse": 2949,
      "already": 2950,
      "ands": 2951,
      "ises": 2952,
      "isol": 2953,
      "ars": 2954,
      "aring": 2955,
      "arms": 2956,
      "leaks": 2957,
      "ster": 2958,
      "states": 2959,
      "vehic": 2960,
      "roles": 2961,
      "acc": 2962,
      "sele": 2963,
      "becomes": 2964,
      "ilit": 2965,
      "usion": 2966,
      "absor": 2967,
      "above": 2968,
      "irl": 2969,
      "kets": 2970,
      "teen": 2971,
      "cannot": 2972,
      "impl": 2973,
      "imag": 2974,
      "context": 2975,
      "convey": 2976,
      "conservation": 2977,
      "trie": 2978,
      "ada": 2979,
      "adding": 2980,
      "feet": 2981,
      "ulate": 2982,
      "diagno": 2983,
      "pet": 2984,
      "appoint": 2985,
      "excellent": 2986,
      "antum": 2987,
      "soil": 2988,
      "shir": 2989,
      "goes": 2990,
      "lling": 2991,
      "front": 2992,
      "cook": 2993,
      "boy": 2994,
      "embr": 2995,
      "agues": 2996,
      "anybody": 2997,
      "ended": 2998,
      "size": 2999,
      "pret": 3000,
      "prepar": 3001,
      "esty": 3002,
      "spee": 3003,
      "discover": 3004,
      "disease": 3005,
      "angle": 3006,
      "interaction": 3007,
      "description": 3008,
      "contact": 3009,
      "technique": 3010,
      "butter": 3011,
      "tops": 3012,
      "summer": 3013,
      "improving": 3014,
      "player": 3015,
      "impacts": 3016,
      "hosp": 3017,
      "blue": 3018,
      "chosen": 3019,
      "ewable": 3020,
      "facilit": 3021,
      "follows": 3022,
      "memories": 3023,
      "solve": 3024,
      "tribut": 3025,
      "Encourage": 3026,
      "ploy": 3027,
      "goods": 3028,
      "sky": 3029,
      "capture": 3030,
      "brea": 3031,
      "depth": 3032,
      "China": 3033,
      "clothing": 3034,
      "closed": 3035,
      "reading": 3036,
      "guide": 3037,
      "shower": 3038,
      "vote": 3039,
      "reflect": 3040,
      "profit": 3041,
      "hardware": 3042,
      "leading": 3043,
      "says": 3044,
      "passed": 3045,
      "treat": 3046,
      "operate": 3047,
      "colleagues": 3048,
      "started": 3049,
      "difficul": 3050,
      "gotten": 3051,
      "connect": 3052,
      "connected": 3053,
      "fields": 3054,
      "Plan": 3055,
      "styles": 3056,
      "damage": 3057,
      "turned": 3058,
      "apply": 3059,
      "availability": 3060,
      "particular": 3061,
      "recognize": 3062,
      "America": 3063,
      "window": 3064,
      "properly": 3065,
      "property": 3066,
      "Everyone": 3067,
      "painting": 3068,
      "harmful": 3069,
      "pictures": 3070,
      "competition": 3071,
      "Artificial": 3072,
      "watching": 3073,
      "stead": 3074,
      "advantage": 3075,
      "strengths": 3076,
      "tended": 3077,
      "practices": 3078,
      "predictions": 3079,
      "optimize": 3080,
      "engineering": 3081,
      "regulations": 3082,
      "platforms": 3083,
      "listening": 3084,
      "habit": 3085,
      "sentence": 3086,
      "tilize": 3087,
      "details": 3088,
      "iliar": 3089,
      "documents": 3090,
      "period": 3091,
      "symptom": 3092,
      "Organ": 3093,
      "arrived": 3094,
      "entertainment": 3095,
      "private": 3096,
      "gaming": 3097,
      "decrease": 3098,
      "conversation": 3099,
      "System": 3100,
      "World": 3101,
      "wildlife": 3102,
      "season": 3103,
      "direction": 3104,
      "pepper": 3105,
      "opinion": 3106,
      "Education": 3107,
      "second": 3108,
      "Renewable": 3109,
      "dream": 3110,
      "chicken": 3111,
      "immediately": 3112,
      "shorter": 3113,
      "credit": 3114,
      "Choose": 3115,
      "Japan": 3116,
      "Second": 3117,
      "recipe": 3118,
      "symptoms": 3119,
      ");": 3120,
      "40": 3121,
      "Ac": 3122,
      "Am": 3123,
      "Act": 3124,
      "Bl": 3125,
      "Cor": 3126,
      "Che": 3127,
      "Dr": 3128,
      "Eu": 3129,
      "Ger": 3130,
      "Global": 3131,
      "Her": 3132,
      "Li": 3133,
      "Mo": 3134,
      "Ph": 3135,
      "Py": 3136,
      "Time": 3137,
      "War": 3138,
      "Wash": 3139,
      "Yes": 3140,
      "York": 3141,
      "bag": 3142,
      "bies": 3143,
      "bath": 3144,
      "broad": 3145,
      "backs": 3146,
      "cat": 3147,
      "cil": 3148,
      "cise": 3149,
      "dle": 3150,
      "evol": 3151,
      "evalu": 3152,
      "either": 3153,
      "fly": 3154,
      "fig": 3155,
      "fill": 3156,
      "further": 3157,
      "gen": 3158,
      "gest": 3159,
      "gold": 3160,
      "hid": 3161,
      "hob": 3162,
      "hair": 3163,
      "ial": 3164,
      "kn": 3165,
      "ked": 3166,
      "link": 3167,
      "labe": 3168,
      "mouth": 3169,
      "nic": 3170,
      "oil": 3171,
      "pin": 3172,
      "pand": 3173,
      "pas": 3174,
      "pus": 3175,
      "pite": 3176,
      "ron": 3177,
      "ric": 3178,
      "rup": 3179,
      "son": 3180,
      "sion": 3181,
      "send": 3182,
      "stic": 3183,
      "stim": 3184,
      "scr": 3185,
      "sweet": 3186,
      "vic": 3187,
      "vital": 3188,
      "wed": 3189,
      "wish": 3190,
      "wich": 3191,
      "waves": 3192,
      "yo": 3193,
      "yal": 3194,
      "inj": 3195,
      "ined": 3196,
      "intr": 3197,
      "independ": 3198,
      "ann": 3199,
      "anks": 3200,
      "restr": 3201,
      "reality": 3202,
      "reward": 3203,
      "revolution": 3204,
      "retrie": 3205,
      "erve": 3206,
      "erce": 3207,
      "once": 3208,
      "ato": 3209,
      "attit": 3210,
      "thetic": 3211,
      "ense": 3212,
      "enge": 3213,
      "enced": 3214,
      "encouraging": 3215,
      "alog": 3216,
      "isms": 3217,
      "arrange": 3218,
      "tice": 3219,
      "title": 3220,
      "tigate": 3221,
      "eds": 3222,
      "aspe": 3223,
      "asting": 3224,
      "itting": 3225,
      "chart": 3226,
      "chronic": 3227,
      "stances": 3228,
      "held": 3229,
      "ropean": 3230,
      "rozen": 3231,
      "aced": 3232,
      "acting": 3233,
      "acking": 3234,
      "actical": 3235,
      "accompl": 3236,
      "section": 3237,
      "ford": 3238,
      "fortable": 3239,
      "dex": 3240,
      "decl": 3241,
      "determine": 3242,
      "iled": 3243,
      "sus": 3244,
      "sume": 3245,
      "subs": 3246,
      "mean": 3247,
      "meat": 3248,
      "irr": 3249,
      "tele": 3250,
      "iments": 3251,
      "comfort": 3252,
      "comfortable": 3253,
      "ternal": 3254,
      "concise": 3255,
      "tran": 3256,
      "adm": 3257,
      "motor": 3258,
      "moving": 3259,
      "load": 3260,
      "unit": 3261,
      "essay": 3262,
      "die": 3263,
      "peace": 3264,
      "wealth": 3265,
      "ament": 3266,
      "plenty": 3267,
      "mentation": 3268,
      "apolog": 3269,
      "expl": 3270,
      "exact": 3271,
      "lief": 3272,
      "yours": 3273,
      "output": 3274,
      "outcomes": 3275,
      "worth": 3276,
      "lled": 3277,
      "llow": 3278,
      "fraud": 3279,
      "cop": 3280,
      "wash": 3281,
      "practical": 3282,
      "useful": 3283,
      "previ": 3284,
      "prepare": 3285,
      "formation": 3286,
      "Intell": 3287,
      "India": 3288,
      "efforts": 3289,
      "ticket": 3290,
      "workers": 3291,
      "tenance": 3292,
      "tennis": 3293,
      "commonly": 3294,
      "notes": 3295,
      "dispos": 3296,
      "discounts": 3297,
      "elf": 3298,
      "spaces": 3299,
      "interview": 3300,
      "desk": 3301,
      "phr": 3302,
      "wouldn": 3303,
      "reduction": 3304,
      "reduced": 3305,
      "increases": 3306,
      "managing": 3307,
      "berry": 3308,
      "experiment": 3309,
      "video": 3310,
      "greater": 3311,
      "transactions": 3312,
      "supply": 3313,
      "improved": 3314,
      "played": 3315,
      "visit": 3316,
      "visible": 3317,
      "regard": 3318,
      "archite": 3319,
      "corn": 3320,
      "correct": 3321,
      "calories": 3322,
      "providers": 3323,
      "whole": 3324,
      "allowed": 3325,
      "nesses": 3326,
      "stores": 3327,
      "surface": 3328,
      "numbers": 3329,
      "struct": 3330,
      "finished": 3331,
      "affect": 3332,
      "afford": 3333,
      "center": 3334,
      "plot": 3335,
      "Exercise": 3336,
      "skin": 3337,
      "Therefore": 3338,
      "promise": 3339,
      "Cont": 3340,
      "pati": 3341,
      "writer": 3342,
      "foods": 3343,
      "student": 3344,
      "depart": 3345,
      "otes": 3346,
      "organiz": 3347,
      "Canada": 3348,
      "Stay": 3349,
      "Start": 3350,
      "months": 3351,
      "bene": 3352,
      "identity": 3353,
      "manageable": 3354,
      "turns": 3355,
      "Determine": 3356,
      "machines": 3357,
      "environmental": 3358,
      "hydro": 3359,
      "refused": 3360,
      "Compare": 3361,
      "links": 3362,
      "generation": 3363,
      "generations": 3364,
      "generated": 3365,
      "himself": 3366,
      "looked": 3367,
      "economics": 3368,
      "release": 3369,
      "keeping": 3370,
      "offers": 3371,
      "operational": 3372,
      "rising": 3373,
      "focused": 3374,
      "sensitive": 3375,
      "accurately": 3376,
      "consuming": 3377,
      "efficiently": 3378,
      "collection": 3379,
      "flowers": 3380,
      "promotions": 3381,
      "Trans": 3382,
      "blood": 3383,
      "interested": 3384,
      "challenge": 3385,
      "material": 3386,
      "mix": 3387,
      "storm": 3388,
      "expression": 3389,
      "inste": 3390,
      "instance": 3391,
      "combat": 3392,
      "depends": 3393,
      "holders": 3394,
      "ension": 3395,
      "objectives": 3396,
      "equip": 3397,
      "Brit": 3398,
      "Techn": 3399,
      "glass": 3400,
      "instructions": 3401,
      "offering": 3402,
      "forestation": 3403,
      "autonom": 3404,
      "nucle": 3405,
      "trend": 3406,
      "happiness": 3407,
      "temperatures": 3408,
      "sorry": 3409,
      "satisfied": 3410,
      "motivated": 3411,
      "aims": 3412,
      "errors": 3413,
      "stretch": 3414,
      "exciting": 3415,
      "Internet": 3416,
      "fixed": 3417,
      "responsib": 3418,
      "priorities": 3419,
      "bulbs": 3420,
      "chatbot": 3421,
      "platform": 3422,
      "closely": 3423,
      "habits": 3424,
      "smoking": 3425,
      "reliable": 3426,
      "explore": 3427,
      "taxes": 3428,
      "categories": 3429,
      "Effe": 3430,
      "laws": 3431,
      "secret": 3432,
      "define": 3433,
      "deliver": 3434,
      "plastic": 3435,
      "policy": 3436,
      "appreciate": 3437,
      "Reduce": 3438,
      "mountains": 3439,
      "sandwich": 3440,
      "remote": 3441,
      "argument": 3442,
      "Increased": 3443,
      "synthesis": 3444,
      "transformed": 3445,
      "limitations": 3446,
      "scientists": 3447,
      "suggestions": 3448,
      "birth": 3449,
      "latest": 3450,
      "innovation": 3451,
      "outside": 3452,
      "accordingly": 3453,
      "deadlines": 3454,
      "conducting": 3455,
      "convenient": 3456,
      "located": 3457,
      "flexible": 3458,
      "Define": 3459,
      "Optim": 3460,
      "length": 3461,
      "intense": 3462,
      "melting": 3463,
      "lifesty": 3464,
      "transparent": 3465,
      "Analy": 3466,
      "literature": 3467,
      "ingredients": 3468,
      "severe": 3469,
      "Furthermore": 3470,
      "isolation": 3471,
      "vehicles": 3472,
      "preparing": 3473,
      "speech": 3474,
      "European": 3475,
      "yalty": 3476,
      "aspects": 3477,
      "\":": 3478,
      "11": 3479,
      "14": 3480,
      "16": 3481,
      "500": 3482,
      "Air": 3483,
      "Aren": 3484,
      "Avo": 3485,
      "Cam": 3486,
      "Clim": 3487,
      "Date": 3488,
      "Face": 3489,
      "Find": 3490,
      "First": 3491,
      "Gu": 3492,
      "Gre": 3493,
      "Great": 3494,
      "Har": 3495,
      "High": 3496,
      "Last": 3497,
      "Me": 3498,
      "Mus": 3499,
      "Nat": 3500,
      "Out": 3501,
      "Par": 3502,
      "Pres": 3503,
      "Pur": 3504,
      "Rain": 3505,
      "Rep": 3506,
      "Sar": 3507,
      "Sof": 3508,
      "Ste": 3509,
      "Spe": 3510,
      "Search": 3511,
      "Tok": 3512,
      "Utilize": 3513,
      "Vir": 3514,
      "aight": 3515,
      "bol": 3516,
      "bill": 3517,
      "batter": 3518,
      "cro": 3519,
      "cers": 3520,
      "ctic": 3521,
      "cast": 3522,
      "dur": 3523,
      "fing": 3524,
      "fare": 3525,
      "fail": 3526,
      "fash": 3527,
      "filled": 3528,
      "false": 3529,
      "ged": 3530,
      "gain": 3531,
      "gone": 3532,
      "gree": 3533,
      "girl": 3534,
      "ha": 3535,
      "hol": 3536,
      "hous": 3537,
      "htag": 3538,
      "honest": 3539,
      "ives": 3540,
      "iety": 3541,
      "jac": 3542,
      "jus": 3543,
      "jud": 3544,
      "kiss": 3545,
      "later": 3546,
      "liness": 3547,
      "lights": 3548,
      "lunch": 3549,
      "mut": 3550,
      "na": 3551,
      "ni": 3552,
      "ny": 3553,
      "oting": 3554,
      "phis": 3555,
      "pany": 3556,
      "pace": 3557,
      "pages": 3558,
      "rative": 3559,
      "scan": 3560,
      "sess": 3561,
      "snow": 3562,
      "song": 3563,
      "saving": 3564,
      "session": 3565,
      "sports": 3566,
      "saved": 3567,
      "simply": 3568,
      "tall": 3569,
      "uge": 3570,
      "vable": 3571,
      "vals": 3572,
      "whel": 3573,
      "xiety": 3574,
      "ycle": 3575,
      "zer": 3576,
      "zes": 3577,
      "thre": 3578,
      "thus": 3579,
      "thir": 3580,
      "inks": 3581,
      "inven": 3582,
      "anci": 3583,
      "anches": 3584,
      "rees": 3585,
      "repe": 3586,
      "regre": 3587,
      "reput": 3588,
      "reaction": 3589,
      "rewards": 3590,
      "ongoing": 3591,
      "atom": 3592,
      "thes": 3593,
      "ensive": 3594,
      "estic": 3595,
      "estim": 3596,
      "arg": 3597,
      "tiles": 3598,
      "edge": 3599,
      "lean": 3600,
      "itten": 3601,
      "itude": 3602,
      "chance": 3603,
      "station": 3604,
      "stage": 3605,
      "height": 3606,
      "heav": 3607,
      "ici": 3608,
      "rot": 3609,
      "rock": 3610,
      "acing": 3611,
      "acid": 3612,
      "acter": 3613,
      "acef": 3614,
      "accus": 3615,
      "began": 3616,
      "dete": 3617,
      "degre": 3618,
      "demon": 3619,
      "dealing": 3620,
      "ilty": 3621,
      "pros": 3622,
      "proto": 3623,
      "propor": 3624,
      "celer": 3625,
      "idence": 3626,
      "ably": 3627,
      "iring": 3628,
      "tel": 3629,
      "image": 3630,
      "tering": 3631,
      "conver": 3632,
      "consul": 3633,
      "confl": 3634,
      "tric": 3635,
      "ades": 3636,
      "mole": 3637,
      "mood": 3638,
      "loan": 3639,
      "lose": 3640,
      "logo": 3641,
      "loyalty": 3642,
      "ressive": 3643,
      "resistant": 3644,
      "fear": 3645,
      "unk": 3646,
      "unte": 3647,
      "whis": 3648,
      "division": 3649,
      "peacef": 3650,
      "map": 3651,
      "urban": 3652,
      "urgent": 3653,
      "ames": 3654,
      "ples": 3655,
      "plans": 3656,
      "apps": 3657,
      "exist": 3658,
      "extre": 3659,
      "exerc": 3660,
      "lip": 3661,
      "liz": 3662,
      "lies": 3663,
      "lihood": 3664,
      "liked": 3665,
      "poor": 3666,
      "rive": 3667,
      "ride": 3668,
      "river": 3669,
      "qual": 3670,
      "quantum": 3671,
      "duction": 3672,
      "shown": 3673,
      "sharing": 3674,
      "cles": 3675,
      "lls": 3676,
      "cream": 3677,
      "creates": 3678,
      "core": 3679,
      "cope": 3680,
      "novel": 3681,
      "utants": 3682,
      "boo": 3683,
      "ender": 3684,
      "vibr": 3685,
      "sizes": 3686,
      "printer": 3687,
      "prices": 3688,
      "proud": 3689,
      "helped": 3690,
      "aches": 3691,
      "etc": 3692,
      "etal": 3693,
      "straight": 3694,
      "preh": 3695,
      "Intro": 3696,
      "Information": 3697,
      "hashtag": 3698,
      "upper": 3699,
      "upset": 3700,
      "workout": 3701,
      "compass": 3702,
      "commands": 3703,
      "newsp": 3704,
      "spect": 3705,
      "othermal": 3706,
      "indic": 3707,
      "disco": 3708,
      "discus": 3709,
      "betes": 3710,
      "likelihood": 3711,
      "assess": 3712,
      "Then": 3713,
      "Through": 3714,
      "Third": 3715,
      "Thanks": 3716,
      "anges": 3717,
      "produces": 3718,
      "desert": 3719,
      "serves": 3720,
      "brain": 3721,
      "brought": 3722,
      "bridge": 3723,
      "branches": 3724,
      "overwhel": 3725,
      "themat": 3726,
      "themselves": 3727,
      "asted": 3728,
      "ify": 3729,
      "ified": 3730,
      "incredi": 3731,
      "technical": 3732,
      "obtain": 3733,
      "Does": 3734,
      "ideal": 3735,
      "marize": 3736,
      "ownership": 3737,
      "airplane": 3738,
      "expert": 3739,
      "communications": 3740,
      "cyber": 3741,
      "herself": 3742,
      "stands": 3743,
      "fold": 3744,
      "poses": 3745,
      "visually": 3746,
      "host": 3747,
      "region": 3748,
      "regression": 3749,
      "processes": 3750,
      "dry": 3751,
      "volunte": 3752,
      "powered": 3753,
      "ficiency": 3754,
      "relative": 3755,
      "background": 3756,
      "counting": 3757,
      "dynam": 3758,
      "surance": 3759,
      "surround": 3760,
      "surfaces": 3761,
      "followed": 3762,
      "cleaning": 3763,
      "final": 3764,
      "examples": 3765,
      "aff": 3766,
      "aft": 3767,
      "solid": 3768,
      "Enter": 3769,
      "Engl": 3770,
      "responses": 3771,
      "funding": 3772,
      "functions": 3773,
      "Exper": 3774,
      "police": 3775,
      "markets": 3776,
      "improvement": 3777,
      "improvements": 3778,
      "variables": 3779,
      "familiar": 3780,
      "haps": 3781,
      "personality": 3782,
      "prompt": 3783,
      "handle": 3784,
      "quiet": 3785,
      "written": 3786,
      "capable": 3787,
      "impacted": 3788,
      "depending": 3789,
      "Adv": 3790,
      "organic": 3791,
      "organisms": 3792,
      "Despite": 3793,
      "Chat": 3794,
      "Change": 3795,
      "clothes": 3796,
      "guard": 3797,
      "guilty": 3798,
      "showing": 3799,
      "showers": 3800,
      "Deep": 3801,
      "cute": 3802,
      "refle": 3803,
      "changed": 3804,
      "Company": 3805,
      "languages": 3806,
      "yellow": 3807,
      "required": 3808,
      "expense": 3809,
      "Process": 3810,
      "calls": 3811,
      "saying": 3812,
      "evening": 3813,
      "Below": 3814,
      "Before": 3815,
      "learned": 3816,
      "published": 3817,
      "benefit": 3818,
      "files": 3819,
      "operating": 3820,
      "consumer": 3821,
      "collected": 3822,
      "buildings": 3823,
      "flower": 3824,
      "achieving": 3825,
      "analytics": 3826,
      "identifying": 3827,
      "opened": 3828,
      "happening": 3829,
      "Train": 3830,
      "cultures": 3831,
      "tablets": 3832,
      "reaching": 3833,
      "truth": 3834,
      "connection": 3835,
      "fewer": 3836,
      "bottom": 3837,
      "opportunity": 3838,
      "petitive": 3839,
      "shared": 3840,
      "graphy": 3841,
      "Also": 3842,
      "mium": 3843,
      "mitigate": 3844,
      "tune": 3845,
      "considering": 3846,
      "install": 3847,
      "realistic": 3848,
      "objective": 3849,
      "walking": 3850,
      "animal": 3851,
      "movement": 3852,
      "assistants": 3853,
      "pollutants": 3854,
      "populations": 3855,
      "challenging": 3856,
      "Autom": 3857,
      "male": 3858,
      "implemented": 3859,
      "cleaner": 3860,
      "completely": 3861,
      "Development": 3862,
      "slides": 3863,
      "schools": 3864,
      "automation": 3865,
      "From": 3866,
      "France": 3867,
      "born": 3868,
      "borrow": 3869,
      "meaningful": 3870,
      "integral": 3871,
      "Colum": 3872,
      "emotions": 3873,
      "spreading": 3874,
      "starts": 3875,
      "starting": 3876,
      "fruit": 3877,
      "frustr": 3878,
      "fruits": 3879,
      "contains": 3880,
      "smartphone": 3881,
      "prediction": 3882,
      "continues": 3883,
      "continuously": 3884,
      "photosynthesis": 3885,
      "sched": 3886,
      "reviews": 3887,
      "wearing": 3888,
      "magne": 3889,
      "excited": 3890,
      "prioritize": 3891,
      "186": 3892,
      "Positive": 3893,
      "burn": 3894,
      "hungry": 3895,
      "miles": 3896,
      "scope": 3897,
      "shoe": 3898,
      "Neural": 3899,
      "brother": 3900,
      "detailed": 3901,
      "established": 3902,
      "symbol": 3903,
      "ecosystem": 3904,
      "ecosystems": 3905,
      "scen": 3906,
      "secrets": 3907,
      "mechanics": 3908,
      "shapes": 3909,
      "privacy": 3910,
      "predictable": 3911,
      "occurs": 3912,
      "eggs": 3913,
      "music": 3914,
      "vacation": 3915,
      "supervised": 3916,
      "construction": 3917,
      "Engine": 3918,
      "consistently": 3919,
      "scientist": 3920,
      "attacks": 3921,
      "defining": 3922,
      "relaxation": 3923,
      "advancements": 3924,
      "introducing": 3925,
      "baby": 3926,
      "dangerous": 3927,
      "laptop": 3928,
      "massive": 3929,
      "narrow": 3930,
      "rays": 3931,
      "incenti": 3932,
      "enhance": 3933,
      "chemical": 3934,
      "Regular": 3935,
      "Improved": 3936,
      "determination": 3937,
      "Summarize": 3938,
      "bicycle": 3939,
      "genetic": 3940,
      "lonely": 3941,
      "millions": 3942,
      "router": 3943,
      "routine": 3944,
      "spring": 3945,
      "sampling": 3946,
      "records": 3947,
      "suffer": 3948,
      "quantity": 3949,
      "surprised": 3950,
      "frequent": 3951,
      "cision": 3952,
      "caught": 3953,
      "square": 3954,
      "accident": 3955,
      "shirt": 3956,
      "Secondly": 3957,
      ");.": 3958,
      "Check": 3959,
      "Pyth": 3960,
      "evaluate": 3961,
      "hobbies": 3962,
      "knife": 3963,
      "pinch": 3964,
      "scratch": 3965,
      "alogue": 3966,
      "accomplish": 3967,
      "apologize": 3968,
      "exactly": 3969,
      "Intelligence": 3970,
      "corners": 3971,
      "beneficial": 3972,
      "equipment": 3973,
      "British": 3974,
      "lifestyle": 3975,
      "Avoid": 3976,
      "Facebook": 3977,
      "Natural": 3978,
      "Sarah": 3979,
      "Tokyo": 3980,
      "fashion": 3981,
      "regret": 3982,
      "degrees": 3983,
      "peaceful": 3984,
      "extreme": 3985,
      "vibrant": 3986,
      "English": 3987,
      "\",": 3988,
      "32": 3989,
      "3D": 3990,
      "?\".": 3991,
      "At": 3992,
      "Ama": 3993,
      "BC": 3994,
      "Bar": 3995,
      "Bus": 3996,
      "Bir": 3997,
      "CP": 3998,
      "Cal": 3999,
      "Cent": 4000,
      "Cur": 4001,
      "Clear": 4002,
      "Cost": 4003,
      "Catch": 4004,
      "DN": 4005,
      "ER": 4006,
      "Econ": 4007,
      "Fun": 4008,
      "Future": 4009,
      "Ge": 4010,
      "Gr": 4011,
      "Gal": 4012,
      "Gover": 4013,
      "Io": 4014,
      "Jav": 4015,
      "Law": 4016,
      "Learning": 4017,
      "Mex": 4018,
      "Max": 4019,
      "More": 4020,
      "NN": 4021,
      "Ni": 4022,
      "Net": 4023,
      "OK": 4024,
      "OS": 4025,
      "Ob": 4026,
      "Open": 4027,
      "PM": 4028,
      "Per": 4029,
      "Pay": 4030,
      "Pri": 4031,
      "Put": 4032,
      "Post": 4033,
      "Park": 4034,
      "Rest": 4035,
      "Ref": 4036,
      "Rob": 4037,
      "SE": 4038,
      "Sure": 4039,
      "Sup": 4040,
      "TP": 4041,
      "Tex": 4042,
      "Taking": 4043,
      "Trees": 4044,
      "Vis": 4045,
      "Year": 4046,
      "az": 4047,
      "aes": 4048,
      "ape": 4049,
      "adem": 4050,
      "bes": 4051,
      "bust": 4052,
      "bound": 4053,
      "bles": 4054,
      "bills": 4055,
      "bird": 4056,
      "binary": 4057,
      "bacter": 4058,
      "cand": 4059,
      "cave": 4060,
      "crow": 4061,
      "cross": 4062,
      "dess": 4063,
      "eager": 4064,
      "fat": 4065,
      "farm": 4066,
      "fauce": 4067,
      "gs": 4068,
      "ging": 4069,
      "gri": 4070,
      "gical": 4071,
      "gif": 4072,
      "ior": 4073,
      "ias": 4074,
      "itical": 4075,
      "iPh": 4076,
      "kne": 4077,
      "kitch": 4078,
      "len": 4079,
      "lor": 4080,
      "mat": 4081,
      "mis": 4082,
      "mploy": 4083,
      "nments": 4084,
      "native": 4085,
      "ote": 4086,
      "ograph": 4087,
      "pal": 4088,
      "pic": 4089,
      "pick": 4090,
      "ptiles": 4091,
      "rang": 4092,
      "raw": 4093,
      "rash": 4094,
      "sac": 4095,
      "sil": 4096,
      "sme": 4097,
      "shel": 4098,
      "sav": 4099,
      "senti": 4100,
      "sick": 4101,
      "sors": 4102,
      "sider": 4103,
      "sending": 4104,
      "sauce": 4105,
      "tat": 4106,
      "tti": 4107,
      "tam": 4108,
      "tage": 4109,
      "tones": 4110,
      "utr": 4111,
      "ubl": 4112,
      "uitive": 4113,
      "wi": 4114,
      "wit": 4115,
      "wro": 4116,
      "yon": 4117,
      "zon": 4118,
      "threat": 4119,
      "inside": 4120,
      "inner": 4121,
      "insurance": 4122,
      "ana": 4123,
      "ancing": 4124,
      "anxiety": 4125,
      "rein": 4126,
      "refr": 4127,
      "refer": 4128,
      "reset": 4129,
      "refund": 4130,
      "resume": 4131,
      "returns": 4132,
      "repetitive": 4133,
      "reptiles": 4134,
      "eral": 4135,
      "eration": 4136,
      "erts": 4137,
      "erator": 4138,
      "ony": 4139,
      "onto": 4140,
      "atus": 4141,
      "ators": 4142,
      "atically": 4143,
      "enable": 4144,
      "enomen": 4145,
      "ensus": 4146,
      "tore": 4147,
      "estive": 4148,
      "ington": 4149,
      "orange": 4150,
      "ordin": 4151,
      "almost": 4152,
      "aries": 4153,
      "arily": 4154,
      "arison": 4155,
      "tially": 4156,
      "tips": 4157,
      "titu": 4158,
      "aspor": 4159,
      "aset": 4160,
      "chop": 4161,
      "chair": 4162,
      "stable": 4163,
      "stake": 4164,
      "stages": 4165,
      "statis": 4166,
      "ican": 4167,
      "iction": 4168,
      "icated": 4169,
      "icious": 4170,
      "vered": 4171,
      "vector": 4172,
      "roy": 4173,
      "accept": 4174,
      "acceler": 4175,
      "academ": 4176,
      "select": 4177,
      "bear": 4178,
      "below": 4179,
      "belief": 4180,
      "beyon": 4181,
      "forgotten": 4182,
      "deb": 4183,
      "demo": 4184,
      "dered": 4185,
      "depos": 4186,
      "deforestation": 4187,
      "illi": 4188,
      "melo": 4189,
      "meals": 4190,
      "metal": 4191,
      "lying": 4192,
      "proactive": 4193,
      "proposed": 4194,
      "projects": 4195,
      "idents": 4196,
      "geothermal": 4197,
      "neur": 4198,
      "neigh": 4199,
      "neutr": 4200,
      "teles": 4201,
      "igent": 4202,
      "imension": 4203,
      "composed": 4204,
      "compreh": 4205,
      "terri": 4206,
      "condition": 4207,
      "concep": 4208,
      "tration": 4209,
      "aders": 4210,
      "motion": 4211,
      "lock": 4212,
      "losing": 4213,
      "locate": 4214,
      "resource": 4215,
      "resili": 4216,
      "fell": 4217,
      "female": 4218,
      "unders": 4219,
      "ultimately": 4220,
      "Their": 4221,
      "diverse": 4222,
      "dialogue": 4223,
      "diaspor": 4224,
      "weak": 4225,
      "mathemat": 4226,
      "amp": 4227,
      "plate": 4228,
      "apers": 4229,
      "exe": 4230,
      "exclus": 4231,
      "excep": 4232,
      "extended": 4233,
      "external": 4234,
      "likes": 4235,
      "lift": 4236,
      "histor": 4237,
      "pool": 4238,
      "cide": 4239,
      "cious": 4240,
      "riers": 4241,
      "quest": 4242,
      "aveled": 4243,
      "ains": 4244,
      "sole": 4245,
      "soph": 4246,
      "outing": 4247,
      "outlin": 4248,
      "outlines": 4249,
      "doors": 4250,
      "doctor": 4251,
      "persu": 4252,
      "shif": 4253,
      "shape": 4254,
      "worry": 4255,
      "clust": 4256,
      "creation": 4257,
      "cot": 4258,
      "coach": 4259,
      "coast": 4260,
      "coding": 4261,
      "coordin": 4262,
      "boat": 4263,
      "bother": 4264,
      "emic": 4265,
      "agric": 4266,
      "anywhere": 4267,
      "endit": 4268,
      "via": 4269,
      "viol": 4270,
      "prison": 4271,
      "ured": 4272,
      "ette": 4273,
      "strain": 4274,
      "strict": 4275,
      "izz": 4276,
      "izable": 4277,
      "ump": 4278,
      "Incl": 4279,
      "Instead": 4280,
      "Index": 4281,
      "datase": 4282,
      "dataset": 4283,
      "grid": 4284,
      "effort": 4285,
      "willing": 4286,
      "artwork": 4287,
      "workplace": 4288,
      "compared": 4289,
      "comparison": 4290,
      "committed": 4291,
      "otherwise": 4292,
      "veness": 4293,
      "distr": 4294,
      "disadvantages": 4295,
      "distribut": 4296,
      "itement": 4297,
      "Things": 4298,
      "couldn": 4299,
      "spam": 4300,
      "intervals": 4301,
      "descri": 4302,
      "destru": 4303,
      "bra": 4304,
      "bris": 4305,
      "brush": 4306,
      "Were": 4307,
      "phenomen": 4308,
      "auto": 4309,
      "intuitive": 4310,
      "parties": 4311,
      "paralle": 4312,
      "colon": 4313,
      "manip": 4314,
      "manner": 4315,
      "manager": 4316,
      "marine": 4317,
      "marks": 4318,
      "cape": 4319,
      "airport": 4320,
      "pencil": 4321,
      "planation": 4322,
      "cared": 4323,
      "careful": 4324,
      "shouldn": 4325,
      "dividing": 4326,
      "pond": 4327,
      "transl": 4328,
      "valent": 4329,
      "valid": 4330,
      "standards": 4331,
      "cript": 4332,
      "supports": 4333,
      "supposed": 4334,
      "improves": 4335,
      "possi": 4336,
      "elected": 4337,
      "highest": 4338,
      "viruses": 4339,
      "included": 4340,
      "fertili": 4341,
      "regions": 4342,
      "choices": 4343,
      "drinks": 4344,
      "cris": 4345,
      "corpus": 4346,
      "powder": 4347,
      "smile": 4348,
      "ulture": 4349,
      "thank": 4350,
      "reless": 4351,
      "linear": 4352,
      "arian": 4353,
      "delicious": 4354,
      "effecti": 4355,
      "faced": 4356,
      "stocks": 4357,
      "advances": 4358,
      "finally": 4359,
      "finances": 4360,
      "Ensure": 4361,
      "Environ": 4362,
      "Encouraging": 4363,
      "fires": 4364,
      "fiber": 4365,
      "searched": 4366,
      "fying": 4367,
      "political": 4368,
      "variable": 4369,
      "foreign": 4370,
      "forecas": 4371,
      "largest": 4372,
      "conscious": 4373,
      "Consum": 4374,
      "Contro": 4375,
      "Consider": 4376,
      "natives": 4377,
      "caps": 4378,
      "driver": 4379,
      "drivers": 4380,
      "versal": 4381,
      "breaking": 4382,
      "minute": 4383,
      "oted": 4384,
      "societal": 4385,
      "specifications": 4386,
      "organize": 4387,
      "teams": 4388,
      "puts": 4389,
      "puzz": 4390,
      "environments": 4391,
      "Char": 4392,
      "idential": 4393,
      "join": 4394,
      "paid": 4395,
      "turb": 4396,
      "severity": 4397,
      "showed": 4398,
      "ails": 4399,
      "bond": 4400,
      "voc": 4401,
      "apples": 4402,
      "applic": 4403,
      "profits": 4404,
      "profici": 4405,
      "Only": 4406,
      "seeing": 4407,
      "telling": 4408,
      "electron": 4409,
      "electronic": 4410,
      "presentation": 4411,
      "Union": 4412,
      "Under": 4413,
      "bike": 4414,
      "harder": 4415,
      "leader": 4416,
      "leadership": 4417,
      "performing": 4418,
      "emails": 4419,
      "releasing": 4420,
      "programming": 4421,
      "largely": 4422,
      "limits": 4423,
      "treated": 4424,
      "subject": 4425,
      "subjects": 4426,
      "approxim": 4427,
      "greatly": 4428,
      "filters": 4429,
      "jobs": 4430,
      "operation": 4431,
      "operations": 4432,
      "sister": 4433,
      "staying": 4434,
      "classroom": 4435,
      "sensors": 4436,
      "consumers": 4437,
      "maintenance": 4438,
      "positively": 4439,
      "college": 4440,
      "collect": 4441,
      "dressed": 4442,
      "single": 4443,
      "warmth": 4444,
      "landing": 4445,
      "payment": 4446,
      "cheese": 4447,
      "textbooks": 4448,
      "preventing": 4449,
      "continent": 4450,
      "blocks": 4451,
      "sunlight": 4452,
      "interesting": 4453,
      "sitting": 4454,
      "enjoyable": 4455,
      "employ": 4456,
      "Play": 4457,
      "express": 4458,
      "expendit": 4459,
      "fuel": 4460,
      "combines": 4461,
      "combination": 4462,
      "holds": 4463,
      "ensor": 4464,
      "characteristic": 4465,
      "increasingly": 4466,
      "safety": 4467,
      "talked": 4468,
      "functional": 4469,
      "behaviors": 4470,
      "employee": 4471,
      "distin": 4472,
      "freeing": 4473,
      "messaging": 4474,
      "ogle": 4475,
      "properties": 4476,
      "teaching": 4477,
      "coverage": 4478,
      "recommended": 4479,
      "20th": 4480,
      "ketball": 4481,
      "professionals": 4482,
      "Good": 4483,
      "Google": 4484,
      "basis": 4485,
      "cells": 4486,
      "potato": 4487,
      "classified": 4488,
      "automated": 4489,
      "Share": 4490,
      "banking": 4491,
      "switch": 4492,
      "received": 4493,
      "steam": 4494,
      "contribut": 4495,
      "integration": 4496,
      "Collabor": 4497,
      "dense": 4498,
      "motivation": 4499,
      "containers": 4500,
      "calculate": 4501,
      "calculations": 4502,
      "calculated": 4503,
      "smartphones": 4504,
      "continued": 4505,
      "touching": 4506,
      "stream": 4507,
      "street": 4508,
      "meets": 4509,
      "trade": 4510,
      "excitement": 4511,
      "expected": 4512,
      "expectations": 4513,
      "Interaction": 4514,
      "optimization": 4515,
      "regulate": 4516,
      "burning": 4517,
      "domin": 4518,
      "milk": 4519,
      "pieces": 4520,
      "score": 4521,
      "ativity": 4522,
      "legs": 4523,
      "legal": 4524,
      "shoes": 4525,
      "discussed": 4526,
      "medium": 4527,
      "Research": 4528,
      "broke": 4529,
      "document": 4530,
      "avoiding": 4531,
      "dishes": 4532,
      "dishonest": 4533,
      "ological": 4534,
      "restaurants": 4535,
      "category": 4536,
      "Discuss": 4537,
      "Efficiency": 4538,
      "Focus": 4539,
      "Foot": 4540,
      "Mars": 4541,
      "Prom": 4542,
      "circ": 4543,
      "circu": 4544,
      "arrive": 4545,
      "seemed": 4546,
      "delivery": 4547,
      "mechanism": 4548,
      "trusted": 4549,
      "logistic": 4550,
      "diabetes": 4551,
      "shaping": 4552,
      "emergency": 4553,
      "footprint": 4554,
      "collaboration": 4555,
      "collaborate": 4556,
      "visualization": 4557,
      "policies": 4558,
      "Personalization": 4559,
      "appreciation": 4560,
      "Accessibility": 4561,
      "Break": 4562,
      "dedicated": 4563,
      "farms": 4564,
      "games": 4565,
      "appealing": 4566,
      "Increasing": 4567,
      "meetings": 4568,
      "Media": 4569,
      "middle": 4570,
      "studies": 4571,
      "flexibility": 4572,
      "lucky": 4573,
      "Monitor": 4574,
      "Switch": 4575,
      "flood": 4576,
      "narrative": 4577,
      "complaint": 4578,
      "biodiversity": 4579,
      "________________": 4580,
      "original": 4581,
      "determined": 4582,
      "brown": 4583,
      "destination": 4584,
      "destroy": 4585,
      "packed": 4586,
      "ville": 4587,
      "villagers": 4588,
      "incorporate": 4589,
      "alternatives": 4590,
      "separate": 4591,
      "separated": 4592,
      "immers": 4593,
      "welfare": 4594,
      "maximize": 4595,
      "survive": 4596,
      "adventure": 4597,
      "firewall": 4598,
      "camera": 4599,
      "cameras": 4600,
      "blockchain": 4601,
      "nutrients": 4602,
      "perspective": 4603,
      "perspectives": 4604,
      "participants": 4605,
      "Cloud": 4606,
      "Security": 4607,
      "half": 4608,
      "radiation": 4609,
      "thrill": 4610,
      "insulation": 4611,
      "selection": 4612,
      "implications": 4613,
      "embrace": 4614,
      "hospital": 4615,
      "difficulty": 4616,
      "Washington": 4617,
      "bags": 4618,
      "evolving": 4619,
      "figures": 4620,
      "pandemic": 4621,
      "stick": 4622,
      "stimul": 4623,
      "wedding": 4624,
      "intricate": 4625,
      "independently": 4626,
      "television": 4627,
      "previous": 4628,
      "disposal": 4629,
      "phrase": 4630,
      "architecture": 4631,
      "structures": 4632,
      "affecting": 4633,
      "organizations": 4634,
      "instead": 4635,
      "Technology": 4636,
      "nucleus": 4637,
      "Effective": 4638,
      "Analyze": 4639,
      "Climate": 4640,
      "Music": 4641,
      "Software": 4642,
      "Virtual": 4643,
      "houses": 4644,
      "argue": 4645,
      "detection": 4646,
      "consult": 4647,
      "exercises": 4648,
      "discovery": 4649,
      "Chatbot": 4650,
      "Amazon": 4651,
      "Business": 4652,
      "CPU": 4653,
      "Econom": 4654,
      "Governments": 4655,
      "IoT": 4656,
      "Java": 4657,
      "iPhone": 4658,
      "kitchen": 4659,
      "picnic": 4660,
      "ranging": 4661,
      "tattoo": 4662,
      "wrote": 4663,
      "chopped": 4664,
      "stakeholders": 4665,
      "academic": 4666,
      "beyond": 4667,
      "neighbor": 4668,
      "telescope": 4669,
      "comprehensive": 4670,
      "concepts": 4671,
      "resilience": 4672,
      "diaspora": 4673,
      "outlining": 4674,
      "agriculture": 4675,
      "datasets": 4676,
      "destruction": 4677,
      "effectiveness": 4678,
      "Control": 4679,
      "proficiency": 4680,
      "potatoes": 4681,
      "\").": 4682,
      ",”": 4683,
      ".\"": 4684,
      "13": 4685,
      "25": 4686,
      "200": 4687,
      "34": 4688,
      "42": 4689,
      "44": 4690,
      "77": 4691,
      "85": 4692,
      "AD": 4693,
      "Aim": 4694,
      "Action": 4695,
      "Ads": 4696,
      "Agree": 4697,
      "ABC": 4698,
      "Big": 4699,
      "Bur": 4700,
      "CO": 4701,
      "Ce": 4702,
      "City": 4703,
      "Coun": 4704,
      "Cali": 4705,
      "Day": 4706,
      "Dep": 4707,
      "Eating": 4708,
      "Ext": 4709,
      "Fe": 4710,
      "Fre": 4711,
      "Fam": 4712,
      "Flow": 4713,
      "Free": 4714,
      "Fresh": 4715,
      "Frozen": 4716,
      "Gener": 4717,
      "Gold": 4718,
      "Gift": 4719,
      "HT": 4720,
      "Ho": 4721,
      "Home": 4722,
      "II": 4723,
      "Imag": 4724,
      "Jacks": 4725,
      "James": 4726,
      "King": 4727,
      "LE": 4728,
      "Lack": 4729,
      "Long": 4730,
      "Main": 4731,
      "Mem": 4732,
      "Meas": 4733,
      "Nations": 4734,
      "Not": 4735,
      "National": 4736,
      "Navig": 4737,
      "Other": 4738,
      "Pol": 4739,
      "Pour": 4740,
      "Part": 4741,
      "Pop": 4742,
      "Press": 4743,
      "Qual": 4744,
      "Rome": 4745,
      "RNN": 4746,
      "Sk": 4747,
      "Sm": 4748,
      "San": 4749,
      "Sal": 4750,
      "Sch": 4751,
      "Sim": 4752,
      "Str": 4753,
      "Sur": 4754,
      "Sam": 4755,
      "Sust": 4756,
      "Spain": 4757,
      "South": 4758,
      "Ty": 4759,
      "Teach": 4760,
      "Try": 4761,
      "UK": 4762,
      "Up": 4763,
      "Us": 4764,
      "Val": 4765,
      "Was": 4766,
      "Wind": 4767,
      "aer": 4768,
      "athe": 4769,
      "ama": 4770,
      "ahead": 4771,
      "aunch": 4772,
      "bow": 4773,
      "bam": 4774,
      "bri": 4775,
      "bum": 4776,
      "bted": 4777,
      "baking": 4778,
      "bought": 4779,
      "cin": 4780,
      "cig": 4781,
      "cli": 4782,
      "cking": 4783,
      "cket": 4784,
      "dol": 4785,
      "dance": 4786,
      "drough": 4787,
      "dwar": 4788,
      "dimension": 4789,
      "ets": 4790,
      "eight": 4791,
      "equi": 4792,
      "fa": 4793,
      "fats": 4794,
      "fasc": 4795,
      "frozen": 4796,
      "glo": 4797,
      "gage": 4798,
      "gans": 4799,
      "hit": 4800,
      "hate": 4801,
      "hates": 4802,
      "hanced": 4803,
      "huge": 4804,
      "iers": 4805,
      "jump": 4806,
      "ker": 4807,
      "kit": 4808,
      "kno": 4809,
      "killed": 4810,
      "lic": 4811,
      "lun": 4812,
      "llect": 4813,
      "mac": 4814,
      "mation": 4815,
      "mine": 4816,
      "mass": 4817,
      "mouse": 4818,
      "mature": 4819,
      "master": 4820,
      "mirr": 4821,
      "nur": 4822,
      "nine": 4823,
      "national": 4824,
      "ov": 4825,
      "otic": 4826,
      "ored": 4827,
      "osoph": 4828,
      "py": 4829,
      "pto": 4830,
      "pil": 4831,
      "pts": 4832,
      "pty": 4833,
      "pact": 4834,
      "pound": 4835,
      "pip": 4836,
      "pitch": 4837,
      "pizz": 4838,
      "ring": 4839,
      "ration": 4840,
      "rid": 4841,
      "rist": 4842,
      "rum": 4843,
      "race": 4844,
      "san": 4845,
      "sou": 4846,
      "sad": 4847,
      "swe": 4848,
      "sam": 4849,
      "sort": 4850,
      "scared": 4851,
      "tap": 4852,
      "tone": 4853,
      "tack": 4854,
      "tles": 4855,
      "tude": 4856,
      "ttes": 4857,
      "ume": 4858,
      "ufact": 4859,
      "va": 4860,
      "vin": 4861,
      "vul": 4862,
      "wages": 4863,
      "wings": 4864,
      "wider": 4865,
      "wides": 4866,
      "wavel": 4867,
      "women": 4868,
      "ygen": 4869,
      "zy": 4870,
      "zation": 4871,
      "”)": 4872,
      "”.": 4873,
      "thers": 4874,
      "thrive": 4875,
      "ini": 4876,
      "inent": 4877,
      "infe": 4878,
      "inser": 4879,
      "infect": 4880,
      "incomplete": 4881,
      "initi": 4882,
      "inches": 4883,
      "anth": 4884,
      "angry": 4885,
      "reed": 4886,
      "reme": 4887,
      "reques": 4888,
      "reactions": 4889,
      "retail": 4890,
      "return": 4891,
      "remind": 4892,
      "remove": 4893,
      "reverse": 4894,
      "reports": 4895,
      "recycle": 4896,
      "reporting": 4897,
      "reference": 4898,
      "request": 4899,
      "ergy": 4900,
      "erals": 4901,
      "eros": 4902,
      "atic": 4903,
      "attend": 4904,
      "theory": 4905,
      "ening": 4906,
      "enci": 4907,
      "enem": 4908,
      "encour": 4909,
      "enables": 4910,
      "toes": 4911,
      "tood": 4912,
      "toile": 4913,
      "espe": 4914,
      "outer": 4915,
      "orch": 4916,
      "orient": 4917,
      "oritize": 4918,
      "organs": 4919,
      "alco": 4920,
      "alph": 4921,
      "ister": 4922,
      "oma": 4923,
      "omin": 4924,
      "oman": 4925,
      "tight": 4926,
      "asy": 4927,
      "astr": 4928,
      "asks": 4929,
      "astic": 4930,
      "asters": 4931,
      "leep": 4932,
      "lebr": 4933,
      "legi": 4934,
      "leaves": 4935,
      "itary": 4936,
      "cher": 4937,
      "chase": 4938,
      "stal": 4939,
      "stro": 4940,
      "stac": 4941,
      "stup": 4942,
      "staff": 4943,
      "status": 4944,
      "heating": 4945,
      "icing": 4946,
      "icit": 4947,
      "ictions": 4948,
      "veys": 4949,
      "roid": 4950,
      "rots": 4951,
      "rocer": 4952,
      "robot": 4953,
      "rocks": 4954,
      "robots": 4955,
      "robust": 4956,
      "ionship": 4957,
      "ental": 4958,
      "seg": 4959,
      "sew": 4960,
      "sets": 4961,
      "sell": 4962,
      "sector": 4963,
      "seeds": 4964,
      "beans": 4965,
      "becoming": 4966,
      "forum": 4967,
      "deca": 4968,
      "debu": 4969,
      "death": 4970,
      "debt": 4971,
      "degrad": 4972,
      "decentral": 4973,
      "deploy": 4974,
      "decide": 4975,
      "ilies": 4976,
      "ilder": 4977,
      "ilosoph": 4978,
      "owe": 4979,
      "suc": 4980,
      "suspect": 4981,
      "meant": 4982,
      "arettes": 4983,
      "cel": 4984,
      "ceived": 4985,
      "celebr": 4986,
      "idate": 4987,
      "idates": 4988,
      "abs": 4989,
      "abul": 4990,
      "abroad": 4991,
      "absent": 4992,
      "absolu": 4993,
      "gets": 4994,
      "neck": 4995,
      "neither": 4996,
      "keting": 4997,
      "igue": 4998,
      "igerator": 4999,
      "compe": 5000,
      "composition": 5001,
      "concent": 5002,
      "convert": 5003,
      "constrain": 5004,
      "convin": 5005,
      "atever": 5006,
      "tray": 5007,
      "tracking": 5008,
      "traveled": 5009,
      "adul": 5010,
      "adop": 5011,
      "advised": 5012,
      "mod": 5013,
      "mos": 5014,
      "mock": 5015,
      "reser": 5016,
      "respe": 5017,
      "unable": 5018,
      "unknown": 5019,
      "unclear": 5020,
      "unfair": 5021,
      "unfamiliar": 5022,
      "unpredictable": 5023,
      "essed": 5024,
      "ull": 5025,
      "diov": 5026,
      "peak": 5027,
      "wet": 5028,
      "weap": 5029,
      "wered": 5030,
      "magn": 5031,
      "amless": 5032,
      "plies": 5033,
      "places": 5034,
      "expe": 5035,
      "excess": 5036,
      "exten": 5037,
      "exchange": 5038,
      "lier": 5039,
      "lide": 5040,
      "libr": 5041,
      "poly": 5042,
      "cially": 5043,
      "quate": 5044,
      "quiz": 5045,
      "quite": 5046,
      "dust": 5047,
      "duct": 5048,
      "perm": 5049,
      "perhaps": 5050,
      "shut": 5051,
      "shine": 5052,
      "shallow": 5053,
      "shot": 5054,
      "illa": 5055,
      "pork": 5056,
      "portion": 5057,
      "portive": 5058,
      "pleas": 5059,
      "crew": 5060,
      "created": 5061,
      "creatures": 5062,
      "coal": 5063,
      "covers": 5064,
      "cogn": 5065,
      "oney": 5066,
      "boil": 5067,
      "bohydr": 5068,
      "empty": 5069,
      "fiction": 5070,
      "fictional": 5071,
      "agg": 5072,
      "agon": 5073,
      "agent": 5074,
      "agreed": 5075,
      "ometric": 5076,
      "ount": 5077,
      "ounce": 5078,
      "viate": 5079,
      "six": 5080,
      "siti": 5081,
      "inevit": 5082,
      "kingdom": 5083,
      "prints": 5084,
      "urer": 5085,
      "ody": 5086,
      "eted": 5087,
      "etro": 5088,
      "string": 5089,
      "strange": 5090,
      "straw": 5091,
      "strings": 5092,
      "foster": 5093,
      "umin": 5094,
      "umes": 5095,
      "umstances": 5096,
      "useum": 5097,
      "precip": 5098,
      "premium": 5099,
      "precision": 5100,
      "Incorpor": 5101,
      "upon": 5102,
      "grass": 5103,
      "gradi": 5104,
      "viding": 5105,
      "artist": 5106,
      "udes": 5107,
      "workforce": 5108,
      "oping": 5109,
      "answered": 5110,
      "commit": 5111,
      "commerce": 5112,
      "speaking": 5113,
      "indr": 5114,
      "discr": 5115,
      "disappoint": 5116,
      "disrup": 5117,
      "disasters": 5118,
      "earned": 5119,
      "inclusion": 5120,
      "fulness": 5121,
      "assign": 5122,
      "anger": 5123,
      "spin": 5124,
      "spent": 5125,
      "actually": 5126,
      "interpret": 5127,
      "interconnected": 5128,
      "although": 5129,
      "**.": 5130,
      "serving": 5131,
      "served": 5132,
      "brid": 5133,
      "pherals": 5134,
      "philosoph": 5135,
      "themes": 5136,
      "engines": 5137,
      "augh": 5138,
      "customs": 5139,
      "customizable": 5140,
      "intended": 5141,
      "reduces": 5142,
      "carrots": 5143,
      "cardiov": 5144,
      "parks": 5145,
      "parame": 5146,
      "parsle": 5147,
      "colum": 5148,
      "ologies": 5149,
      "object": 5150,
      "obstac": 5151,
      "veloper": 5152,
      "Docu": 5153,
      "Doctors": 5154,
      "manual": 5155,
      "manufact": 5156,
      "however": 5157,
      "experts": 5158,
      "experiments": 5159,
      "safer": 5160,
      "carefully": 5161,
      "topics": 5162,
      "bute": 5163,
      "summar": 5164,
      "grew": 5165,
      "divided": 5166,
      "jectives": 5167,
      "ponents": 5168,
      "valence": 5169,
      "intellect": 5170,
      "crime": 5171,
      "supporting": 5172,
      "supportive": 5173,
      "possess": 5174,
      "element": 5175,
      "elect": 5176,
      "highlight": 5177,
      "highlights": 5178,
      "visiting": 5179,
      "virtu": 5180,
      "questration": 5181,
      "hole": 5182,
      "hook": 5183,
      "hotel": 5184,
      "blame": 5185,
      "drank": 5186,
      "volume": 5187,
      "technological": 5188,
      "craft": 5189,
      "correlation": 5190,
      "calor": 5191,
      "powers": 5192,
      "gged": 5193,
      "tale": 5194,
      "talent": 5195,
      "networking": 5196,
      "ultane": 5197,
      "experienced": 5198,
      "listener": 5199,
      "xture": 5200,
      "relations": 5201,
      "pressure": 5202,
      "facts": 5203,
      "factor": 5204,
      "facilities": 5205,
      "ballo": 5206,
      "finish": 5207,
      "trial": 5208,
      "triangle": 5209,
      "tribute": 5210,
      "Enhanced": 5211,
      "Energy": 5212,
      "fired": 5213,
      "fierce": 5214,
      "searching": 5215,
      "responding": 5216,
      "designs": 5217,
      "designer": 5218,
      "designated": 5219,
      "funds": 5220,
      "homework": 5221,
      "pursu": 5222,
      "pursuit": 5223,
      "purposes": 5224,
      "Exc": 5225,
      "Experi": 5226,
      "Explanation": 5227,
      "polar": 5228,
      "polite": 5229,
      "powering": 5230,
      "families": 5231,
      "gives": 5232,
      "skip": 5233,
      "skilled": 5234,
      "signs": 5235,
      "forever": 5236,
      "promotes": 5237,
      "prompts": 5238,
      "prominent": 5239,
      "friendship": 5240,
      "consensus": 5241,
      "wellbeing": 5242,
      "quire": 5243,
      "Conf": 5244,
      "Conne": 5245,
      "Conserve": 5246,
      "Conduct": 5247,
      "writes": 5248,
      "captiv": 5249,
      "court": 5250,
      "drives": 5251,
      "version": 5252,
      "breath": 5253,
      "mining": 5254,
      "minor": 5255,
      "depression": 5256,
      "Anti": 5257,
      "putting": 5258,
      "organizing": 5259,
      "insight": 5260,
      "institu": 5261,
      "Star": 5262,
      "State": 5263,
      "soft": 5264,
      "Changes": 5265,
      "Christ": 5266,
      "bench": 5267,
      "charged": 5268,
      "flat": 5269,
      "flash": 5270,
      "finding": 5271,
      "reader": 5272,
      "guid": 5273,
      "joining": 5274,
      "turning": 5275,
      "severance": 5276,
      "shows": 5277,
      "views": 5278,
      "viewer": 5279,
      "cues": 5280,
      "lightly": 5281,
      "lightweight": 5282,
      "potentially": 5283,
      "lessons": 5284,
      "keyboard": 5285,
      "applied": 5286,
      "Online": 5287,
      "websites": 5288,
      "electrons": 5289,
      "Proper": 5290,
      "generating": 5291,
      "hardly": 5292,
      "involved": 5293,
      "simpl": 5294,
      "simultane": 5295,
      "performed": 5296,
      "passion": 5297,
      "released": 5298,
      "programmed": 5299,
      "Begin": 5300,
      "foundation": 5301,
      "trem": 5302,
      "substances": 5303,
      "pointed": 5304,
      "filtering": 5305,
      "stayed": 5306,
      "classm": 5307,
      "classic": 5308,
      "focuses": 5309,
      "focusing": 5310,
      "audio": 5311,
      "singing": 5312,
      "protecting": 5313,
      "achievable": 5314,
      "oneself": 5315,
      "cheer": 5316,
      "heads": 5317,
      "methodology": 5318,
      "tempo": 5319,
      "tempt": 5320,
      "happens": 5321,
      "multitude": 5322,
      "blog": 5323,
      "bloom": 5324,
      "actively": 5325,
      "sunshine": 5326,
      "educational": 5327,
      "cules": 5328,
      "globalization": 5329,
      "slee": 5330,
      "truly": 5331,
      "connections": 5332,
      "bottle": 5333,
      "clearly": 5334,
      "recovery": 5335,
      "enjoyed": 5336,
      "purchased": 5337,
      "purchasing": 5338,
      "purchases": 5339,
      "Plu": 5340,
      "Plants": 5341,
      "Within": 5342,
      "Without": 5343,
      "mixture": 5344,
      "storing": 5345,
      "tube": 5346,
      "tuce": 5347,
      "weeks": 5348,
      "instant": 5349,
      "realize": 5350,
      "combined": 5351,
      "majestic": 5352,
      "intelligent": 5353,
      "dependency": 5354,
      "holding": 5355,
      "strips": 5356,
      "speaker": 5357,
      "Impact": 5358,
      "barriers": 5359,
      "equation": 5360,
      "minds": 5361,
      "controlled": 5362,
      "functionality": 5363,
      "Bring": 5364,
      "Tech": 5365,
      "distress": 5366,
      "distances": 5367,
      "messages": 5368,
      "instructor": 5369,
      "instructors": 5370,
      "younger": 5371,
      "believed": 5372,
      "teaches": 5373,
      "forests": 5374,
      "recommendation": 5375,
      "2020": 5376,
      "Everybody": 5377,
      "Maybe": 5378,
      "malware": 5379,
      "scalability": 5380,
      "sustainably": 5381,
      "complexity": 5382,
      "Developing": 5383,
      "Goal": 5384,
      "basketball": 5385,
      "oxid": 5386,
      "oxygen": 5387,
      "slice": 5388,
      "stopped": 5389,
      "represented": 5390,
      "competitors": 5391,
      "classify": 5392,
      "automate": 5393,
      "automatically": 5394,
      "graphic": 5395,
      "targeted": 5396,
      "Shop": 5397,
      "bank": 5398,
      "banana": 5399,
      "sorting": 5400,
      "integrity": 5401,
      "integrated": 5402,
      "Color": 5403,
      "traveling": 5404,
      "motivations": 5405,
      "component": 5406,
      "container": 5407,
      "studying": 5408,
      "predictive": 5409,
      "aimed": 5410,
      "ergic": 5411,
      "respectful": 5412,
      "wearable": 5413,
      "Interviewer": 5414,
      "regulation": 5415,
      "Android": 5416,
      "Appl": 5417,
      "Point": 5418,
      "hunger": 5419,
      "moral": 5420,
      "military": 5421,
      "warning": 5422,
      "anticip": 5423,
      "chatbots": 5424,
      "ushing": 5425,
      "versely": 5426,
      "conclusions": 5427,
      "shock": 5428,
      "primarily": 5429,
      "discussions": 5430,
      "situations": 5431,
      "walked": 5432,
      "Respon": 5433,
      "broken": 5434,
      "doubted": 5435,
      "kindness": 5436,
      "panels": 5437,
      "rounded": 5438,
      "smoke": 5439,
      "smooth": 5440,
      "reliance": 5441,
      "reported": 5442,
      "rolling": 5443,
      "deeply": 5444,
      "ilarly": 5445,
      "concerned": 5446,
      "explores": 5447,
      "preference": 5448,
      "contributions": 5449,
      "Fossil": 5450,
      "Marketing": 5451,
      "lawy": 5452,
      "scene": 5453,
      "sounds": 5454,
      "titles": 5455,
      "defense": 5456,
      "shaped": 5457,
      "emerged": 5458,
      "particles": 5459,
      "collaborative": 5460,
      "Personalized": 5461,
      "occurred": 5462,
      "Boost": 5463,
      "Reduced": 5464,
      "Setting": 5465,
      "dedication": 5466,
      "menu": 5467,
      "muscle": 5468,
      "removing": 5469,
      "recently": 5470,
      "recycled": 5471,
      "arguing": 5472,
      "seafood": 5473,
      "decreases": 5474,
      "appear": 5475,
      "queries": 5476,
      "databases": 5477,
      "bringing": 5478,
      "England": 5479,
      "consistent": 5480,
      "monitoring": 5481,
      "suggests": 5482,
      "birds": 5483,
      "fallen": 5484,
      "hike": 5485,
      "harness": 5486,
      "unemploy": 5487,
      "walls": 5488,
      "beaches": 5489,
      "protein": 5490,
      "conduct": 5491,
      "opinions": 5492,
      "cryption": 5493,
      "crypto": 5494,
      "advancement": 5495,
      "pathy": 5496,
      "Assign": 5497,
      "Assistant": 5498,
      "Solar": 5499,
      "casual": 5500,
      "danger": 5501,
      "floor": 5502,
      "kids": 5503,
      "lengths": 5504,
      "mission": 5505,
      "norms": 5506,
      "inspired": 5507,
      "inspire": 5508,
      "influence": 5509,
      "alleviate": 5510,
      "ascular": 5511,
      "ascending": 5512,
      "melted": 5513,
      "nearby": 5514,
      "universal": 5515,
      "preferred": 5516,
      "earthqu": 5517,
      "planets": 5518,
      "transparency": 5519,
      "Analysis": 5520,
      "expanding": 5521,
      "expanded": 5522,
      "Spending": 5523,
      "catching": 5524,
      "hesit": 5525,
      "loneliness": 5526,
      "million": 5527,
      "samples": 5528,
      "village": 5529,
      "investing": 5530,
      "incorporating": 5531,
      "suitable": 5532,
      "immune": 5533,
      "constantly": 5534,
      "welcome": 5535,
      "maximum": 5536,
      "extract": 5537,
      "extraction": 5538,
      "updates": 5539,
      "updated": 5540,
      "earnings": 5541,
      "eliminating": 5542,
      "eliminates": 5543,
      "drugs": 5544,
      "surprise": 5545,
      "adventures": 5546,
      "struggle": 5547,
      "fundament": 5548,
      "minimize": 5549,
      "Communication": 5550,
      "frequently": 5551,
      "freedoms": 5552,
      "nutrition": 5553,
      "participate": 5554,
      "Building": 5555,
      "AMB": 5556,
      "Carbon": 5557,
      "adequate": 5558,
      "hale": 5559,
      "hurt": 5560,
      "navigate": 5561,
      "punish": 5562,
      "punished": 5563,
      "pull": 5564,
      "pulsion": 5565,
      "phase": 5566,
      "vitam": 5567,
      "varying": 5568,
      "width": 5569,
      "replacing": 5570,
      "tories": 5571,
      "absorption": 5572,
      "teenagers": 5573,
      "imagine": 5574,
      "diagnosis": 5575,
      "appointments": 5576,
      "pretty": 5577,
      "hospit": 5578,
      "facilitate": 5579,
      "breathe": 5580,
      "breathing": 5581,
      "difficulties": 5582,
      "habitat": 5583,
      "Organic": 5584,
      "Educational": 5585,
      "According": 5586,
      "Blue": 5587,
      "German": 5588,
      "Germany": 5589,
      "hidden": 5590,
      "labeled": 5591,
      "paste": 5592,
      "victory": 5593,
      "injury": 5594,
      "annual": 5595,
      "restrictions": 5596,
      "rewarding": 5597,
      "revolutionize": 5598,
      "attitude": 5599,
      "attitudes": 5600,
      "arrangement": 5601,
      "decline": 5602,
      "subscription": 5603,
      "tranqu": 5604,
      "transition": 5605,
      "admitted": 5606,
      "correctly": 5607,
      "affordable": 5608,
      "Content": 5609,
      "patients": 5610,
      "department": 5611,
      "autonomy": 5612,
      "autonomous": 5613,
      "stretched": 5614,
      "responsibly": 5615,
      "responsibilities": 5616,
      "remotely": 5617,
      "birthday": 5618,
      "Optimization": 5619,
      "Lastly": 5620,
      "Present": 5621,
      "Speed": 5622,
      "battery": 5623,
      "crop": 5624,
      "durable": 5625,
      "justice": 5626,
      "scans": 5627,
      "threats": 5628,
      "invention": 5629,
      "ancient": 5630,
      "reputation": 5631,
      "atoms": 5632,
      "heavy": 5633,
      "rocky": 5634,
      "accused": 5635,
      "demonstrate": 5636,
      "protocol": 5637,
      "proportional": 5638,
      "converting": 5639,
      "conflict": 5640,
      "molecules": 5641,
      "existence": 5642,
      "hashtags": 5643,
      "compassion": 5644,
      "newspapers": 5645,
      "discussing": 5646,
      "Throughout": 5647,
      "overwhelmed": 5648,
      "incredible": 5649,
      "expertise": 5650,
      "volunteering": 5651,
      "Entertainment": 5652,
      "Advanced": 5653,
      "installing": 5654,
      "Automation": 5655,
      "frustration": 5656,
      "schedules": 5657,
      "magnetic": 5658,
      "burnout": 5659,
      "incentives": 5660,
      "suffering": 5661,
      "Python": 5662,
      "Calcul": 5663,
      "Central": 5664,
      "Current": 5665,
      "Funding": 5666,
      "Galile": 5667,
      "Prioritize": 5668,
      "Texas": 5669,
      "Visit": 5670,
      "aesthetic": 5671,
      "bacteria": 5672,
      "dessert": 5673,
      "eagerness": 5674,
      "fatigue": 5675,
      "faucets": 5676,
      "gifts": 5677,
      "knee": 5678,
      "shelves": 5679,
      "savings": 5680,
      "tamper": 5681,
      "ublic": 5682,
      "reinforce": 5683,
      "refrigerator": 5684,
      "beliefs": 5685,
      "melody": 5686,
      "neutral": 5687,
      "understood": 5688,
      "weaknesses": 5689,
      "exclusive": 5690,
      "historical": 5691,
      "pooling": 5692,
      "shifting": 5693,
      "Include": 5694,
      "distributed": 5695,
      "descrip": 5696,
      "phenomenon": 5697,
      "parallel": 5698,
      "colonization": 5699,
      "manipulate": 5700,
      "crisis": 5701,
      "forecasts": 5702,
      "Consumer": 5703,
      "turbine": 5704,
      "applicable": 5705,
      "approximately": 5706,
      "expenditures": 5707,
      "Football": 5708,
      "circumstances": 5709,
      "circuits": 5710,
      "logistics": 5711,
      "flooding": 5712,
      "immersive": 5713,
      "Economic": 5714,
      "neighborhood": 5715,
      "Agreement": 5716,
      "Extreme": 5717,
      "Imagine": 5718,
      "Jackson": 5719,
      "Quality": 5720,
      "Similarly": 5721,
      "Sustain": 5722,
      "Type": 5723,
      "cigarettes": 5724,
      "equivalent": 5725,
      "pipes": 5726,
      "pizza": 5727,
      "sanitation": 5728,
      "sample": 5729,
      "vulner": 5730,
      "widespread": 5731,
      "waveleng": 5732,
      "initiatives": 5733,
      "erosion": 5734,
      "encies": 5735,
      "toilets": 5736,
      "especially": 5737,
      "alcohol": 5738,
      "stroke": 5739,
      "stupid": 5740,
      "decade": 5741,
      "decentralized": 5742,
      "absolute": 5743,
      "constraints": 5744,
      "respective": 5745,
      "weapons": 5746,
      "cognitive": 5747,
      "bohydrates": 5748,
      "inevitable": 5749,
      "strawberry": 5750,
      "precipitation": 5751,
      "gradient": 5752,
      "cardiovascular": 5753,
      "parsley": 5754,
      "manufacturer": 5755,
      "intellectual": 5756,
      "virtually": 5757,
      "Experience": 5758,
      "institutions": 5759,
      "simultaneously": 5760,
      "!\".": 5761,
      "%.": 5762,
      "'.": 5763,
      "(-": 5764,
      "--": 5765,
      ".)": 5766,
      "05": 5767,
      "100": 5768,
      "1000": 5769,
      "21": 5770,
      "27": 5771,
      "35": 5772,
      "39": 5773,
      "300": 5774,
      "48": 5775,
      "61": 5776,
      "63": 5777,
      "75": 5778,
      "79": 5779,
      "84": 5780,
      "86": 5781,
      "92": 5782,
      "=\"": 5783,
      "Av": 5784,
      "Ay": 5785,
      "Az": 5786,
      "Ast": 5787,
      "Age": 5788,
      "Afr": 5789,
      "Acts": 5790,
      "Active": 5791,
      "Ask": 5792,
      "Ber": 5793,
      "Bat": 5794,
      "Bas": 5795,
      "Bro": 5796,
      "Bill": 5797,
      "Bet": 5798,
      "Best": 5799,
      "Brow": 5800,
      "Broad": 5801,
      "Block": 5802,
      "CT": 5803,
      "Ci": 5804,
      "Cer": 5805,
      "Cro": 5806,
      "Care": 5807,
      "Cap": 5808,
      "Call": 5809,
      "Cards": 5810,
      "Clean": 5811,
      "DS": 5812,
      "Da": 5813,
      "Dise": 5814,
      "Dinner": 5815,
      "ES": 5816,
      "EU": 5817,
      "El": 5818,
      "Eat": 5819,
      "Even": 5820,
      "Einste": 5821,
      "Eliz": 5822,
      "Equal": 5823,
      "Easy": 5824,
      "Fed": 5825,
      "Fit": 5826,
      "Fol": 5827,
      "Father": 5828,
      "Fail": 5829,
      "Flu": 5830,
      "False": 5831,
      "Flor": 5832,
      "GL": 5833,
      "GM": 5834,
      "Gam": 5835,
      "Grow": 5836,
      "Got": 5837,
      "Gats": 5838,
      "Hi": 5839,
      "Hand": 5840,
      "Hed": 5841,
      "Has": 5842,
      "Hid": 5843,
      "Hum": 5844,
      "Hok": 5845,
      "Hot": 5846,
      "House": 5847,
      "Having": 5848,
      "Iron": 5849,
      "Jud": 5850,
      "Jack": 5851,
      "Jane": 5852,
      "Kill": 5853,
      "Kend": 5854,
      "Know": 5855,
      "LP": 5856,
      "LS": 5857,
      "Ls": 5858,
      "Lon": 5859,
      "Low": 5860,
      "Lay": 5861,
      "Lim": 5862,
      "Lad": 5863,
      "Less": 5864,
      "Lap": 5865,
      "Langu": 5866,
      "Mer": 5867,
      "Mid": 5868,
      "Mul": 5869,
      "March": 5870,
      "Mia": 5871,
      "Mort": 5872,
      "Making": 5873,
      "Mark": 5874,
      "Moc": 5875,
      "Mountain": 5876,
      "MDN": 5877,
      "Mental": 5878,
      "Money": 5879,
      "Mount": 5880,
      "Museum": 5881,
      "NY": 5882,
      "Nu": 5883,
      "None": 5884,
      "Night": 5885,
      "Never": 5886,
      "NLP": 5887,
      "Oc": 5888,
      "Ou": 5889,
      "Old": 5890,
      "Oper": 5891,
      "Ocean": 5892,
      "Others": 5893,
      "PC": 5894,
      "Pi": 5895,
      "Pan": 5896,
      "Pair": 5897,
      "Pho": 5898,
      "Public": 5899,
      "RO": 5900,
      "Ri": 5901,
      "Ru": 5902,
      "Rom": 5903,
      "Row": 5904,
      "Run": 5905,
      "Random": 5906,
      "Retro": 5907,
      "Si": 5908,
      "Sl": 5909,
      "Sen": 5910,
      "Sand": 5911,
      "Sab": 5912,
      "Sci": 5913,
      "Spr": 5914,
      "Sav": 5915,
      "Slow": 5916,
      "Sound": 5917,
      "Show": 5918,
      "Scal": 5919,
      "Such": 5920,
      "Sort": 5921,
      "School": 5922,
      "Structure": 5923,
      "Sweet": 5924,
      "Simply": 5925,
      "Serve": 5926,
      "Self": 5927,
      "Store": 5928,
      "Scot": 5929,
      "TM": 5930,
      "Ter": 5931,
      "Tal": 5932,
      "Tod": 5933,
      "Top": 5934,
      "Two": 5935,
      "Treat": 5936,
      "Tensor": 5937,
      "UE": 5938,
      "UN": 5939,
      "UV": 5940,
      "User": 5941,
      "Upon": 5942,
      "Uran": 5943,
      "Vi": 5944,
      "VID": 5945,
      "WA": 5946,
      "WH": 5947,
      "Wed": 5948,
      "Whe": 5949,
      "Whis": 5950,
      "Wear": 5951,
      "Wide": 5952,
      "Warm": 5953,
      "Wick": 5954,
      "Watch": 5955,
      "Wright": 5956,
      "Willi": 5957,
      "Xer": 5958,
      "Ye": 5959,
      "Yog": 5960,
      "],": 5961,
      "].": 5962,
      "ayou": 5963,
      "abet": 5964,
      "azz": 5965,
      "bou": 5966,
      "bly": 5967,
      "bare": 5968,
      "bally": 5969,
      "blow": 5970,
      "bak": 5971,
      "bold": 5972,
      "bability": 5973,
      "bilities": 5974,
      "bbles": 5975,
      "cou": 5976,
      "cow": 5977,
      "cough": 5978,
      "cite": 5979,
      "cular": 5980,
      "ccer": 5981,
      "cases": 5982,
      "cash": 5983,
      "censor": 5984,
      "dan": 5985,
      "dir": 5986,
      "dhis": 5987,
      "dred": 5988,
      "dding": 5989,
      "dens": 5990,
      "dane": 5991,
      "diction": 5992,
      "eu": 5993,
      "east": 5994,
      "evo": 5995,
      "equality": 5996,
      "eternal": 5997,
      "fen": 5998,
      "fro": 5999,
      "ffe": 6000,
      "fine": 6001,
      "fif": 6002,
      "fought": 6003,
      "flip": 6004,
      "ga": 6005,
      "git": 6006,
      "gic": 6007,
      "gation": 6008,
      "gol": 6009,
      "gma": 6010,
      "gers": 6011,
      "gap": 6012,
      "gins": 6013,
      "gency": 6014,
      "gently": 6015,
      "gift": 6016,
      "gatives": 6017,
      "gender": 6018,
      "grocer": 6019,
      "hon": 6020,
      "hing": 6021,
      "hus": 6022,
      "hang": 6023,
      "hills": 6024,
      "hoping": 6025,
      "io": 6026,
      "ian": 6027,
      "iar": 6028,
      "ief": 6029,
      "iances": 6030,
      "jok": 6031,
      "jury": 6032,
      "jazz": 6033,
      "kg": 6034,
      "kil": 6035,
      "kers": 6036,
      "kick": 6037,
      "lan": 6038,
      "lig": 6039,
      "lad": 6040,
      "llo": 6041,
      "lists": 6042,
      "lush": 6043,
      "launch": 6044,
      "laugh": 6045,
      "mb": 6046,
      "mm": 6047,
      "mit": 6048,
      "mic": 6049,
      "mad": 6050,
      "mur": 6051,
      "mph": 6052,
      "mask": 6053,
      "mmas": 6054,
      "mises": 6055,
      "mitting": 6056,
      "nes": 6057,
      "nit": 6058,
      "nap": 6059,
      "nav": 6060,
      "nations": 6061,
      "nice": 6062,
      "nish": 6063,
      "nia": 6064,
      "null": 6065,
      "oke": 6066,
      "ots": 6067,
      "ood": 6068,
      "ogy": 6069,
      "olet": 6070,
      "osphere": 6071,
      "oplas": 6072,
      "pi": 6073,
      "pes": 6074,
      "pou": 6075,
      "pse": 6076,
      "pad": 6077,
      "pour": 6078,
      "pill": 6079,
      "pum": 6080,
      "psy": 6081,
      "pants": 6082,
      "pped": 6083,
      "paved": 6084,
      "ror": 6085,
      "ras": 6086,
      "rit": 6087,
      "rare": 6088,
      "ram": 6089,
      "rant": 6090,
      "rated": 6091,
      "rice": 6092,
      "rural": 6093,
      "rhy": 6094,
      "raster": 6095,
      "rational": 6096,
      "rush": 6097,
      "rane": 6098,
      "sity": 6099,
      "sight": 6100,
      "site": 6101,
      "sang": 6102,
      "sights": 6103,
      "slower": 6104,
      "slip": 6105,
      "script": 6106,
      "slightly": 6107,
      "tary": 6108,
      "tance": 6109,
      "tang": 6110,
      "tative": 6111,
      "tissues": 6112,
      "uf": 6113,
      "uum": 6114,
      "ubs": 6115,
      "uels": 6116,
      "utili": 6117,
      "ught": 6118,
      "utilize": 6119,
      "vs": 6120,
      "vap": 6121,
      "vine": 6122,
      "vest": 6123,
      "vard": 6124,
      "vous": 6125,
      "vated": 6126,
      "vents": 6127,
      "vast": 6128,
      "vative": 6129,
      "vices": 6130,
      "varies": 6131,
      "wave": 6132,
      "wine": 6133,
      "west": 6134,
      "wake": 6135,
      "wire": 6136,
      "woman": 6137,
      "wilder": 6138,
      "xit": 6139,
      "xpect": 6140,
      "ym": 6141,
      "yages": 6142,
      "yield": 6143,
      "yards": 6144,
      "zo": 6145,
      "zones": 6146,
      "zilla": 6147,
      "{.": 6148,
      "thay": 6149,
      "thigh": 6150,
      "thous": 6151,
      "thood": 6152,
      "iny": 6153,
      "iner": 6154,
      "inable": 6155,
      "inking": 6156,
      "inher": 6157,
      "intake": 6158,
      "infer": 6159,
      "infl": 6160,
      "invent": 6161,
      "incomes": 6162,
      "indoor": 6163,
      "incoming": 6164,
      "inference": 6165,
      "inhabit": 6166,
      "index": 6167,
      "inputs": 6168,
      "anus": 6169,
      "ancis": 6170,
      "ancers": 6171,
      "rem": 6172,
      "rean": 6173,
      "reti": 6174,
      "reus": 6175,
      "rema": 6176,
      "recess": 6177,
      "repre": 6178,
      "reten": 6179,
      "react": 6180,
      "refin": 6181,
      "rechar": 6182,
      "reject": 6183,
      "remain": 6184,
      "reats": 6185,
      "recurrent": 6186,
      "rewall": 6187,
      "recounts": 6188,
      "reconstruction": 6189,
      "erb": 6190,
      "erted": 6191,
      "oni": 6192,
      "oned": 6193,
      "onts": 6194,
      "onist": 6195,
      "onav": 6196,
      "attribut": 6197,
      "atified": 6198,
      "attribute": 6199,
      "attempt": 6200,
      "theon": 6201,
      "theme": 6202,
      "enish": 6203,
      "enabl": 6204,
      "enrich": 6205,
      "enclosed": 6206,
      "enthus": 6207,
      "encompass": 6208,
      "enzy": 6209,
      "encryption": 6210,
      "tote": 6211,
      "tober": 6212,
      "toss": 6213,
      "toasted": 6214,
      "este": 6215,
      "ester": 6216,
      "esity": 6217,
      "esome": 6218,
      "estri": 6219,
      "escent": 6220,
      "escape": 6221,
      "outr": 6222,
      "ingy": 6223,
      "oration": 6224,
      "orge": 6225,
      "orable": 6226,
      "orders": 6227,
      "oranges": 6228,
      "ald": 6229,
      "aly": 6230,
      "align": 6231,
      "alive": 6232,
      "allot": 6233,
      "allocation": 6234,
      "allies": 6235,
      "allocate": 6236,
      "album": 6237,
      "alumin": 6238,
      "anded": 6239,
      "andoned": 6240,
      "andescent": 6241,
      "isl": 6242,
      "isy": 6243,
      "ardi": 6244,
      "arrest": 6245,
      "arise": 6246,
      "array": 6247,
      "tie": 6248,
      "tip": 6249,
      "tile": 6250,
      "tiate": 6251,
      "tible": 6252,
      "tired": 6253,
      "tious": 6254,
      "tify": 6255,
      "tidog": 6256,
      "eded": 6257,
      "edback": 6258,
      "asking": 6259,
      "asive": 6260,
      "aside": 6261,
      "assum": 6262,
      "asleep": 6263,
      "ofuels": 6264,
      "ley": 6265,
      "lever": 6266,
      "lets": 6267,
      "lective": 6268,
      "leather": 6269,
      "leaking": 6270,
      "lemen": 6271,
      "leverage": 6272,
      "lemmas": 6273,
      "itar": 6274,
      "itself": 6275,
      "itarian": 6276,
      "cha": 6277,
      "ching": 6278,
      "chor": 6279,
      "chest": 6280,
      "chills": 6281,
      "chlor": 6282,
      "stan": 6283,
      "stam": 6284,
      "stability": 6285,
      "stones": 6286,
      "stash": 6287,
      "stering": 6288,
      "stingy": 6289,
      "heet": 6290,
      "heels": 6291,
      "herent": 6292,
      "hetti": 6293,
      "ico": 6294,
      "icop": 6295,
      "icates": 6296,
      "iconic": 6297,
      "vegan": 6298,
      "roe": 6299,
      "roof": 6300,
      "roasted": 6301,
      "rooted": 6302,
      "entered": 6303,
      "entangle": 6304,
      "entrepre": 6305,
      "acon": 6306,
      "accom": 6307,
      "acqu": 6308,
      "actor": 6309,
      "accent": 6310,
      "acknowled": 6311,
      "acknowledge": 6312,
      "aciers": 6313,
      "acerb": 6314,
      "sects": 6315,
      "selling": 6316,
      "seamless": 6317,
      "sequestration": 6318,
      "beat": 6319,
      "behave": 6320,
      "belong": 6321,
      "beats": 6322,
      "begins": 6323,
      "beacon": 6324,
      "forces": 6325,
      "fortune": 6326,
      "fornia": 6327,
      "deal": 6328,
      "dear": 6329,
      "deple": 6330,
      "deals": 6331,
      "deck": 6332,
      "delive": 6333,
      "debit": 6334,
      "degree": 6335,
      "debris": 6336,
      "developer": 6337,
      "ilted": 6338,
      "illegal": 6339,
      "owl": 6340,
      "ows": 6341,
      "susp": 6342,
      "suited": 6343,
      "meta": 6344,
      "usability": 6345,
      "lycan": 6346,
      "arest": 6347,
      "proof": 6348,
      "proven": 6349,
      "proje": 6350,
      "props": 6351,
      "protag": 6352,
      "probab": 6353,
      "prospect": 6354,
      "proponents": 6355,
      "propulsion": 6356,
      "probability": 6357,
      "olive": 6358,
      "older": 6359,
      "celes": 6360,
      "ception": 6361,
      "ida": 6362,
      "idi": 6363,
      "ids": 6364,
      "iders": 6365,
      "abled": 6366,
      "abduction": 6367,
      "abandoned": 6368,
      "geograph": 6369,
      "geometric": 6370,
      "nel": 6371,
      "verts": 6372,
      "versi": 6373,
      "verty": 6374,
      "verware": 6375,
      "irm": 6376,
      "irs": 6377,
      "irus": 6378,
      "irable": 6379,
      "irrelevant": 6380,
      "tea": 6381,
      "tee": 6382,
      "tear": 6383,
      "tegr": 6384,
      "tears": 6385,
      "ayed": 6386,
      "cane": 6387,
      "cancer": 6388,
      "cancel": 6389,
      "igor": 6390,
      "impossible": 6391,
      "comed": 6392,
      "compos": 6393,
      "compromise": 6394,
      "tery": 6395,
      "terrain": 6396,
      "concl": 6397,
      "conferen": 6398,
      "conserve": 6399,
      "conges": 6400,
      "conference": 6401,
      "consume": 6402,
      "consolid": 6403,
      "console": 6404,
      "ateful": 6405,
      "trou": 6406,
      "trics": 6407,
      "tracks": 6408,
      "trails": 6409,
      "ado": 6410,
      "aded": 6411,
      "adds": 6412,
      "adjectives": 6413,
      "moon": 6414,
      "moist": 6415,
      "moves": 6416,
      "motors": 6417,
      "lots": 6418,
      "loop": 6419,
      "loves": 6420,
      "lovers": 6421,
      "logging": 6422,
      "withdraw": 6423,
      "resent": 6424,
      "restore": 6425,
      "residents": 6426,
      "residential": 6427,
      "fees": 6428,
      "fever": 6429,
      "fects": 6430,
      "fetti": 6431,
      "union": 6432,
      "unci": 6433,
      "units": 6434,
      "uncle": 6435,
      "unnatural": 6436,
      "uncover": 6437,
      "unhealthy": 6438,
      "unseen": 6439,
      "uncertain": 6440,
      "unforget": 6441,
      "unimag": 6442,
      "unsupervised": 6443,
      "unlucky": 6444,
      "undoubted": 6445,
      "unlabeled": 6446,
      "essenti": 6447,
      "ulf": 6448,
      "uling": 6449,
      "ulated": 6450,
      "tsour": 6451,
      "Theore": 6452,
      "whatever": 6453,
      "dian": 6454,
      "divis": 6455,
      "dilemmas": 6456,
      "peers": 6457,
      "peach": 6458,
      "pered": 6459,
      "peaks": 6460,
      "pefully": 6461,
      "weed": 6462,
      "weigh": 6463,
      "weren": 6464,
      "math": 6465,
      "maid": 6466,
      "uries": 6467,
      "urance": 6468,
      "urnit": 6469,
      "ams": 6470,
      "amination": 6471,
      "ammation": 6472,
      "amatic": 6473,
      "plu": 6474,
      "plates": 6475,
      "ploring": 6476,
      "placed": 6477,
      "aps": 6478,
      "apt": 6479,
      "apy": 6480,
      "apple": 6481,
      "apses": 6482,
      "exce": 6483,
      "extend": 6484,
      "extra": 6485,
      "exports": 6486,
      "exhi": 6487,
      "exotic": 6488,
      "exhale": 6489,
      "exacerb": 6490,
      "lied": 6491,
      "liqu": 6492,
      "lized": 6493,
      "alliter": 6494,
      "allergic": 6495,
      "poem": 6496,
      "pointer": 6497,
      "posure": 6498,
      "poons": 6499,
      "poison": 6500,
      "pocket": 6501,
      "poverty": 6502,
      "cian": 6503,
      "cium": 6504,
      "civil": 6505,
      "antly": 6506,
      "rix": 6507,
      "rito": 6508,
      "quar": 6509,
      "quit": 6510,
      "quity": 6511,
      "quet": 6512,
      "qubits": 6513,
      "quote": 6514,
      "aintance": 6515,
      "sophis": 6516,
      "outcome": 6517,
      "outlook": 6518,
      "outfit": 6519,
      "outdoor": 6520,
      "doctors": 6521,
      "percent": 6522,
      "perceived": 6523,
      "perseverance": 6524,
      "shed": 6525,
      "shades": 6526,
      "shouting": 6527,
      "ighter": 6528,
      "gods": 6529,
      "ourselves": 6530,
      "illing": 6531,
      "clin": 6532,
      "clut": 6533,
      "click": 6534,
      "claims": 6535,
      "lla": 6536,
      "poration": 6537,
      "fractions": 6538,
      "creativity": 6539,
      "coat": 6540,
      "cohes": 6541,
      "cooperation": 6542,
      "coherent": 6543,
      "nose": 6544,
      "nobody": 6545,
      "notice": 6546,
      "nodding": 6547,
      "noisy": 6548,
      "utation": 6549,
      "utthay": 6550,
      "bored": 6551,
      "boys": 6552,
      "bodies": 6553,
      "eman": 6554,
      "empir": 6555,
      "emphas": 6556,
      "empathy": 6557,
      "aga": 6558,
      "agle": 6559,
      "agrap": 6560,
      "aghetti": 6561,
      "agement": 6562,
      "Whose": 6563,
      "ometers": 6564,
      "render": 6565,
      "rental": 6566,
      "anyway": 6567,
      "endor": 6568,
      "endous": 6569,
      "endless": 6570,
      "endpoint": 6571,
      "endurance": 6572,
      "bye": 6573,
      "washer": 6574,
      "vivid": 6575,
      "vize": 6576,
      "viously": 6577,
      "sized": 6578,
      "helicop": 6579,
      "inequality": 6580,
      "kingbird": 6581,
      "pra": 6582,
      "helpful": 6583,
      "ache": 6584,
      "etary": 6585,
      "stract": 6586,
      "stroma": 6587,
      "stranger": 6588,
      "stratified": 6589,
      "stranded": 6590,
      "enery": 6591,
      "isted": 6592,
      "izes": 6593,
      "izard": 6594,
      "fostering": 6595,
      "umbre": 6596,
      "precon": 6597,
      "precau": 6598,
      "prevalence": 6599,
      "premises": 6600,
      "formal": 6601,
      "formed": 6602,
      "formul": 6603,
      "Inst": 6604,
      "Individ": 6605,
      "Invest": 6606,
      "Integr": 6607,
      "Indian": 6608,
      "dates": 6609,
      "dating": 6610,
      "hasn": 6611,
      "ups": 6612,
      "update": 6613,
      "upgrad": 6614,
      "upfront": 6615,
      "grav": 6616,
      "grains": 6617,
      "grateful": 6618,
      "estone": 6619,
      "Itali": 6620,
      "timely": 6621,
      "timeline": 6622,
      "timelines": 6623,
      "gym": 6624,
      "taught": 6625,
      "arding": 6626,
      "tication": 6627,
      "ticated": 6628,
      "tickets": 6629,
      "artists": 6630,
      "uded": 6631,
      "eped": 6632,
      "knowing": 6633,
      "worker": 6634,
      "worked": 6635,
      "compact": 6636,
      "lowerc": 6637,
      "command": 6638,
      "commuting": 6639,
      "derive": 6640,
      "derived": 6641,
      "spectr": 6642,
      "speaks": 6643,
      "ancements": 6644,
      "learns": 6645,
      "dispar": 6646,
      "displace": 6647,
      "disorder": 6648,
      "disabilities": 6649,
      "displays": 6650,
      "disregard": 6651,
      "disinfect": 6652,
      "sometimes": 6653,
      "earn": 6654,
      "ears": 6655,
      "earlier": 6656,
      "acked": 6657,
      "Hello": 6658,
      "fulfill": 6659,
      "elancers": 6660,
      "Think": 6661,
      "Thank": 6662,
      "Threats": 6663,
      "vessel": 6664,
      "angular": 6665,
      "angles": 6666,
      "sphor": 6667,
      "spiders": 6668,
      "spaghetti": 6669,
      "twice": 6670,
      "twenti": 6671,
      "twenty": 6672,
      "interval": 6673,
      "interpersonal": 6674,
      "interfaces": 6675,
      "internal": 6676,
      "interrup": 6677,
      "rows": 6678,
      "productive": 6679,
      "produced": 6680,
      "desire": 6681,
      "deserts": 6682,
      "server": 6683,
      "servers": 6684,
      "brink": 6685,
      "brane": 6686,
      "Web": 6687,
      "Well": 6688,
      "Weight": 6689,
      "Weather": 6690,
      "overcome": 6691,
      "overview": 6692,
      "enger": 6693,
      "contest": 6694,
      "contamination": 6695,
      "customize": 6696,
      "carb": 6697,
      "carts": 6698,
      "carni": 6699,
      "carpooling": 6700,
      "paragrap": 6701,
      "coll": 6702,
      "collide": 6703,
      "iff": 6704,
      "obic": 6705,
      "observ": 6706,
      "oblig": 6707,
      "obesity": 6708,
      "manages": 6709,
      "managed": 6710,
      "managers": 6711,
      "ideologies": 6712,
      "mark": 6713,
      "owner": 6714,
      "thereby": 6715,
      "whereas": 6716,
      "wherever": 6717,
      "informal": 6718,
      "personnel": 6719,
      "cake": 6720,
      "airy": 6721,
      "medications": 6722,
      "planned": 6723,
      "videos": 6724,
      "shoulders": 6725,
      "watery": 6726,
      "ildren": 6727,
      "communicates": 6728,
      "cky": 6729,
      "cytes": 6730,
      "greenery": 6731,
      "divides": 6732,
      "dividends": 6733,
      "jective": 6734,
      "myself": 6735,
      "myster": 6736,
      "transaction": 6737,
      "translate": 6738,
      "hero": 6739,
      "timate": 6740,
      "standard": 6741,
      "standardi": 6742,
      "critic": 6743,
      "folds": 6744,
      "supper": 6745,
      "suppress": 6746,
      "supplies": 6747,
      "election": 6748,
      "elector": 6749,
      "highlighting": 6750,
      "vism": 6751,
      "visions": 6752,
      "visuals": 6753,
      "visibility": 6754,
      "virus": 6755,
      "impress": 6756,
      "hoot": 6757,
      "processed": 6758,
      "ysical": 6759,
      "developers": 6760,
      "developments": 6761,
      "blessed": 6762,
      "choo": 6763,
      "drunk": 6764,
      "dramatic": 6765,
      "voltage": 6766,
      "volumes": 6767,
      "craw": 6768,
      "craving": 6769,
      "crash": 6770,
      "criter": 6771,
      "coral": 6772,
      "correlations": 6773,
      "coronav": 6774,
      "smiles": 6775,
      "smiled": 6776,
      "ficient": 6777,
      "talks": 6778,
      "grown": 6779,
      "relating": 6780,
      "relativity": 6781,
      "specified": 6782,
      "ario": 6783,
      "delicate": 6784,
      "backed": 6785,
      "backlinks": 6786,
      "count": 6787,
      "preser": 6788,
      "presence": 6789,
      "aws": 6790,
      "awful": 6791,
      "awry": 6792,
      "facility": 6793,
      "factory": 6794,
      "facial": 6795,
      "faceted": 6796,
      "factories": 6797,
      "stolen": 6798,
      "survey": 6799,
      "surfing": 6800,
      "surveys": 6801,
      "followers": 6802,
      "underground": 6803,
      "cleared": 6804,
      "finance": 6805,
      "finite": 6806,
      "memorable": 6807,
      "membrane": 6808,
      "examination": 6809,
      "examining": 6810,
      "End": 6811,
      "Enjoy": 6812,
      "Ensuring": 6813,
      "file": 6814,
      "accessing": 6815,
      "accessed": 6816,
      "accessories": 6817,
      "responsive": 6818,
      "centered": 6819,
      "ploye": 6820,
      "purification": 6821,
      "sheet": 6822,
      "shells": 6823,
      "sheets": 6824,
      "goodbye": 6825,
      "Exampl": 6826,
      "Expand": 6827,
      "Exploring": 6828,
      "pollin": 6829,
      "politi": 6830,
      "actice": 6831,
      "varied": 6832,
      "modeling": 6833,
      "everyday": 6834,
      "everybody": 6835,
      "giene": 6836,
      "skill": 6837,
      "signing": 6838,
      "signal": 6839,
      "signals": 6840,
      "forecast": 6841,
      "personalize": 6842,
      "lars": 6843,
      "download": 6844,
      "handsome": 6845,
      "handwriting": 6846,
      "handling": 6847,
      "Contr": 6848,
      "Convert": 6849,
      "Conservation": 6850,
      "Confed": 6851,
      "Construct": 6852,
      "wrap": 6853,
      "lettuce": 6854,
      "capability": 6855,
      "courses": 6856,
      "taste": 6857,
      "tasking": 6858,
      "stepped": 6859,
      "decim": 6860,
      "decades": 6861,
      "bread": 6862,
      "breeds": 6863,
      "depress": 6864,
      "Any": 6865,
      "analogy": 6866,
      "completion": 6867,
      "complement": 6868,
      "completing": 6869,
      "worldwide": 6870,
      "Adapt": 6871,
      "Read": 6872,
      "React": 6873,
      "Recor": 6874,
      "Remove": 6875,
      "Recurrent": 6876,
      "Revolution": 6877,
      "understands": 6878,
      "understandings": 6879,
      "insic": 6880,
      "Canadi": 6881,
      "Description": 6882,
      "Stre": 6883,
      "mones": 6884,
      "Chunk": 6885,
      "Children": 6886,
      "cloth": 6887,
      "closer": 6888,
      "flavor": 6889,
      "flakes": 6890,
      "readers": 6891,
      "guy": 6892,
      "joint": 6893,
      "paired": 6894,
      "icted": 6895,
      "Decision": 6896,
      "ailer": 6897,
      "bones": 6898,
      "cuis": 6899,
      "cubes": 6900,
      "environmentally": 6901,
      "hybrid": 6902,
      "hygiene": 6903,
      "voyages": 6904,
      "refine": 6905,
      "refuge": 6906,
      "keywords": 6907,
      "appliances": 6908,
      "profile": 6909,
      "Common": 6910,
      "Compu": 6911,
      "Compan": 6912,
      "lination": 6913,
      "tells": 6914,
      "electrical": 6915,
      "presenting": 6916,
      "Propose": 6917,
      "Providing": 6918,
      "Uni": 6919,
      "Unit": 6920,
      "Unique": 6921,
      "bias": 6922,
      "biases": 6923,
      "generally": 6924,
      "generator": 6925,
      "sale": 6926,
      "salad": 6927,
      "leads": 6928,
      "devil": 6929,
      "simul": 6930,
      "simulate": 6931,
      "behaved": 6932,
      "featuring": 6933,
      "economies": 6934,
      ":**.": 6935,
      "passing": 6936,
      "passwords": 6937,
      "releases": 6938,
      "Being": 6939,
      "Beans": 6940,
      "Someone": 6941,
      "Something": 6942,
      "Sometimes": 6943,
      "limiting": 6944,
      "subtle": 6945,
      "subfield": 6946,
      "substan": 6947,
      "subjective": 6948,
      "greatest": 6949,
      "publish": 6950,
      "publication": 6951,
      "Formul": 6952,
      "filter": 6953,
      "films": 6954,
      "sisters": 6955,
      "classical": 6956,
      "auditory": 6957,
      "household": 6958,
      "monetary": 6959,
      "physically": 6960,
      "collects": 6961,
      "collecting": 6962,
      "Creation": 6963,
      "dresses": 6964,
      "dressing": 6965,
      "flows": 6966,
      "warmer": 6967,
      "worksheet": 6968,
      "analytical": 6969,
      "landmarks": 6970,
      "pays": 6971,
      "payroll": 6972,
      "stigma": 6973,
      "rectangular": 6974,
      "heading": 6975,
      "headphones": 6976,
      "headaches": 6977,
      "tempor": 6978,
      "temple": 6979,
      "opens": 6980,
      "opening": 6981,
      "multiply": 6982,
      "multifaceted": 6983,
      "multitasking": 6984,
      "Track": 6985,
      "Trust": 6986,
      "True": 6987,
      "Tradi": 6988,
      "Travel": 6989,
      "blocking": 6990,
      "gameplay": 6991,
      "tablet": 6992,
      "sung": 6993,
      "portunities": 6994,
      "Total": 6995,
      "nervous": 6996,
      "runs": 6997,
      "slept": 6998,
      "wondered": 6999,
      "chances": 7000,
      "pattern": 7001,
      "inviting": 7002,
      "connects": 7003,
      "climb": 7004,
      "climates": 7005,
      "bottles": 7006,
      "maintained": 7007,
      "Area": 7008,
      "Didn": 7009,
      "thentication": 7010,
      "enjoying": 7011,
      "shareholders": 7012,
      "governments": 7013,
      "governmental": 7014,
      "tailored": 7015,
      "marketplace": 7016,
      "Always": 7017,
      "Although": 7018,
      "Alert": 7019,
      "Allocate": 7020,
      "Place": 7021,
      "mito": 7022,
      "storms": 7023,
      "tubes": 7024,
      "consideration": 7025,
      "damag": 7026,
      "pedals": 7027,
      "pedestri": 7028,
      "instances": 7029,
      "realized": 7030,
      "realism": 7031,
      "combine": 7032,
      "settings": 7033,
      "requirement": 7034,
      "eats": 7035,
      "eaten": 7036,
      "strive": 7037,
      "strike": 7038,
      "strikes": 7039,
      "characterized": 7040,
      "Key": 7041,
      "Keys": 7042,
      "barn": 7043,
      "equity": 7044,
      "mindful": 7045,
      "tests": 7046,
      "testim": 7047,
      "assistance": 7048,
      "functioning": 7049,
      "weekend": 7050,
      "weekends": 7051,
      "Americas": 7052,
      "Brain": 7053,
      "Bridge": 7054,
      "Team": 7055,
      "athers": 7056,
      "digit": 7057,
      "digits": 7058,
      "digestive": 7059,
      "glu": 7060,
      "glad": 7061,
      "glanced": 7062,
      "glaciers": 7063,
      "ogen": 7064,
      "winding": 7065,
      "instruction": 7066,
      "instruments": 7067,
      "tilted": 7068,
      "teachers": 7069,
      "tracker": 7070,
      "feeding": 7071,
      "covering": 7072,
      "grounds": 7073,
      "invested": 7074,
      "investments": 7075,
      "197": 7076,
      "1950": 7077,
      "Audi": 7078,
      "Nobody": 7079,
      "garment": 7080,
      "garlic": 7081,
      "nuts": 7082,
      "paint": 7083,
      "painful": 7084,
      "scaled": 7085,
      "iterative": 7086,
      "iterrane": 7087,
      "sequence": 7088,
      "sustained": 7089,
      "sustainability": 7090,
      "implementation": 7091,
      "phosphor": 7092,
      "Developers": 7093,
      "axis": 7094,
      "occas": 7095,
      "slicing": 7096,
      "tested": 7097,
      "thinks": 7098,
      "representing": 7099,
      "representation": 7100,
      "representations": 7101,
      "representative": 7102,
      "representatives": 7103,
      "progressive": 7104,
      "planted": 7105,
      "potluck": 7106,
      "automating": 7107,
      "accountability": 7108,
      "Army": 7109,
      "Arctic": 7110,
      "Arrays": 7111,
      "Frame": 7112,
      "Frank": 7113,
      "Francis": 7114,
      "Love": 7115,
      "Should": 7116,
      "Short": 7117,
      "Shift": 7118,
      "banks": 7119,
      "dining": 7120,
      "layers": 7121,
      "swam": 7122,
      "winning": 7123,
      "winner": 7124,
      "recei": 7125,
      "steeped": 7126,
      "rooms": 7127,
      "integrating": 7128,
      "sleeping": 7129,
      "123": 7130,
      "Collect": 7131,
      "Super": 7132,
      "Suites": 7133,
      "denied": 7134,
      "oids": 7135,
      "attraction": 7136,
      "attractive": 7137,
      "stars": 7138,
      "travelers": 7139,
      "motivate": 7140,
      "shortest": 7141,
      "companionship": 7142,
      "authoritarian": 7143,
      "containing": 7144,
      "calculating": 7145,
      "progresses": 7146,
      "Divide": 7147,
      "Direct": 7148,
      "Diversity": 7149,
      "Diagno": 7150,
      "Financial": 7151,
      "reviewer": 7152,
      "reviewing": 7153,
      "vegetarian": 7154,
      "negatively": 7155,
      "respected": 7156,
      "magical": 7157,
      "magaz": 7158,
      "posts": 7159,
      "optimal": 7160,
      "cycles": 7161,
      "priority": 7162,
      "Poor": 7163,
      "Positi": 7164,
      "bulb": 7165,
      "bulk": 7166,
      "domain": 7167,
      "eyesight": 7168,
      "hundred": 7169,
      "scores": 7170,
      "attentive": 7171,
      "legend": 7172,
      "legisl": 7173,
      "secured": 7174,
      "confused": 7175,
      "confusion": 7176,
      "confidence": 7177,
      "confidential": 7178,
      "lotte": 7179,
      "lottery": 7180,
      "sooner": 7181,
      "shooting": 7182,
      "discussion": 7183,
      "brands": 7184,
      "corporations": 7185,
      "listened": 7186,
      "achievement": 7187,
      "Customers": 7188,
      "Lead": 7189,
      "Leaders": 7190,
      "Negatives": 7191,
      "Respect": 7192,
      "Reserve": 7193,
      "cups": 7194,
      "double": 7195,
      "hips": 7196,
      "kindly": 7197,
      "persist": 7198,
      "rainforest": 7199,
      "rounds": 7200,
      "sentences": 7201,
      "reliability": 7202,
      "rolls": 7203,
      "rolled": 7204,
      "resolve": 7205,
      "documentation": 7206,
      "peripherals": 7207,
      "printing": 7208,
      "dishwasher": 7209,
      "drawing": 7210,
      "Efforts": 7211,
      "Fix": 7212,
      "Firewall": 7213,
      "Prin": 7214,
      "Practice": 7215,
      "circle": 7216,
      "circul": 7217,
      "horror": 7218,
      "hormones": 7219,
      "journal": 7220,
      "mistakes": 7221,
      "tonight": 7222,
      "seems": 7223,
      "defend": 7224,
      "contract": 7225,
      "logic": 7226,
      "logical": 7227,
      "logically": 7228,
      "cools": 7229,
      "cooling": 7230,
      "emerging": 7231,
      "emergence": 7232,
      "answers": 7233,
      "structured": 7234,
      "policeman": 7235,
      "deciding": 7236,
      "predicted": 7237,
      "Personalize": 7238,
      "adaptations": 7239,
      "appreciated": 7240,
      "Boots": 7241,
      "Breaking": 7242,
      "Breaks": 7243,
      "Brexit": 7244,
      "Coal": 7245,
      "Cool": 7246,
      "Reducing": 7247,
      "drove": 7248,
      "dropped": 7249,
      "freshly": 7250,
      "mention": 7251,
      "mentor": 7252,
      "musical": 7253,
      "mundane": 7254,
      "names": 7255,
      "named": 7256,
      "sandals": 7257,
      "vacations": 7258,
      "vacuum": 7259,
      "origins": 7260,
      "arguments": 7261,
      "chains": 7262,
      "superhero": 7263,
      "imental": 7264,
      "construct": 7265,
      "constructed": 7266,
      "constructing": 7267,
      "conversational": 7268,
      "losses": 7269,
      "dietary": 7270,
      "grading": 7271,
      "speeds": 7272,
      "synthetic": 7273,
      "synapses": 7274,
      "Engaging": 7275,
      "industrial": 7276,
      "gardening": 7277,
      "150": 7278,
      "Histor": 7279,
      "Medical": 7280,
      "Mediterrane": 7281,
      "cutting": 7282,
      "cardboard": 7283,
      "falls": 7284,
      "harsh": 7285,
      "harass": 7286,
      "midst": 7287,
      "pressors": 7288,
      "rule": 7289,
      "ruins": 7290,
      "rank": 7291,
      "tags": 7292,
      "unexpect": 7293,
      "wildfires": 7294,
      "innovative": 7295,
      "alibi": 7296,
      "stuf": 7297,
      "studied": 7298,
      "beginning": 7299,
      "defined": 7300,
      "definite": 7301,
      "detected": 7302,
      "protection": 7303,
      "protects": 7304,
      "conventional": 7305,
      "locals": 7306,
      "locations": 7307,
      "respiration": 7308,
      "peptidog": 7309,
      "Healthcare": 7310,
      "crying": 7311,
      "similarity": 7312,
      "reasonable": 7313,
      "suggested": 7314,
      "introduction": 7315,
      "momentum": 7316,
      "Educate": 7317,
      "Monday": 7318,
      "Monroe": 7319,
      "Opportunities": 7320,
      "Swim": 7321,
      "Swiss": 7322,
      "Solution": 7323,
      "Wireless": 7324,
      "abeth": 7325,
      "agorean": 7326,
      "babies": 7327,
      "eventually": 7328,
      "laptops": 7329,
      "normal": 7330,
      "incandescent": 7331,
      "intensity": 7332,
      "inspiring": 7333,
      "influen": 7334,
      "influential": 7335,
      "influenced": 7336,
      "relying": 7337,
      "enhancing": 7338,
      "chemist": 7339,
      "seconds": 7340,
      "complaints": 7341,
      "adjusting": 7342,
      "adjustments": 7343,
      "university": 7344,
      "universe": 7345,
      "boosts": 7346,
      "transferred": 7347,
      "Regularly": 7348,
      "hydration": 7349,
      "hydrated": 7350,
      "landscape": 7351,
      "Improving": 7352,
      "woods": 7353,
      "originated": 7354,
      "370": 7355,
      "375": 7356,
      "Allow": 7357,
      "Emissions": 7358,
      "Employe": 7359,
      "Getting": 7360,
      "Off": 7361,
      "Robots": 7362,
      "Rocky": 7363,
      "Spam": 7364,
      "Summer": 7365,
      "gathering": 7366,
      "genetics": 7367,
      "hesitation": 7368,
      "matches": 7369,
      "route": 7370,
      "routes": 7371,
      "tablespoons": 7372,
      "investors": 7373,
      "record": 7374,
      "toothbrush": 7375,
      "toothpaste": 7376,
      "ingredient": 7377,
      "alternative": 7378,
      "sufficient": 7379,
      "peanut": 7380,
      "quantitative": 7381,
      "framework": 7382,
      "frameworks": 7383,
      "updating": 7384,
      "eliminate": 7385,
      "seriously": 7386,
      "survival": 7387,
      "struggled": 7388,
      "struggling": 7389,
      "minimizing": 7390,
      "Community": 7391,
      "Communicate": 7392,
      "Implementing": 7393,
      "swimming": 7394,
      "homesick": 7395,
      "Carbohydrates": 7396,
      "Management": 7397,
      "Quit": 7398,
      "Quantum": 7399,
      "Quilted": 7400,
      "bandwidth": 7401,
      "factual": 7402,
      "hurry": 7403,
      "nationwide": 7404,
      "navigation": 7405,
      "raising": 7406,
      "raised": 7407,
      "radio": 7408,
      "snack": 7409,
      "snacks": 7410,
      "spoil": 7411,
      "widget": 7412,
      "insulated": 7413,
      "replacement": 7414,
      "tourism": 7415,
      "torial": 7416,
      "selective": 7417,
      "absorb": 7418,
      "implies": 7419,
      "imagination": 7420,
      "shirts": 7421,
      "embraced": 7422,
      "discovering": 7423,
      "facilitated": 7424,
      "facilitates": 7425,
      "guidelines": 7426,
      "showerheads": 7427,
      "profitability": 7428,
      "treatment": 7429,
      "treatments": 7430,
      "windows": 7431,
      "picturesque": 7432,
      "steady": 7433,
      "Organize": 7434,
      "Systems": 7435,
      "Japanese": 7436,
      "Corporation": 7437,
      "Mozilla": 7438,
      "Physical": 7439,
      "Yesterday": 7440,
      "broadly": 7441,
      "backstory": 7442,
      "evolve": 7443,
      "genre": 7444,
      "golden": 7445,
      "hiding": 7446,
      "linked": 7447,
      "label": 7448,
      "pasta": 7449,
      "wedges": 7450,
      "injured": 7451,
      "announce": 7452,
      "restricted": 7453,
      "retrieve": 7454,
      "retrieval": 7455,
      "subscribe": 7456,
      "motorcycles": 7457,
      "exploring": 7458,
      "explicit": 7459,
      "exploration": 7460,
      "lieffen": 7461,
      "copy": 7462,
      "copies": 7463,
      "copied": 7464,
      "washing": 7465,
      "previously": 7466,
      "prepared": 7467,
      "disposing": 7468,
      "regardless": 7469,
      "architect": 7470,
      "Contact": 7471,
      "patience": 7472,
      "Transport": 7473,
      "Transportation": 7474,
      "mixed": 7475,
      "stretching": 7476,
      "Effects": 7477,
      "delivering": 7478,
      "Optimize": 7479,
      "14th": 7480,
      "Campaign": 7481,
      "Greens": 7482,
      "Harvard": 7483,
      "Outline": 7484,
      "Output": 7485,
      "Paris": 7486,
      "Paralle": 7487,
      "Purpose": 7488,
      "Rainier": 7489,
      "Represent": 7490,
      "Speak": 7491,
      "billion": 7492,
      "castle": 7493,
      "finger": 7494,
      "failure": 7495,
      "jacket": 7496,
      "jackets": 7497,
      "justi": 7498,
      "kissed": 7499,
      "mutual": 7500,
      "phishing": 7501,
      "scanning": 7502,
      "sessions": 7503,
      "taller": 7504,
      "zero": 7505,
      "threw": 7506,
      "thirty": 7507,
      "thirteen": 7508,
      "inventory": 7509,
      "repeat": 7510,
      "repeated": 7511,
      "reputable": 7512,
      "atomic": 7513,
      "estimate": 7514,
      "estimated": 7515,
      "heavily": 7516,
      "rotates": 7517,
      "acids": 7518,
      "demonstr": 7519,
      "prototype": 7520,
      "conflic": 7521,
      "logos": 7522,
      "whiskey": 7523,
      "whispered": 7524,
      "mapping": 7525,
      "boots": 7526,
      "straightforward": 7527,
      "Introduction": 7528,
      "uppercase": 7529,
      "newspaper": 7530,
      "indicates": 7531,
      "discusses": 7532,
      "Thanksgiving": 7533,
      "overwhelming": 7534,
      "incredibly": 7535,
      "obtaining": 7536,
      "hosting": 7537,
      "relatively": 7538,
      "dynamic": 7539,
      "dynamics": 7540,
      "surrounded": 7541,
      "affirm": 7542,
      "Experiments": 7543,
      "quietly": 7544,
      "Advancements": 7545,
      "reflective": 7546,
      "Processing": 7547,
      "Processor": 7548,
      "borrowing": 7549,
      "Columbus": 7550,
      "Columns": 7551,
      "scheduling": 7552,
      "magnets": 7553,
      "1867": 7554,
      "symbolic": 7555,
      "scenes": 7556,
      "scenario": 7557,
      "Engineer": 7558,
      "incentivize": 7559,
      "Pythagorean": 7560,
      "accomplishments": 7561,
      "extremely": 7562,
      "Birth": 7563,
      "Birds": 7564,
      "DNA": 7565,
      "George": 7566,
      "Mexican": 7567,
      "Mexico": 7568,
      "Network": 7569,
      "Perhaps": 7570,
      "Refresh": 7571,
      "Reflective": 7572,
      "Robust": 7573,
      "SEO": 7574,
      "TPS": 7575,
      "Years": 7576,
      "candidates": 7577,
      "crowd": 7578,
      "palette": 7579,
      "sacs": 7580,
      "silverware": 7581,
      "smell": 7582,
      "sentiment": 7583,
      "wireless": 7584,
      "witness": 7585,
      "chairs": 7586,
      "statistical": 7587,
      "statistics": 7588,
      "acceleration": 7589,
      "debts": 7590,
      "demographics": 7591,
      "deposit": 7592,
      "neurs": 7593,
      "neurons": 7594,
      "mathematical": 7595,
      "mathematics": 7596,
      "execu": 7597,
      "exceptions": 7598,
      "exceptional": 7599,
      "solely": 7600,
      "persuaded": 7601,
      "clusters": 7602,
      "cotton": 7603,
      "coastal": 7604,
      "violence": 7605,
      "distractions": 7606,
      "bravery": 7607,
      "brisk": 7608,
      "automo": 7609,
      "possibility": 7610,
      "possibilities": 7611,
      "fertilization": 7612,
      "Environment": 7613,
      "Environmental": 7614,
      "consciousness": 7615,
      "puzzle": 7616,
      "puzzles": 7617,
      "Charlotte": 7618,
      "vocabul": 7619,
      "employment": 7620,
      "distinctions": 7621,
      "switched": 7622,
      "contributes": 7623,
      "contributing": 7624,
      "Promoting": 7625,
      "Promote": 7626,
      "thriller": 7627,
      "COVID": 7628,
      "Cell": 7629,
      "Council": 7630,
      "California": 7631,
      "Depending": 7632,
      "Feedback": 7633,
      "Freedom": 7634,
      "Familiar": 7635,
      "Golden": 7636,
      "HTTPS": 7637,
      "Hopefully": 7638,
      "Kingdom": 7639,
      "LED": 7640,
      "Maintenance": 7641,
      "Memory": 7642,
      "Measure": 7643,
      "Navigation": 7644,
      "Pollination": 7645,
      "Party": 7646,
      "Skills": 7647,
      "Schlieffen": 7648,
      "Samanth": 7649,
      "Users": 7650,
      "Validate": 7651,
      "aerobic": 7652,
      "athered": 7653,
      "bamboo": 7654,
      "brief": 7655,
      "clients": 7656,
      "dollars": 7657,
      "droughts": 7658,
      "dwarf": 7659,
      "dimensional": 7660,
      "fascin": 7661,
      "globally": 7662,
      "lungs": 7663,
      "mirror": 7664,
      "nurture": 7665,
      "rumor": 7666,
      "soup": 7667,
      "sadness": 7668,
      "sweating": 7669,
      "tackle": 7670,
      "infection": 7671,
      "insert": 7672,
      "requesting": 7673,
      "reminders": 7674,
      "enemies": 7675,
      "encourages": 7676,
      "oriented": 7677,
      "alphabet": 7678,
      "astron": 7679,
      "legitimate": 7680,
      "cherish": 7681,
      "segmentation": 7682,
      "debug": 7683,
      "degradation": 7684,
      "deploying": 7685,
      "celebrate": 7686,
      "absence": 7687,
      "concentration": 7688,
      "convinced": 7689,
      "adults": 7690,
      "adopt": 7691,
      "modal": 7692,
      "mosqui": 7693,
      "mockup": 7694,
      "reservo": 7695,
      "magnitude": 7696,
      "expelled": 7697,
      "extensive": 7698,
      "library": 7699,
      "permissions": 7700,
      "pleasure": 7701,
      "boiling": 7702,
      "aggressive": 7703,
      "discrimin": 7704,
      "disappointed": 7705,
      "disrupting": 7706,
      "assigns": 7707,
      "philosophy": 7708,
      "parameters": 7709,
      "columns": 7710,
      "obstacle": 7711,
      "Document": 7712,
      "electro": 7713,
      "calorie": 7714,
      "balloon": 7715,
      "fiercely": 7716,
      "Excuse": 7717,
      "Confidence": 7718,
      "Connect": 7719,
      "captivating": 7720,
      "Antioxid": 7721,
      "Starting": 7722,
      "softly": 7723,
      "Christmas": 7724,
      "benchmarks": 7725,
      "guidance": 7726,
      "simplify": 7727,
      "tremendous": 7728,
      "classmates": 7729,
      "cheerful": 7730,
      "Pluto": 7731,
      "Shopping": 7732,
      "Colorado": 7733,
      "anticipate": 7734,
      "smoothly": 7735,
      "lawyers": 7736,
      "unemployment": 7737,
      "cryptography": 7738,
      "earthquake": 7739,
      "hesitate": 7740,
      "fundamental": 7741,
      "AMBER": 7742,
      "punishment": 7743,
      "vitamins": 7744,
      "hospitality": 7745,
      "Bluetooth": 7746,
      "tranquility": 7747,
      "transitioning": 7748,
      "Calculate": 7749,
      "Currently": 7750,
      "Galileo": 7751,
      "reinforcement": 7752,
      "descriptive": 7753,
      "Sustainable": 7754,
      "vulnerable": 7755,
      "wavelengths": 7756,
      "absolutely": 7757,
      "manufacturers": 7758,
      "Ayutthay": 7759,
      "Astur": 7760,
      "African": 7761,
      "Blockchain": 7762,
      "Civil": 7763,
      "Certain": 7764,
      "Cros": 7765,
      "Einstein": 7766,
      "Elizabeth": 7767,
      "Federal": 7768,
      "Follow": 7769,
      "Failure": 7770,
      "Florida": 7771,
      "GLUE": 7772,
      "Gamification": 7773,
      "Growth": 7774,
      "Gatsby": 7775,
      "Hidden": 7776,
      "Human": 7777,
      "Judge": 7778,
      "Kendall": 7779,
      "LSTM": 7780,
      "London": 7781,
      "Layer": 7782,
      "Limited": 7783,
      "Language": 7784,
      "Multi": 7785,
      "Mockingbird": 7786,
      "Mountains": 7787,
      "Nuclear": 7788,
      "October": 7789,
      "Outsour": 7790,
      "Pantheon": 7791,
      "Photo": 7792,
      "Rule": 7793,
      "Rowling": 7794,
      "Sabha": 7795,
      "Science": 7796,
      "Slowly": 7797,
      "Scott": 7798,
      "Term": 7799,
      "Today": 7800,
      "TensorFlow": 7801,
      "Uranus": 7802,
      "Whether": 7803,
      "Williams": 7804,
      "Xero": 7805,
      "ayout": 7806,
      "bouquet": 7807,
      "barefoot": 7808,
      "baked": 7809,
      "coughing": 7810,
      "censorship": 7811,
      "dirty": 7812,
      "density": 7813,
      "dictionary": 7814,
      "evoke": 7815,
      "golf": 7816,
      "grocery": 7817,
      "honor": 7818,
      "husband": 7819,
      "jokes": 7820,
      "kilometers": 7821,
      "ladder": 7822,
      "navy": 7823,
      "oplasts": 7824,
      "pillow": 7825,
      "pumps": 7826,
      "rhyth": 7827,
      "vapor": 7828,
      "wilderness": 7829,
      "yields": 7830,
      "inflammation": 7831,
      "retire": 7832,
      "reusable": 7833,
      "remains": 7834,
      "recession": 7835,
      "retention": 7836,
      "recharge": 7837,
      "enabling": 7838,
      "enthusias": 7839,
      "encompasses": 7840,
      "esteem": 7841,
      "aluminum": 7842,
      "leveraging": 7843,
      "chloroplasts": 7844,
      "entanglement": 7845,
      "entrepreneurs": 7846,
      "acquaintance": 7847,
      "acknowledging": 7848,
      "depletion": 7849,
      "delivered": 7850,
      "suspension": 7851,
      "projections": 7852,
      "protagonist": 7853,
      "probably": 7854,
      "geographical": 7855,
      "concluded": 7856,
      "congestion": 7857,
      "unforgettable": 7858,
      "unimaginable": 7859,
      "undoubtedly": 7860,
      "essentially": 7861,
      "Theorem": 7862,
      "divisors": 7863,
      "urniture": 7864,
      "liquid": 7865,
      "alliteration": 7866,
      "sophisticated": 7867,
      "percentage": 7868,
      "empirical": 7869,
      "rendering": 7870,
      "umbrella": 7871,
      "precautions": 7872,
      "gravity": 7873,
      "Italian": 7874,
      "lowercase": 7875,
      "spectrum": 7876,
      "disparities": 7877,
      "twentieth": 7878,
      "carnival": 7879,
      "paragraph": 7880,
      "mysterious": 7881,
      "electoral": 7882,
      "crawl": 7883,
      "criteria": 7884,
      "coronavirus": 7885,
      "Examples": 7886,
      "politician": 7887,
      "Confederation": 7888,
      "Chunky": 7889,
      "flavorful": 7890,
      "Companies": 7891,
      "Formulate": 7892,
      "damages": 7893,
      "1950s": 7894,
      "occasion": 7895,
      "Frankl": 7896,
      "Francisco": 7897,
      "authoritarianism": 7898,
      "Diagnosis": 7899,
      "magazines": 7900,
      "Positives": 7901,
      "Mediterranean": 7902,
      "unexpected": 7903,
      "peptidoglycan": 7904,
      "Employee": 7905,
      "explicitly": 7906,
      "vocabulary": 7907,
      "Samantha": 7908,
      "Ayutthaya": 7909,
      "Outsourcing": 7910
    },
    "merges": [
      "t h",
      "i n",
      "a n",
      "r e",
      "e r",
      "o n",
      "a t",
      "th e",
      "e n",
      "t o",
      "e s",
      "o u",
      "in g",
      "o r",
      "a l",
      "an d",
      "i s",
      "a r",
      "o m",
      "t i",
      "e d",
      "a s",
      "o f",
      "l e",
      "i t",
      "c h",
      "s t",
      "h e",
      "i c",
      "v e",
      "r o",
      "y ou",
      "i on",
      "en t",
      "a c",
      "s e",
      "b e",
      "f or",
      "d e",
      "i l",
      "o w",
      "s u",
      "m e",
      "at ion",
      "u s",
      "l y",
      "a re",
      "p ro",
      "o l",
      "th at",
      "c e",
      "T om",
      "i d",
      "ti on",
      "a b",
      "g e",
      "n e",
      "v er",
      "i r",
      "k e",
      "t e",
      "a y",
      "c an",
      "i g",
      "i m",
      "c om",
      "t er",
      "i th",
      "c on",
      "at e",
      "t r",
      "a d",
      "m o",
      "l o",
      "w ith",
      "re s",
      "f e",
      "u n",
      "es s",
      "u l",
      "t s",
      "T he",
      "w h",
      "d i",
      "p e",
      "w e",
      "m a",
      "er s",
      "l d",
      "u r",
      "a m",
      "p l",
      "m ent",
      "a p",
      "e x",
      "l i",
      "al l",
      "h is",
      "you r",
      "p o",
      "c i",
      "c t",
      "an t",
      "? .",
      "r i",
      "q u",
      "a ve",
      "ou ld",
      "it y",
      "a in",
      "s o",
      "d u",
      "ou t",
      "d o",
      "p er",
      "s h",
      "w or",
      "ig h",
      "g o",
      "ou r",
      "il l",
      "c l",
      "l l",
      "p or",
      "p le",
      "th er",
      "f r",
      "c re",
      "c o",
      "n o",
      "on e",
      "u t",
      "the ir",
      "b o",
      "e m",
      "f ic",
      "a g",
      "a ge",
      "T his",
      "W h",
      "om e",
      "re n",
      "an y",
      "t ing",
      "h ave",
      "en d",
      "ab le",
      "b y",
      "ou n",
      "w as",
      "v i",
      "s i",
      "por t",
      "he l",
      "in e",
      "k ing",
      "p r",
      "hel p",
      "u re",
      "k s",
      "o d",
      "a ch",
      "c ess",
      "e t",
      "fr om",
      "ar y",
      "st r",
      "en er",
      "g h",
      "mo re",
      "is t",
      "i z",
      "wh i",
      "f o",
      "n ow",
      "u m",
      "u se",
      "p re",
      "for m",
      "I n",
      "he re",
      "to r",
      "d at",
      "ti ve",
      "h as",
      "ou gh",
      "u p",
      "g r",
      "es t",
      "I t",
      "c es",
      "en ce",
      "e f",
      "ti me",
      "g y",
      "c us",
      "th is",
      "t a",
      "ar d",
      "tion s",
      "it s",
      "igh t",
      "to m",
      "ti c",
      "w ill",
      "v id",
      "al ly",
      "ar t",
      "u d",
      "ig n",
      "e p",
      "a v",
      "k now",
      "wor k",
      "o p",
      "t en",
      "an s",
      "al s",
      "as e",
      "com p",
      "dat a",
      "i ve",
      "l ow",
      "com m",
      "i es",
      "w ay",
      "su ch",
      "ne w",
      "no t",
      "ab out",
      "whi ch",
      "d er",
      "ver y",
      "s pe",
      "ac e",
      "o ther",
      "n ing",
      "th ing",
      "an ce",
      "le ar",
      "s y",
      "di f",
      "v en",
      "the y",
      "b le",
      "a me",
      "in d",
      "re d",
      "ation s",
      "d is",
      "s ome",
      "ou s",
      "e ar",
      "t y",
      "at er",
      "ti es",
      "ac k",
      "u st",
      "in cl",
      "be t",
      "H e",
      "f ul",
      "it e",
      "li ke",
      "e l",
      "as s",
      "T h",
      "on g",
      "at ed",
      "c ould",
      "v es",
      "an g",
      "ic e",
      "s p",
      "ac t",
      "ne ed",
      "oun d",
      "t w",
      "in ter",
      "al th",
      "al so",
      "ro w",
      "pro du",
      "fe ren",
      "* *",
      "ge t",
      "d es",
      "s er",
      "res s",
      "ci al",
      "b r",
      "ent s",
      "en ti",
      "W e",
      "o ver",
      "st em",
      "ma ke",
      "p h",
      "the m",
      "us ed",
      "c tion",
      "d id",
      "d ay",
      "en g",
      "ers on",
      "a u",
      "con t",
      "Wh at",
      "M ary",
      "ic al",
      "cus tom",
      "d on",
      "w ould",
      "in t",
      "sy stem",
      "re du",
      "as t",
      "o k",
      "re e",
      "ch n",
      "Y ou",
      "c ar",
      "at ing",
      "in to",
      "p ar",
      "r ough",
      "w ant",
      "H ow",
      "c ol",
      "im port",
      "he alth",
      "ol o",
      "i f",
      "in cre",
      "te chn",
      "o b",
      "in k",
      "as ed",
      "ve lo",
      "D o",
      "c ur",
      "m an",
      "b er",
      "i de",
      "m ar",
      "ul ar",
      "dif feren",
      "velo p",
      "th rough",
      "ow n",
      "h ow",
      "u res",
      "the re",
      "il ity",
      "su re",
      "w here",
      "in form",
      "ener gy",
      "i e",
      "p erson",
      "u al",
      "an ge",
      "c a",
      "l es",
      "o ple",
      "a ir",
      "m ed",
      "v ing",
      "b us",
      "p en",
      "u e",
      "pl an",
      "ex per",
      "vi de",
      ": .",
      "s a",
      "is h",
      "b ut",
      "c are",
      "to p",
      "com e",
      "b u",
      "sh ould",
      "re st",
      "su m",
      "us ing",
      "wh at",
      "ment s",
      "c ts",
      "w ater",
      "il d",
      "comm un",
      "c k",
      "c y",
      "g re",
      "i ties",
      "m ay",
      "di vid",
      "pe ople",
      "we en",
      "bet ween",
      "import ant",
      "j e",
      "m y",
      "m s",
      "p on",
      "in ess",
      "tr ans",
      "h er",
      "v al",
      "in te",
      "ti m",
      "st and",
      "wh en",
      "inform ation",
      "a ke",
      "c ri",
      "f ol",
      "i p",
      "il y",
      "su p",
      "im pro",
      "pl ay",
      "po s",
      "ta ke",
      "e le",
      "h igh",
      "v is",
      "v ed",
      "v ir",
      "im p",
      "qu es",
      "incl ud",
      "f er",
      "h o",
      "re g",
      "pro cess",
      "y s",
      "at es",
      "is e",
      "de velop",
      "a k",
      "b l",
      "c tive",
      "ch o",
      "d r",
      "e as",
      "v ol",
      "ar ch",
      "ur al",
      "lear ning",
      "techn olo",
      "c r",
      "c or",
      "c al",
      "p ow",
      "s m",
      "ter s",
      "fic i",
      "tw o",
      "g g",
      "i a",
      "t al",
      "pro vid",
      "ne t",
      "ul t",
      "exper i",
      "g row",
      "l ist",
      "u de",
      "x t",
      "th an",
      "th ink",
      "re l",
      "wh o",
      "all ow",
      "our ces",
      "spe ci",
      "e w",
      "l ine",
      "at ive",
      "ar i",
      "ion s",
      "se t",
      "de l",
      "co st",
      "ef fe",
      "way s",
      "redu ce",
      "b ack",
      "c oun",
      "d y",
      "g an",
      "p res",
      "in divid",
      "ar m",
      "The y",
      "ener ate",
      "a w",
      "e ach",
      "f ac",
      "m any",
      "n ess",
      "s to",
      "su r",
      "ol d",
      "tor y",
      "fol low",
      "n um",
      "the se",
      "pro vide",
      "ad v",
      "un der",
      "str u",
      "did n",
      "b s",
      "b al",
      "c le",
      "f in",
      "y ear",
      "me m",
      "ex am",
      "do es",
      "Wh y",
      "iz e",
      "bus iness",
      "a f",
      "s ol",
      "ab ility",
      "tr i",
      "cre ate",
      "A I",
      "E n",
      "a ther",
      "f i",
      "o th",
      "ac cess",
      "se arch",
      "res pon",
      "des ign",
      "ser v",
      "custom er",
      "c ent",
      "f un",
      "h ome",
      "j ust",
      "p lo",
      "p ur",
      "s s",
      "s he",
      "ic es",
      "be ing",
      "su l",
      "go od",
      "ag es",
      "E x",
      "e ver",
      "f y",
      "l ong",
      "o st",
      "p ol",
      "ing s",
      "ic ation",
      "ac ti",
      "se l",
      "mar ke",
      "impro ve",
      "includ ing",
      "0 0",
      "d s",
      "h ad",
      "v ari",
      "ic k",
      "mo del",
      "li fe",
      "technolo gy",
      "pow er",
      "c ed",
      "e very",
      "f am",
      "g i",
      "h ap",
      "i fic",
      "s k",
      "s ign",
      "mo st",
      "so cial",
      "whi le",
      "fo re",
      "person al",
      "b ased",
      "l ar",
      "ed u",
      "be en",
      "tion al",
      "The re",
      "ri end",
      "pr om",
      "comp u",
      "d own",
      "f riend",
      "h and",
      "n s",
      "con s",
      "we ll",
      "qu i",
      "go ing",
      "iz ed",
      "differen t",
      "C on",
      "n at",
      "p at",
      "w r",
      "or s",
      "le t",
      "ma de",
      "bo dy",
      "fo od",
      "incl ude",
      "c ap",
      "c our",
      "d ri",
      "p t",
      "t as",
      "u tion",
      "st ep",
      "de c",
      "ver s",
      "imp act",
      "exam ple",
      "b re",
      "m in",
      "u ch",
      "th ree",
      "st ud",
      "de p",
      "vir on",
      "A n",
      "I f",
      "d ing",
      "o t",
      "t ain",
      "an al",
      "com ple",
      "pl ace",
      "so ci",
      "wor ld",
      "speci fic",
      "A d",
      "O ne",
      "R e",
      "c ation",
      "g or",
      "p ut",
      "z e",
      "at ch",
      "es e",
      "or gan",
      "of ten",
      "pro ble",
      "fe el",
      "ag ing",
      "ca use",
      "experi ence",
      "under stand",
      "p ri",
      "th ough",
      "in s",
      "ir st",
      "te am",
      "ma king",
      "bo th",
      "C an",
      "D es",
      "G enerate",
      "S t",
      "c cess",
      "m on",
      "p u",
      "s of",
      "an ts",
      "re sul",
      "en viron",
      "it ing",
      "we re",
      "po p",
      "iz ation",
      "sup port",
      "num ber",
      "sel f",
      "C h",
      "b en",
      "e con",
      "al ity",
      "ch ar",
      "ac tion",
      "us er",
      "id enti",
      "si tive",
      "si ble",
      "tw are",
      "man age",
      "_ _",
      "c lo",
      "f l",
      "f ind",
      "o se",
      "re ad",
      "ch ange",
      "ve l",
      "te ct",
      "sign ific",
      "c ing",
      "c tr",
      "g u",
      "j o",
      "p a",
      "p tion",
      "t ur",
      "v ent",
      "ic t",
      "se ver",
      "sh ow",
      "vi ew",
      "bet ter",
      "sm all",
      "signific ant",
      "D e",
      "S he",
      "a il",
      "b on",
      "c u",
      "l ight",
      "ma ch",
      "pl ain",
      "po ten",
      "ill s",
      "Th at",
      "ang u",
      "incre ase",
      "sa id",
      "compu ter",
      "environ ment",
      ") .",
      "c er",
      "f irst",
      "h y",
      "l ess",
      "r y",
      "v o",
      "re f",
      "is s",
      "ti al",
      "it al",
      "ch ang",
      "ke y",
      "ap pl",
      "pr of",
      "Th ese",
      "produ ct",
      "sof tware",
      "B y",
      "C om",
      "O n",
      "l in",
      "l ed",
      "l angu",
      "y e",
      "re qui",
      "ou se",
      "se e",
      "te ll",
      "tr y",
      "di tion",
      "we bs",
      "ex pen",
      "et y",
      "ele ctr",
      "grow th",
      "pres ent",
      "P ro",
      "U n",
      "b i",
      "c all",
      "g ener",
      "h ard",
      "s es",
      "s al",
      "in vol",
      "on ly",
      "on line",
      "as k",
      "le ad",
      "it ed",
      "ic s",
      "de v",
      "tr ain",
      "res ources",
      "ma il",
      "gr am",
      "h im",
      "h um",
      "m er",
      "p s",
      "s ay",
      "s im",
      "t ed",
      "u als",
      "w ard",
      "en ces",
      "as ing",
      "ac tions",
      "be h",
      "lo ok",
      "fe at",
      "pe ct",
      "per form",
      "go als",
      "He re",
      "custom ers",
      "system s",
      "fam ily",
      "econ om",
      "poten tial",
      ": **",
      "e ven",
      "e mail",
      "f ace",
      "k es",
      "p ass",
      "re le",
      "on s",
      "le vel",
      "pro gram",
      "ke ep",
      "av ing",
      "ty p",
      "cri be",
      "effe ctive",
      "gi ven",
      "lar ge",
      "nat ural",
      "webs ite",
      "B e",
      "S ome",
      "f ound",
      "l im",
      "o ks",
      "p art",
      "t re",
      "v ity",
      "to o",
      "of f",
      "su b",
      "me as",
      "id er",
      "lo bal",
      "wh y",
      "ap pro",
      "po int",
      "qu e",
      "end ing",
      "si ve",
      "lear n",
      "med ia",
      "gre at",
      "je ct",
      "val u",
      "oth ers",
      "tas ks",
      "pu bl",
      "ben ef",
      "char ac",
      "sever al",
      "F or",
      "I s",
      "c am",
      "f il",
      "j ob",
      "o per",
      "r is",
      "s is",
      "s ci",
      "t le",
      "en sure",
      "al gor",
      "st ay",
      "su ccess",
      "ct ure",
      "igh ts",
      "cl ass",
      "fo cus",
      "know n",
      "au di",
      "develop ment",
      "follow ing",
      "year s",
      "does n",
      "dec is",
      "langu age",
      "algor ith",
      "A s",
      "c tor",
      "h ouse",
      "m ul",
      "m one",
      "p are",
      "r ight",
      "s en",
      "en cy",
      "to ol",
      "as es",
      "ac cur",
      "ge ther",
      "con sum",
      "ad i",
      "ma in",
      "ur ing",
      "po sitive",
      "sh ip",
      "ag ain",
      "str ate",
      "ef fici",
      "ph ys",
      "col le",
      "bu ild",
      "mach ine",
      "B ost",
      "C re",
      "M y",
      "c ti",
      "d ress",
      "f low",
      "g ies",
      "m ust",
      "m uch",
      "r ange",
      "s ing",
      "w arm",
      "to gether",
      "st art",
      "pro tect",
      "ate ly",
      "wor ks",
      "ach ie",
      "dif fic",
      "some thing",
      "commun ication",
      "pos sible",
      "individ ual",
      "individ uals",
      "anal y",
      "identi fy",
      "Bost on",
      "D on",
      "F ren",
      "O ver",
      "l and",
      "p ay",
      "s ti",
      "s tory",
      "th od",
      "in du",
      "an ced",
      "re ct",
      "re search",
      "on es",
      "ch e",
      "st ate",
      "he ad",
      "me thod",
      "us ers",
      "ne ver",
      "te m",
      "te xt",
      "pre d",
      "pre vent",
      "tic al",
      "op en",
      "cont in",
      "vari ous",
      "hap pen",
      "prom o",
      "though t",
      "mul ti",
      "Fren ch",
      "T r",
      "b lo",
      "c ult",
      "g n",
      "g ame",
      "l it",
      "t able",
      "ar ound",
      "ac tive",
      "be fore",
      "su n",
      "ne xt",
      "li e",
      "wor king",
      "go t",
      "Wh en",
      "si de",
      "port un",
      "need s",
      "car bon",
      "ular ly",
      "ie ld",
      "edu cation",
      "jo y",
      "benef its",
      "mone y",
      "phys ical",
      "T o",
      "c ul",
      "g lobal",
      "i que",
      "n er",
      "r un",
      "s le",
      "w on",
      "re ach",
      "to ld",
      "or t",
      "or der",
      "al ways",
      "is m",
      "is n",
      "is su",
      "as h",
      "ch an",
      "ic ally",
      "ab les",
      "tr u",
      "ple ment",
      "ta king",
      "comp any",
      "eng age",
      "How ever",
      "inte rest",
      "eas y",
      "business es",
      "pat ter",
      "proble m",
      "audi ence",
      "Cre ate",
      "M ake",
      "y es",
      "in v",
      "ch all",
      "com es",
      "con ne",
      "fe w",
      "ma int",
      "qu ality",
      "our ce",
      "cl im",
      "bo t",
      "any thing",
      "help s",
      "op portun",
      "ty pe",
      "ater i",
      "el s",
      "cont ent",
      "cur ity",
      "ques tions",
      "fici al",
      "maint ain",
      "\" .",
      "A re",
      "D id",
      "b ility",
      "c tions",
      "c lear",
      "c ame",
      "f t",
      "f ive",
      "f ield",
      "i le",
      "m ateri",
      "s it",
      "s ources",
      "re co",
      "at ure",
      "the n",
      "en joy",
      "to day",
      "or y",
      "ro le",
      "il ities",
      "ver n",
      "ig ence",
      "pe ti",
      "am oun",
      "sh are",
      "go vern",
      "em plo",
      "port ation",
      "gr ou",
      "gr ap",
      "ta il",
      "health care",
      "provid es",
      "net work",
      "mem ber",
      "serv ice",
      "pur ch",
      "marke t",
      "stud ents",
      "Ad dition",
      "invol ves",
      "patter ns",
      ", .",
      "A l",
      "P l",
      "S o",
      "W ith",
      "W here",
      "b est",
      "g er",
      "i ent",
      "i ble",
      "m i",
      "s ave",
      "s tor",
      "t u",
      "an ing",
      "it em",
      "ch ild",
      "st y",
      "ic ations",
      "be cause",
      "us es",
      "ess ion",
      "we e",
      "ex p",
      "po se",
      "ut ure",
      "over all",
      "sk ills",
      "cons ider",
      "step s",
      "Des cribe",
      "chang es",
      "electr ic",
      "hum an",
      "feat ures",
      "publ ic",
      "Addition ally",
      "d a",
      "f u",
      "m ary",
      "m ight",
      "o king",
      "p ed",
      "s ame",
      "in st",
      "an ces",
      "re al",
      "ou d",
      "st ress",
      "ac y",
      "ce pt",
      "id es",
      "com b",
      "ter m",
      "with in",
      "ma j",
      "qu ick",
      "ren t",
      "str ong",
      "redu cing",
      "ish ed",
      "sum mary",
      "trans portation",
      "inte ll",
      "provid ing",
      "set ting",
      "marke ting",
      "dep end",
      "resul t",
      "tur n",
      "requi re",
      "dev ices",
      "level s",
      "diffic ult",
      "Over all",
      "sti ll",
      "L et",
      "a vi",
      "a king",
      "b ers",
      "e v",
      "e at",
      "h old",
      "l ab",
      "s ource",
      "t ar",
      "th s",
      "re as",
      "at ter",
      "en s",
      "st ri",
      "ent ly",
      "se curity",
      "pro ject",
      "lo ve",
      "ment al",
      "ap p",
      "ave l",
      "spe ak",
      "produ ce",
      "enti al",
      "ob je",
      "differen ce",
      "ques tion",
      "rel ation",
      "soci ety",
      "pa ign",
      "charac ter",
      "clim ate",
      "A mer",
      "I m",
      "K e",
      "P erson",
      "T ake",
      "a ks",
      "b ar",
      "e qu",
      "f re",
      "f ast",
      "i ch",
      "m ind",
      "r ap",
      "t es",
      "w al",
      "an im",
      "re ally",
      "re comm",
      "er c",
      "at is",
      "ar k",
      "ti ficial",
      "st ain",
      "ic ate",
      "su gg",
      "mo ve",
      "with out",
      "do ing",
      "av ail",
      "thing s",
      "ear ly",
      "ass ist",
      "sp here",
      "cont ro",
      "par tic",
      "incre asing",
      "sa fe",
      "tim es",
      "cho ol",
      "cr u",
      "tal k",
      "sto re",
      "fun ction",
      "pol l",
      "call ed",
      "beh avi",
      "opportun ities",
      "reco gn",
      "emplo ye",
      "wee k",
      "lab or",
      "Amer ic",
      "B r",
      "T e",
      "a th",
      "c ate",
      "d ig",
      "d ist",
      "d uring",
      "f it",
      "f ree",
      "f uture",
      "g l",
      "m ess",
      "o g",
      "u su",
      "w a",
      "w ind",
      "in stru",
      "an other",
      "er ing",
      "ti l",
      "ti v",
      "as ter",
      "of fer",
      "ro ad",
      "you n",
      "ac ks",
      "ac coun",
      "be come",
      "be lie",
      "me ans",
      "ation al",
      "are as",
      "pro per",
      "te ach",
      "tr ack",
      "fe ed",
      "fe ct",
      "ct ed",
      "cre ating",
      "co ver",
      "bo ok",
      "was n",
      "was te",
      "fo rest",
      "pre ad",
      "tor s",
      "gr ound",
      "health y",
      "incre ased",
      "top ic",
      "cost s",
      "Ex plain",
      "pop ul",
      "pop ular",
      "manage ment",
      "__ __",
      "expen ses",
      "cam paign",
      "algorith ms",
      "inv est",
      "chall eng",
      "maj or",
      "intell igence",
      "recomm end",
      "1 9",
      "2 0",
      "A u",
      "E very",
      "M ay",
      "N o",
      "a ut",
      "c ity",
      "g ar",
      "h our",
      "i er",
      "i ous",
      "l ast",
      "m al",
      "n u",
      "n ame",
      "p ing",
      "p ain",
      "s cal",
      "t ren",
      "w ide",
      "at s",
      "the sis",
      "as si",
      "as soci",
      "it er",
      "it ch",
      "he art",
      "se qu",
      "su stain",
      "ke t",
      "im plement",
      "cl us",
      "bo oks",
      "Wh o",
      "vi ties",
      "cus s",
      "ard s",
      "sp ace",
      "produ cts",
      "ph o",
      "gre en",
      "val ue",
      "cle an",
      "serv ices",
      "comple x",
      "comple te",
      "De velop",
      "prof ession",
      "sal es",
      "rele v",
      "meas ures",
      "pare n",
      "materi als",
      "govern ment",
      "ev ents",
      "relation ship",
      "cru cial",
      "usu ally",
      "associ ated",
      "G o",
      "J o",
      "a x",
      "b as",
      "d one",
      "e th",
      "g enerate",
      "h arm",
      "k new",
      "o c",
      "o x",
      "p ict",
      "s l",
      "s top",
      "s chool",
      "t est",
      "th in",
      "in es",
      "in ts",
      "in put",
      "re present",
      "at mo",
      "is tic",
      "ar th",
      "le ft",
      "are a",
      "pro g",
      "ce ll",
      "com peti",
      "un ique",
      "ess ential",
      "we ather",
      "pl ant",
      "ap er",
      "po t",
      "wor d",
      "cl assi",
      "ut es",
      "str y",
      "comm on",
      "au tom",
      "commun ity",
      "high er",
      "allow s",
      "pur pose",
      "acti vities",
      "hap p",
      "friend s",
      "proble ms",
      "lin es",
      "train ing",
      "econom ic",
      "tool s",
      "method s",
      "tem per",
      "grap h",
      "item s",
      "quick ly",
      "tar get",
      "accoun t",
      "relev ant",
      "A r",
      "E arth",
      "F r",
      "L o",
      "S h",
      "U se",
      "a id",
      "b an",
      "b or",
      "b all",
      "d in",
      "i red",
      "l ay",
      "s w",
      "s or",
      "t ual",
      "w in",
      "w ent",
      "w atch",
      "th or",
      "re ce",
      "en e",
      "en ough",
      "is ts",
      "le ct",
      "st e",
      "st ren",
      "he at",
      "ro om",
      "me aning",
      "ab l",
      "ab ilities",
      "ver t",
      "ir d",
      "con tri",
      "ad dress",
      "mo vi",
      "di rect",
      "his tory",
      "do or",
      "ut ing",
      "inter net",
      "ress ion",
      "inte gr",
      "cho ose",
      "adv ant",
      "cour age",
      "iss ions",
      "ask ed",
      "perform ance",
      "typ es",
      "success ful",
      "decis ion",
      "indu stry",
      "sle ep",
      "amoun t",
      "fu els",
      "Ke ep",
      "behavi or",
      "employe es",
      "youn g",
      "atmo sphere",
      "stren g",
      "1 2",
      "C ol",
      "S u",
      "c ure",
      "d en",
      "d ate",
      "e mo",
      "g in",
      "g ive",
      "h n",
      "i tor",
      "l s",
      "n ight",
      "o re",
      "o id",
      "p ir",
      "p age",
      "s atis",
      "s pread",
      "t end",
      "in ation",
      "in ce",
      "an cial",
      "at a",
      "at tr",
      "st ar",
      "ro ss",
      "de m",
      "ne cess",
      "con cept",
      "tr adi",
      "tr avel",
      "mo tiv",
      "res h",
      "un til",
      "ur y",
      "li ve",
      "your self",
      "ci p",
      "sh ort",
      "fr u",
      "co de",
      "bo ard",
      "pr acti",
      "av or",
      "comp an",
      "comp on",
      "au thor",
      "cont ain",
      "ide as",
      "cal cul",
      "sm art",
      "experi ences",
      "af fic",
      "00 0",
      "let ter",
      "stud y",
      "On ce",
      "ward s",
      "ris k",
      "consum ption",
      "pred ic",
      "contin u",
      "multi ple",
      "lit tle",
      "purch ase",
      "rap id",
      "contro l",
      "pho to",
      "Jo hn",
      "prog ress",
      "movi e",
      "necess ary",
      "D i",
      "F in",
      "L ist",
      "W r",
      "a im",
      "g ative",
      "i ti",
      "n on",
      "s ch",
      "w are",
      "re view",
      "er g",
      "er r",
      "on ic",
      "to uch",
      "or ies",
      "le ast",
      "st re",
      "ve get",
      "for t",
      "me e",
      "me et",
      "ne y",
      "ne gative",
      "con sequ",
      "tr a",
      "tr ue",
      "tr affic",
      "res pect",
      "we ar",
      "ma g",
      "ma kes",
      "ex c",
      "ex pect",
      "li ves",
      "li ving",
      "po st",
      "ci ties",
      "du e",
      "sh op",
      "bo x",
      "In ter",
      "know led",
      "op tim",
      "comp uting",
      "some one",
      "ful l",
      "eng ine",
      "eng aging",
      "ide a",
      "cy cl",
      "vis ion",
      "reg ul",
      "reg ular",
      "ys is",
      "cho ice",
      "allow ing",
      "pres ents",
      "fi x",
      "respon si",
      "ss il",
      "acti vity",
      "every one",
      "every thing",
      "vers ity",
      "bre ak",
      "min utes",
      "An d",
      "pri or",
      "Un ited",
      "sim ple",
      "typ ically",
      "effective ly",
      "appro ach",
      "decis ions",
      "strate gies",
      "issu es",
      "engage ment",
      "child ren",
      "electric ity",
      "poll ution",
      "belie ve",
      "feed back",
      "challeng es",
      "tradi tional",
      "consequ ences",
      "1 8",
      "A p",
      "C us",
      "D ata",
      "G ive",
      "P e",
      "P o",
      "P le",
      "Y our",
      "b ul",
      "b ur",
      "c ase",
      "d om",
      "e yes",
      "f our",
      "f avor",
      "h un",
      "i ed",
      "i fe",
      "i ques",
      "k en",
      "m or",
      "m il",
      "m atter",
      "p ie",
      "s co",
      "u ally",
      "w ar",
      "an ti",
      "re new",
      "er t",
      "er ous",
      "at i",
      "at ten",
      "ar tificial",
      "le g",
      "ch at",
      "se en",
      "se cure",
      "for ce",
      "us h",
      "ver se",
      "ter day",
      "con f",
      "con clus",
      "ad ap",
      "lo t",
      "lo cal",
      "we b",
      "pl at",
      "po ints",
      "so on",
      "sh o",
      "ill ed",
      "por ts",
      "pr im",
      "pr int",
      "iz ing",
      "tic s",
      "new s",
      "dis cuss",
      "produ ction",
      "** :",
      "br and",
      "ph one",
      "techn iques",
      "cur rent",
      "differen ces",
      "med i",
      "plan ts",
      "plan ning",
      "pos ed",
      "ho pe",
      "eas ier",
      "cor por",
      "cor ding",
      "list en",
      "effe cts",
      "aw are",
      "fin ancial",
      "af ter",
      "fi ed",
      "design ed",
      "dri ve",
      "feel ings",
      "understand ing",
      "ins ights",
      "clo se",
      "read y",
      "cer tain",
      "vo ice",
      "appl ication",
      "program s",
      "appro pri",
      "accur acy",
      "effici ent",
      "achie ve",
      "analy ze",
      "promo te",
      "cult ure",
      "tru cture",
      "sit u",
      "grou ps",
      "sty le",
      "wal k",
      "erc ise",
      "avail able",
      "dig ital",
      "popul ation",
      "hour s",
      "profession al",
      "Cus tom",
      "Ple ase",
      "renew able",
      "! .",
      "1 0",
      "G i",
      "L e",
      "N e",
      "R es",
      "U S",
      "a ur",
      "b ro",
      "b ig",
      "c ks",
      "c up",
      "d ou",
      "e ase",
      "f le",
      "f ather",
      "g ard",
      "h ab",
      "h ip",
      "k ind",
      "l ate",
      "p an",
      "p ers",
      "p aper",
      "r al",
      "r ain",
      "r ound",
      "s ent",
      "s mo",
[...]
