{
  "version": "1.0",
  "truncation": null,
  "padding": null,
  "added_tokens": [
    {
      "id": 0,
      "content": "[UNK]",
      "single_word": false,
      "lstrip": false,
      "rstrip": false,
      "normalized": false,
      "special": true
    },
    {
      "id": 1,
      "content": "[PAD]",
      "single_word": false,
      "lstrip": false,
      "rstrip": false,
      "normalized": false,
      "special": true
    },
    {
      "id": 2,
      "content": "[SOS]",
      "single_word": false,
      "lstrip": false,
      "rstrip": false,
      "normalized": false,
      "special": true
    },
    {
      "id": 3,
      "content": "[EOS]",
      "single_word": false,
      "lstrip": false,
      "rstrip": false,
      "normalized": false,
      "special": true
    }
  ],
  "normalizer": null,
  "pre_tokenizer": {
    "type": "Whitespace"
  },
  "post_processor": null,
  "decoder": null,
  "model": {
    "type": "BPE",
    "dropout": null,
    "unk_token": "[UNK]",
    "continuing_subword_prefix": null,
    "end_of_word_suffix": null,
    "fuse_unk": false,
    "byte_fallback": false,
    "vocab": {
      "[UNK]": 0,
      "[PAD]": 1,
      "[SOS]": 2,
      "[EOS]": 3,
      "!": 4,
      "\"": 5,
      "#": 6,
      "$": 7,
      "%": 8,
      "&": 9,
      "'": 10,
      "(": 11,
      ")": 12,
      "*": 13,
      "+": 14,
      ",": 15,
      "-": 16,
      ".": 17,
      "/": 18,
      "0": 19,
      "1": 20,
      "2": 21,
      "3": 22,
      "4": 23,
      "5": 24,
      "6": 25,
      "7": 26,
      "8": 27,
      "9": 28,
      ":": 29,
      ";": 30,
      "<": 31,
      "=": 32,
      ">": 33,
      "?": 34,
      "[": 35,
      "]": 36,
      "^": 37,
      "_": 38,
      "a": 39,
      "b": 40,
      "c": 41,
      "d": 42,
      "e": 43,
      "f": 44,
      "h": 45,
      "i": 46,
      "l": 47,
      "m": 48,
      "n": 49,
      "o": 50,
      "p": 51,
      "r": 52,
      "s": 53,
      "t": 54,
      "u": 55,
      "x": 56,
      "{": 57,
      "}": 58,
      "£": 59,
      "×": 60,
      "ం": 61,
      "ః": 62,
      "అ": 63,
      "ఆ": 64,
      "ఇ": 65,
      "ఈ": 66,
      "ఉ": 67,
      "ఊ": 68,
      "ఋ": 69,
      "ఎ": 70,
      "ఏ": 71,
      "ఐ": 72,
      "ఒ": 73,
      "ఓ": 74,
      "ఔ": 75,
      "క": 76,
      "ఖ": 77,
      "గ": 78,
      "ఘ": 79,
      "చ": 80,
      "ఛ": 81,
      "జ": 82,
      "ఞ": 83,
      "ట": 84,
      "ఠ": 85,
      "డ": 86,
      "ఢ": 87,
      "ణ": 88,
      "త": 89,
      "థ": 90,
      "ద": 91,
      "ధ": 92,
      "న": 93,
      "ప": 94,
      "ఫ": 95,
      "బ": 96,
      "భ": 97,
      "మ": 98,
      "య": 99,
      "ర": 100,
      "ల": 101,
      "ళ": 102,
      "వ": 103,
      "శ": 104,
      "ష": 105,
      "స": 106,
      "హ": 107,
      "ా": 108,
      "ి": 109,
      "ీ": 110,
      "ు": 111,
      "ూ": 112,
      "ృ": 113,
      "ె": 114,
      "ే": 115,
      "ై": 116,
      "ొ": 117,
      "ో": 118,
      "ౌ": 119,
      "్": 120,
      "ౖ": 121,
      "౦": 122,
      "‌": 123,
      "≈": 124,
      "🇱": 125,
      "🇳": 126,
      "ని": 127,
      "రి": 128,
      "ను": 129,
      "ర్": 130,
      "స్": 131,
      "న్": 132,
      "్ర": 133,
      "ంచ": 134,
      "క్": 135,
      "ది": 136,
      "ాల": 137,
      "్య": 138,
      "కు": 139,
      "ార": 140,
      "యు": 141,
      "మరి": 142,
      "మరియు": 143,
      "డి": 144,
      "ప్ర": 145,
      "కి": 146,
      "తు": 147,
      "లు": 148,
      "ంది": 149,
      "ట్": 150,
      "ించ": 151,
      "గా": 152,
      "వి": 153,
      "లో": 154,
      "ాని": 155,
      "చే": 156,
      "రు": 157,
      "తి": 158,
      "ానికి": 159,
      "నా": 160,
      "ంట": 161,
      "త్": 162,
      "ల్": 163,
      "ండి": 164,
      "మీ": 165,
      "డు": 166,
      "మా": 167,
      "ప్": 168,
      "మ్": 169,
      "డానికి": 170,
      "వా": 171,
      "టా": 172,
      "నే": 173,
      "పు": 174,
      "న్ని": 175,
      "డం": 176,
      "దు": 177,
      "ద్": 178,
      "లే": 179,
      "ైన": 180,
      "సం": 181,
      "టి": 182,
      "దా": 183,
      "చేయ": 184,
      "కో": 185,
      "లి": 186,
      "ాయ": 187,
      "ంగా": 188,
      "గ్": 189,
      "ంత": 190,
      "ారు": 191,
      "గు": 192,
      "స్తు": 193,
      "చ్": 194,
      "క్క": 195,
      "కా": 196,
      "లను": 197,
      "సు": 198,
      "న్న": 199,
      "మైన": 200,
      "ోగ": 201,
      "ాలు": 202,
      "టామ్": 203,
      "ష్": 204,
      "చు": 205,
      "సి": 206,
      "సా": 207,
      "వ్య": 208,
      "క్ష": 209,
      "డ్": 210,
      "లా": 211,
      "ాలను": 212,
      "ము": 213,
      "రించ": 214,
      "స్త": 215,
      "ఒక": 216,
      "చి": 217,
      "తో": 218,
      "న్నా": 219,
      "నేను": 220,
      "వే": 221,
      "పా": 222,
      "పె": 223,
      "మె": 224,
      "వచ్": 225,
      "యా": 226,
      "ొక్క": 227,
      "మి": 228,
      "ారా": 229,
      "గి": 230,
      "కొ": 231,
      "మీరు": 232,
      "యోగ": 233,
      "ండ": 234,
      "పరి": 235,
      "లేదా": 236,
      "ఇది": 237,
      "యొక్క": 238,
      "ంద": 239,
      "స్తుంది": 240,
      "ంగ్": 241,
      "ష్ట": 242,
      "భా": 243,
      "సహ": 244,
      "మే": 245,
      "తీ": 246,
      "ాయి": 247,
      "యి": 248,
      "నిర్": 249,
      "వు": 250,
      "రణ": 251,
      "రా": 252,
      "ంలో": 253,
      "తా": 254,
      "అను": 255,
      "వచ్చు": 256,
      "ఉప": 257,
      "పి": 258,
      "రీ": 259,
      "పో": 260,
      "?.": 261,
      "చె": 262,
      "టు": 263,
      "స్థ": 264,
      "్యా": 265,
      "ందు": 266,
      "సమ": 267,
      "ర్థ": 268,
      "ఉపయోగ": 269,
      "తుంది": 270,
      "నీ": 271,
      "ించడానికి": 272,
      "ప్పు": 273,
      "ద్ధ": 274,
      "స్ట": 275,
      "పై": 276,
      "ంటి": 277,
      "కే": 278,
      "వె": 279,
      "ంటు": 280,
      "క్తి": 281,
      "మార్": 282,
      "త్త": 283,
      "కూ": 284,
      "ప్రా": 285,
      "అవ": 286,
      "డే": 287,
      "ించడం": 288,
      "రం": 289,
      "వర్": 290,
      "బ్": 291,
      "యం": 292,
      "లకు": 293,
      "్రా": 294,
      "నం": 295,
      "ళ్": 296,
      "ప్ప": 297,
      "కోవ": 298,
      "వారా": 299,
      "ాలి": 300,
      "పొ": 301,
      "ద్వారా": 302,
      "వ్": 303,
      "కలి": 304,
      "రో": 305,
      "డా": 306,
      "ర్య": 307,
      "ించండి": 308,
      "సహాయ": 309,
      "ధా": 310,
      "ారం": 311,
      "ెట్": 312,
      "ంట్": 313,
      "షన్": 314,
      "తె": 315,
      "ిక": 316,
      "బా": 317,
      "చూ": 318,
      "దే": 319,
      "ంటే": 320,
      "జీ": 321,
      "ాలా": 322,
      "వారి": 323,
      "ఉండ": 324,
      "అత": 325,
      "కం": 326,
      "ప్రతి": 327,
      "కీ": 328,
      "జా": 329,
      "అనే": 330,
      "త్ర": 331,
      "ధ్య": 332,
      "గల": 333,
      "చేయడానికి": 334,
      "వై": 335,
      "క్కు": 336,
      "్యూ": 337,
      "ల్ల": 338,
      "ందించ": 339,
      "ద్ద": 340,
      "ించి": 341,
      "ఉన్నా": 342,
      "రుగు": 343,
      "సే": 344,
      "శ్": 345,
      "చాలా": 346,
      "టీ": 347,
      "సర": 348,
      "మొ": 349,
      "తన": 350,
      "పని": 351,
      "ించే": 352,
      "నుండి": 353,
      "కరించ": 354,
      "బి": 355,
      "తీసు": 356,
      "ప్పుడు": 357,
      "వంటి": 358,
      "ఉన్న": 359,
      "డేటా": 360,
      "భి": 361,
      "మూ": 362,
      "రె": 363,
      "శా": 364,
      "రే": 365,
      "సమా": 366,
      "డుతుంది": 367,
      "ధార": 368,
      "ఖ్య": 369,
      "సహాయప": 370,
      "జ్": 371,
      "క్ర": 372,
      "కాల": 373,
      "క్కువ": 374,
      "దీ": 375,
      "నాకు": 376,
      "సృ": 377,
      "మీకు": 378,
      "చేయడం": 379,
      "బం": 380,
      "వీ": 381,
      "వంత": 382,
      "సె": 383,
      "చేయండి": 384,
      "కోసం": 385,
      "ద్య": 386,
      "వర": 387,
      "ెక్": 388,
      "ట్ట": 389,
      "తర": 390,
      "తగ్": 391,
      "వరణ": 392,
      "కలిగి": 393,
      "వృ": 394,
      "క్కడ": 395,
      "ఫ్": 396,
      "లేదు": 397,
      "క్షణ": 398,
      "భావ": 399,
      "టర్": 400,
      "ఉంది": 401,
      "రించి": 402,
      "న్నాను": 403,
      "వహ": 404,
      "దాని": 405,
      "రూ": 406,
      "సూ": 407,
      "త్తి": 408,
      "ండ్": 409,
      "ంటుంది": 410,
      "రోగ": 411,
      "వ్యక్తి": 412,
      "యో": 413,
      "తే": 414,
      "జి": 415,
      "బడి": 416,
      "ాల్": 417,
      "గొ": 418,
      "బు": 419,
      "ట్టు": 420,
      "విని": 421,
      "వ్వ": 422,
      "గురించి": 423,
      "ఏమి": 424,
      "ద్ధి": 425,
      "లై": 426,
      "శక్తి": 427,
      "ర్చు": 428,
      "ఉంటుంది": 429,
      "షి": 430,
      "మ్మ": 431,
      "స్తాయి": 432,
      "అభి": 433,
      "ఎందు": 434,
      "పర": 435,
      "ాడు": 436,
      "ంచు": 437,
      "వ్యా": 438,
      "ణా": 439,
      "సిన": 440,
      "సృష్ట": 441,
      "బంధ": 442,
      "పే": 443,
      "వారు": 444,
      "కుంటు": 445,
      "ముఖ్య": 446,
      "ఉత్": 447,
      "గ్ర": 448,
      "ఫి": 449,
      "క్రి": 450,
      "దృ": 451,
      "బో": 452,
      "గుర్": 453,
      "కర": 454,
      "తంగా": 455,
      "దేశ": 456,
      "యూ": 457,
      "్యం": 458,
      "కూడా": 459,
      "దారు": 460,
      "కార్": 461,
      "కృ": 462,
      "జు": 463,
      "నరు": 464,
      "మో": 465,
      "వినియోగ": 466,
      "**": 467,
      "ఇవ్వ": 468,
      "పర్": 469,
      "మర్": 470,
      "సై": 471,
      "లతో": 472,
      "మరింత": 473,
      "తెలు": 474,
      "వృద్ధి": 475,
      "ైనా": 476,
      "స్థి": 477,
      "వెళ్": 478,
      "కార": 479,
      "కంటే": 480,
      "కోండి": 481,
      "తులు": 482,
      "ండా": 483,
      "కోవడానికి": 484,
      "ఉన్నాయి": 485,
      "అం": 486,
      "ఎలా": 487,
      "చర్య": 488,
      "విధ": 489,
      "మేము": 490,
      "ద్ర": 491,
      "తగ్గ": 492,
      "ఇక్కడ": 493,
      "మధ్య": 494,
      "ించవచ్చు": 495,
      "వ్యవ": 496,
      "మేరీ": 497,
      "కె": 498,
      "పూ": 499,
      "రిగి": 500,
      "అతను": 501,
      "శ్ర": 502,
      "తం": 503,
      "సహాయపడుతుంది": 504,
      "అని": 505,
      "గో": 506,
      "నాలు": 507,
      "గణ": 508,
      "శి": 509,
      "వాటి": 510,
      "కొన్ని": 511,
      "ఉంట": 512,
      "ఎక్కువ": 513,
      "కుండా": 514,
      "నిర్వహ": 515,
      "ించిన": 516,
      "తెలుసు": 517,
      "గే": 518,
      "న్ను": 519,
      "మొత్త": 520,
      "వ్యవస్థ": 521,
      "ఆరోగ": 522,
      "ఆమె": 523,
      "లక్ష": 524,
      "ప్రే": 525,
      "త్రి": 526,
      "సంబంధ": 527,
      "ఉత్ప": 528,
      "ఇం": 529,
      "టింగ్": 530,
      "తను": 531,
      "ంచి": 532,
      "అనేక": 533,
      "ధారణ": 534,
      "అభివృద్ధి": 535,
      "అందించ": 536,
      "ఇంట": 537,
      "లీ": 538,
      "న్నారు": 539,
      "వినియోగదారు": 540,
      "అంత": 541,
      "చ్చి": 542,
      "లలో": 543,
      "స్ప": 544,
      "తిక": 545,
      "ందని": 546,
      "వంతమైన": 547,
      "ండు": 548,
      "సరం": 549,
      "కొత్త": 550,
      "ంపు": 551,
      "మన": 552,
      "సాం": 553,
      "ఖర్చు": 554,
      "టో": 555,
      "హా": 556,
      "న్స్": 557,
      "ాలో": 558,
      "ాలని": 559,
      "వాతా": 560,
      "లియ": 561,
      "టామ్‌": 562,
      "సాధారణ": 563,
      "సమాచ": 564,
      "వాతావరణ": 565,
      ":.": 566,
      "కస్ట": 567,
      "నె": 568,
      "మ్యూ": 569,
      "వం": 570,
      "ప్రారం": 571,
      "లభ": 572,
      "న్య": 573,
      "స్తారు": 574,
      "క్రమ": 575,
      "పూర్": 576,
      "ధన": 577,
      "రక్ష": 578,
      "ాను": 579,
      "స్య": 580,
      "మెరుగు": 581,
      "కోవడం": 582,
      "కస్టమర్": 583,
      "కను": 584,
      "సో": 585,
      "హి": 586,
      "అనుభ": 587,
      "ఎందుకు": 588,
      "ఆధార": 589,
      "తమైన": 590,
      "ాలకు": 591,
      "వాన్ని": 592,
      "ంతో": 593,
      "రోజు": 594,
      "జన": 595,
      "వేగ": 596,
      "ారాన్ని": 597,
      "దీని": 598,
      "మొత్తం": 599,
      "ప్రారంభ": 600,
      "కర్": 601,
      "త్య": 602,
      "వనరు": 603,
      "షణ": 604,
      "చేస్తుంది": 605,
      "పొందించ": 606,
      "గుర్త": 607,
      "గత": 608,
      "తాయి": 609,
      "దర్": 610,
      "పంచ": 611,
      "వల్ల": 612,
      "వివ": 613,
      "చేసు": 614,
      "చెప్ప": 615,
      "లక్ష్య": 616,
      "పడ": 617,
      "లె": 618,
      "ప్రో": 619,
      "తుల": 620,
      "తున్న": 621,
      "మాన": 622,
      "అవసరం": 623,
      "అనేది": 624,
      "అంది": 625,
      "ఆహ": 626,
      "చన": 627,
      "మై": 628,
      "గిన": 629,
      "కంప": 630,
      "నెట్": 631,
      "చేసే": 632,
      "ల్స్": 633,
      "కాశ": 634,
      "్యాన్ని": 635,
      "మార్గ": 636,
      "కరమైన": 637,
      "కమ్యూ": 638,
      "చర్": 639,
      "ప్రపంచ": 640,
      "ట్టి": 641,
      "చెప్": 642,
      "ప్పటి": 643,
      "రెండు": 644,
      "ఉత్పత్తి": 645,
      "కమ్యూని": 646,
      "అది": 647,
      "ఆర్": 648,
      "టె": 649,
      "నై": 650,
      "వేర్": 651,
      "కేషన్": 652,
      "తీసుకు": 653,
      "ఆరోగ్య": 654,
      "ఇన్": 655,
      "ెంట్": 656,
      "క్స్": 657,
      "ారీ": 658,
      "విశ్": 659,
      "చిన్న": 660,
      "భాగ": 661,
      "అనుమ": 662,
      "అవసర": 663,
      "కంప్యూ": 664,
      "ఇతర": 665,
      "కల్": 666,
      "జర్": 667,
      "భు": 668,
      "హరణ": 669,
      "స్సు": 670,
      "ాలలో": 671,
      "త్తు": 672,
      "సమయం": 673,
      "సమస్య": 674,
      "వివరించ": 675,
      "అధ": 676,
      "అయి": 677,
      "ఆలో": 678,
      "ఫ్ర": 679,
      "ులు": 680,
      "స్ట్": 681,
      "న్నాడు": 682,
      "ందా": 683,
      "ఉదా": 684,
      "తక్కువ": 685,
      "నమూ": 686,
      "సర్": 687,
      "తిని": 688,
      "సులభ": 689,
      "త్మ": 690,
      "కాదు": 691,
      "మార్పు": 692,
      "అలా": 693,
      "డె": 694,
      "తరు": 695,
      "ఫీ": 696,
      "ప్రయో": 697,
      "విష": 698,
      "చేయవచ్చు": 699,
      "నిర్ణ": 700,
      "తాను": 701,
      "కనుగొ": 702,
      "ఉదాహరణ": 703,
      "ణం": 704,
      "దల": 705,
      "ట్లు": 706,
      "చేస్తు": 707,
      "ష్టి": 708,
      "తెలియ": 709,
      "రూపొందించ": 710,
      "ఉంటాయి": 711,
      "అర్థ": 712,
      "ట్రా": 713,
      "బల": 714,
      "లువ": 715,
      "పెద్ద": 716,
      "యాన్ని": 717,
      "ష్టమైన": 718,
      "జాబి": 719,
      "ప్రోత్": 720,
      "టానికి": 721,
      "ాన్ని": 722,
      "రియ": 723,
      "త్మక": 724,
      "ఆర్థ": 725,
      "కరణ": 726,
      "చా": 727,
      "దో": 728,
      "నిజ": 729,
      "ప్రభావ": 730,
      "ట్లా": 731,
      "వాత": 732,
      "చ్చ": 733,
      "ధాన": 734,
      "దన": 735,
      "వల": 736,
      "ంచండి": 737,
      "ప్రత్య": 738,
      "వివిధ": 739,
      "మాట్లా": 740,
      "సామ": 741,
      "వులు": 742,
      "నీటి": 743,
      "ఆర్థిక": 744,
      "ఖచ్చి": 745,
      "దం": 746,
      "ఫో": 747,
      "డేటాను": 748,
      "ఫ్ట్": 749,
      "వ్యాప": 750,
      "సాంకే": 751,
      "ప్రోత్సహ": 752,
      "ఉద్య": 753,
      "తమ": 754,
      "ధి": 755,
      "పద్ధ": 756,
      "మంచి": 757,
      "ప్రజ": 758,
      "సంభా": 759,
      "వ్యక్": 760,
      "ందో": 761,
      "నీయ": 762,
      "ప్పుడ": 763,
      "కూల": 764,
      "చూడ": 765,
      "క్రియ": 766,
      "సాంకేతిక": 767,
      "రక్షణ": 768,
      "విస్త": 769,
      "ాలనుకుంటు": 770,
      "రించడానికి": 771,
      "అవకాశ": 772,
      "ళ్ళ": 773,
      "పొంద": 774,
      "పరచ": 775,
      "ఎం": 776,
      "జే": 777,
      "యత్": 778,
      "ప్రయత్": 779,
      "సాధ": 780,
      "పాత్ర": 781,
      "పెరుగు": 782,
      "మెంట్": 783,
      "పరిష్": 784,
      "వెబ్": 785,
      "వర్క్": 786,
      "జ్ఞ": 787,
      "సామర్థ": 788,
      "టం": 789,
      "టెక్": 790,
      "బడ్": 791,
      "దిష్ట": 792,
      "ప్రభా": 793,
      "ప్రశ్": 794,
      "విద్య": 795,
      "ప్లా": 796,
      "న్నారా": 797,
      "నిర్దిష్ట": 798,
      "సమర్థ": 799,
      "ప్రాంత": 800,
      "వైపు": 801,
      "కంప్యూటర్": 802,
      "తారు": 803,
      "విజ": 804,
      "చేసిన": 805,
      "పెంచ": 806,
      "ించడంలో": 807,
      "వరకు": 808,
      "వివరించండి": 809,
      "కెట్": 810,
      "డని": 811,
      "క్లి": 812,
      "్యత": 813,
      "ప్రధాన": 814,
      "ించు": 815,
      "చేసి": 816,
      "వేయ": 817,
      "పెట్ట": 818,
      "యాక్": 819,
      "లైన్": 820,
      "ప్పటికీ": 821,
      "అర్థం": 822,
      "00": 823,
      "అంద": 824,
      "అవు": 825,
      "బ్యా": 826,
      "మేధ": 827,
      "నిర్ధా": 828,
      "మొద": 829,
      "ఇంటర్": 830,
      "దర్శ": 831,
      "నిర్ణయ": 832,
      "ప్రశ్న": 833,
      "కల": 834,
      "కాలు": 835,
      "దశ": 836,
      "ల్ని": 837,
      "చుగా": 838,
      "పాడు": 839,
      "సెస్": 840,
      "తరచుగా": 841,
      "బడింది": 842,
      "సృష్టించండి": 843,
      "ముఖ్యమైన": 844,
      "ఎదు": 845,
      "ఫా": 846,
      "శో": 847,
      "సరి": 848,
      "ేక": 849,
      "నింగ్": 850,
      "విలువ": 851,
      "తిరిగి": 852,
      "సహాయం": 853,
      "వ్యక్తిగత": 854,
      "అనుమతి": 855,
      "ఆదా": 856,
      "ఇష్ట": 857,
      "గర": 858,
      "నన్ను": 859,
      "భూ": 860,
      "మని": 861,
      "మారు": 862,
      "కార్య": 863,
      "ముందు": 864,
      "పాద": 865,
      "సమయ": 866,
      "ఉపయోగించడం": 867,
      "అతని": 868,
      "మ్మల్ని": 869,
      "వాటిని": 870,
      "జ్ఞా": 871,
      "అల్": 872,
      "ఎంత": 873,
      "డ్ర": 874,
      "నో": 875,
      "నని": 876,
      "బడుతుంది": 877,
      "మనం": 878,
      "వడానికి": 879,
      "వడం": 880,
      "వస్తు": 881,
      "హు": 882,
      "చేస్త": 883,
      "వార్": 884,
      "సిస్ట": 885,
      "ఏమిటి": 886,
      "కృత్రి": 887,
      "విశ్లే": 888,
      "ప్రత్యేక": 889,
      "కృత్రిమ": 890,
      "ంతి": 891,
      "అంచ": 892,
      "ఉద్": 893,
      "కథ": 894,
      "జం": 895,
      "తప్ప": 896,
      "ద్యా": 897,
      "పడి": 898,
      "బడ": 899,
      "భ్య": 900,
      "లపై": 901,
      "ూహ": 902,
      "ాలతో": 903,
      "ించగల": 904,
      "చేయగల": 905,
      "కానీ": 906,
      "సాఫ్ట్": 907,
      "సహా": 908,
      "ఉపయోగించే": 909,
      "అత్య": 910,
      "సహాయపడ": 911,
      "దృష్టి": 912,
      "పర్యా": 913,
      "స్థిర": 914,
      "కారణ": 915,
      "అంశ": 916,
      "తగ్గించడానికి": 917,
      "కనుగొన": 918,
      "అవి": 919,
      "అదన": 920,
      "ఆన్": 921,
      "కంట": 922,
      "కపో": 923,
      "వత్": 924,
      "సౌ": 925,
      "కున్న": 926,
      "ారని": 927,
      "ప్రమా": 928,
      "ప్రక్రియ": 929,
      "ల్లి": 930,
      "సంరక్షణ": 931,
      "సంవత్": 932,
      "టివ్": 933,
      "అనుకుంటు": 934,
      "వెళ్ళ": 935,
      "సాధారణంగా": 936,
      "మెరుగుపరచ": 937,
      "లెర్": 938,
      "అందిస్తుంది": 939,
      "ప్పుడూ": 940,
      "అందు": 941,
      "ఇంటి": 942,
      "ఎవ": 943,
      "గీ": 944,
      "మలు": 945,
      "మంది": 946,
      "మద్ద": 947,
      "సీ": 948,
      "ిన": 949,
      "విద్యా": 950,
      "లోకి": 951,
      "మీద": 952,
      "చ్ఛ": 953,
      "పెనీ": 954,
      "రంగ": 955,
      "జీవ": 956,
      "కంపెనీ": 957,
      "ఎందుకంటే": 958,
      "పూర్తి": 959,
      "మద్దతు": 960,
      "__": 961,
      "ంబ": 962,
      "అన్ని": 963,
      "ఉత్త": 964,
      "టన": 965,
      "టై": 966,
      "మం": 967,
      "దించ": 968,
      "కుటు": 969,
      "తులను": 970,
      "నాన్ని": 971,
      "పుణ": 972,
      "సిద్ధ": 973,
      "సాను": 974,
      "కొన": 975,
      "పరిగణ": 976,
      "జీవి": 977,
      "సమాచారాన్ని": 978,
      "ఆధారంగా": 979,
      "అధిక": 980,
      "అన": 981,
      "ఆకర్": 982,
      "దని": 983,
      "ఫలి": 984,
      "మర": 985,
      "స్నే": 986,
      "ప్రయా": 987,
      "గాన్ని": 988,
      "పార్": 989,
      "మిమ్మల్ని": 990,
      "కీల": 991,
      "ెక్ట్": 992,
      "గణనీయ": 993,
      "ఆలోచన": 994,
      "ఫ్రె": 995,
      "మొదటి": 996,
      "పర్యావరణ": 997,
      "ంప": 998,
      "డీ": 999,
      "తలు": 1000,
      "నాల": 1001,
      "పను": 1002,
      "పరీ": 1003,
      "ఫై": 1004,
      "బహు": 1005,
      "రక": 1006,
      "లక్షణ": 1007,
      "శు": 1008,
      "డియా": 1009,
      "సంఖ్య": 1010,
      "ముద్ర": 1011,
      "పెట్టు": 1012,
      "మెషి": 1013,
      "ఉపయోగి": 1014,
      "దానిని": 1015,
      "ప్రయత్ని": 1016,
      "కష్ట": 1017,
      "తయ": 1018,
      "వ్ర": 1019,
      "శీ": 1020,
      "సెట్": 1021,
      "ర్చ": 1022,
      "త్వం": 1023,
      "స్త్ర": 1024,
      "బ్బు": 1025,
      "సైట్": 1026,
      "చెప్పాడు": 1027,
      "కమ్యూనికేషన్": 1028,
      "వ్యాపార": 1029,
      "ఎంపి": 1030,
      "లెర్నింగ్": 1031,
      "ణి": 1032,
      "దయ": 1033,
      "రగ": 1034,
      "హె": 1035,
      "ీయ": 1036,
      "నియ": 1037,
      "రిత": 1038,
      "స్వా": 1039,
      "స్టా": 1040,
      "ట్ల": 1041,
      "మాత్ర": 1042,
      "నేర్చు": 1043,
      "సంక్ష": 1044,
      "మెయి": 1045,
      "సహజ": 1046,
      "స్థాయి": 1047,
      "బాగా": 1048,
      "ఉండవచ్చు": 1049,
      "మూడు": 1050,
      "వరగా": 1051,
      "అంతర్": 1052,
      "అయితే": 1053,
      "మెషిన్": 1054,
      "అప్": 1055,
      "ఇవి": 1056,
      "ఎంచు": 1057,
      "దైనా": 1058,
      "నను": 1059,
      "బె": 1060,
      "స్వ": 1061,
      "త్వ": 1062,
      "మాకు": 1063,
      "కోరు": 1064,
      "ఉపయోగించి": 1065,
      "వర్తన": 1066,
      "సూచి": 1067,
      "సృష్టించడానికి": 1068,
      "శ్రమ": 1069,
      "సోష": 1070,
      "సంవత్సర": 1071,
      "కాలి": 1072,
      "జై": 1073,
      "టే": 1074,
      "బట్టి": 1075,
      "ాలపై": 1076,
      "ప్రభు": 1077,
      "పునరు": 1078,
      "దారి": 1079,
      "మిక": 1080,
      "పరిస్థి": 1081,
      "భాష": 1082,
      "నిర్మ": 1083,
      "అనుకో": 1084,
      "పిల్ల": 1085,
      "ధాన్య": 1086,
      "కరించడానికి": 1087,
      "బడిన": 1088,
      "ముఖ్యం": 1089,
      "శిక్షణ": 1090,
      "నిర్వహించడానికి": 1091,
      "తెలియదు": 1092,
      "సోషల్": 1093,
      "ఆట": 1094,
      "ఇప్పుడు": 1095,
      "ఏదైనా": 1096,
      "కని": 1097,
      "కారు": 1098,
      "జె": 1099,
      "జనా": 1100,
      "ట్ర": 1101,
      "తొ": 1102,
      "పీ": 1103,
      "బీ": 1104,
      "య్య": 1105,
      "ర్ట్": 1106,
      "న్యూ": 1107,
      "మీడియా": 1108,
      "పాఠ": 1109,
      "పరిమి": 1110,
      "తీవ్ర": 1111,
      "రంగు": 1112,
      "బాటు": 1113,
      "కరించండి": 1114,
      "శాస్త్ర": 1115,
      "టామ్‌కు": 1116,
      "రక్షి": 1117,
      "అనుమతిస్తుంది": 1118,
      "స్నేహి": 1119,
      "మాత్రమే": 1120,
      "మెయిల్": 1121,
      ":**": 1122,
      "అమలు": 1123,
      "ఎక్కడ": 1124,
      "కంగా": 1125,
      "దూ": 1126,
      "మవు": 1127,
      "వద్ద": 1128,
      "ంచ్": 1129,
      "కులు": 1130,
      "కింగ్": 1131,
      "తున్నాను": 1132,
      "డంలో": 1133,
      "దాన్ని": 1134,
      "సామా": 1135,
      "చిత్ర": 1136,
      "వచ్చ": 1137,
      "ఉపయోగించ": 1138,
      "ప్రాధాన్య": 1139,
      "బ్బ": 1140,
      "వంతంగా": 1141,
      "బుల్": 1142,
      "శ్రే": 1143,
      "టామ్‌ను": 1144,
      "క్రమం": 1145,
      "అనుభవ": 1146,
      "కల్ప": 1147,
      "తరువాత": 1148,
      "మాట్లాడ": 1149,
      "సంభావ్య": 1150,
      "ప్రభావాన్ని": 1151,
      "సానుకూల": 1152,
      "ఎంపిక": 1153,
      ").": 1154,
      "అంటే": 1155,
      "కారం": 1156,
      "తల": 1157,
      "భద్ర": 1158,
      "రాయ": 1159,
      "ేట్": 1160,
      "రిథ": 1161,
      "ర్లు": 1162,
      "న్‌": 1163,
      "కుంట": 1164,
      "ప్రొ": 1165,
      "విధా": 1166,
      "వాస": 1167,
      "పుట్": 1168,
      "లిక": 1169,
      "స్తున్నా": 1170,
      "స్తున్నాను": 1171,
      "సురక్షి": 1172,
      "కొంత": 1173,
      "ంద్ర": 1174,
      "స్థా": 1175,
      "మార్కెట్": 1176,
      "తగ్గి": 1177,
      "శక్తిని": 1178,
      "అవసరమైన": 1179,
      "బడ్డ": 1180,
      "శోధన": 1181,
      "విద్యార్థ": 1182,
      "దారితీ": 1183,
      "ఇమెయిల్": 1184,
      "ఉంచ": 1185,
      "తగిన": 1186,
      "పర్య": 1187,
      "ుల": 1188,
      "రిక": 1189,
      "దిగా": 1190,
      "చేస్తాయి": 1191,
      "పుస్త": 1192,
      "చింది": 1193,
      "కలిసి": 1194,
      "వారికి": 1195,
      "రూప": 1196,
      "వేగంగా": 1197,
      "నైపుణ": 1198,
      "ఉద్యోగ": 1199,
      "ప్రజలు": 1200,
      "పాదక": 1201,
      "ఆన్లైన్": 1202,
      "అమె": 1203,
      "ఇందు": 1204,
      "ఎన్": 1205,
      "జో": 1206,
      "జిక": 1207,
      "జరుగు": 1208,
      "నర్": 1209,
      "పదా": 1210,
      "మరో": 1211,
      "శ్రా": 1212,
      "హై": 1213,
      "ిప్": 1214,
      "ులను": 1215,
      "కునే": 1216,
      "డిని": 1217,
      "ద్దు": 1218,
      "ోగ్రా": 1219,
      "పాటు": 1220,
      "మెరు": 1221,
      "బాధ్య": 1222,
      "గొప్ప": 1223,
      "బోస్ట": 1224,
      "వెళ్ల": 1225,
      "నెట్వర్క్": 1226,
      "ప్రయోజన": 1227,
      "నిర్ధారించ": 1228,
      "సమయంలో": 1229,
      "అదనంగా": 1230,
      "సంక్షిప్": 1231,
      "అడ": 1232,
      "కాలను": 1233,
      "ఖా": 1234,
      "నాలను": 1235,
      "నమ్మ": 1236,
      "పించ": 1237,
      "పట్ట": 1238,
      "బయ": 1239,
      "ళిక": 1240,
      "ేస్": 1241,
      "నివ": 1242,
      "నివా": 1243,
      "రికీ": 1244,
      "నుగో": 1245,
      "క్ట్": 1246,
      "డిజై": 1247,
      "వాహ": 1248,
      "ంత్ర": 1249,
      "ఒకటి": 1250,
      "కొనుగో": 1251,
      "పరిమా": 1252,
      "పోయి": 1253,
      "ఉపయోగించవచ్చు": 1254,
      "స్ట్ర": 1255,
      "భిన్న": 1256,
      "రేట్": 1257,
      "జాబితా": 1258,
      "అంచనా": 1259,
      "తప్పకుండా": 1260,
      "ఫ్రెంచ్": 1261,
      "పరీక్ష": 1262,
      "సామాజిక": 1263,
      "ఇందులో": 1264,
      "కళ": 1265,
      "డబ్బు": 1266,
      "దగిన": 1267,
      "పథ": 1268,
      "యస్సు": 1269,
      "రకు": 1270,
      "వల్": 1271,
      "ొక": 1272,
      "నిల్": 1273,
      "ప్రదేశ": 1274,
      "తున్నా": 1275,
      "ల్లో": 1276,
      "వాయు": 1277,
      "మింగ్": 1278,
      "తీరు": 1279,
      "నిర్మా": 1280,
      "ళ్ల": 1281,
      "చూపు": 1282,
      "కార్బ": 1283,
      "సమాచారం": 1284,
      "టెడ్": 1285,
      "ప్రయోజ": 1286,
      "ఉదాహరణకు": 1287,
      "జాబితాను": 1288,
      "విశ్లేష": 1289,
      "అత్యంత": 1290,
      "నిల్వ": 1291,
      "ఆస": 1292,
      "ఉందని": 1293,
      "ఎస్": 1294,
      "గె": 1295,
      "గ్రా": 1296,
      "త్యా": 1297,
      "బర్": 1298,
      "బ్ర": 1299,
      "భ్ర": 1300,
      "రై": 1301,
      "రల్": 1302,
      "రవా": 1303,
      "శరీ": 1304,
      "సముద్ర": 1305,
      "హో": 1306,
      "ర్ఘ": 1307,
      "స్క్": 1308,
      "న్లు": 1309,
      "గాహ": 1310,
      "విభ": 1311,
      "చేరు": 1312,
      "ప్రి": 1313,
      "లేకపో": 1314,
      "సంఘ": 1315,
      "సంస్థ": 1316,
      "ాయా": 1317,
      "కాన్ని": 1318,
      "సిక": 1319,
      "రాజ": 1320,
      "ంలోని": 1321,
      "మార్కె": 1322,
      "ప్రాజ": 1323,
      "ప్రాప": 1324,
      "అవగాహ": 1325,
      "ఉండాలి": 1326,
      "ప్రతిస్ప": 1327,
      "వైద్య": 1328,
      "పనితీరు": 1329,
      "శాన్ని": 1330,
      "ాల్సిన": 1331,
      "మోడ": 1332,
      "ఇవ్వండి": 1333,
      "రిగిన": 1334,
      "ప్రేక్ష": 1335,
      "ఇంకా": 1336,
      "సిస్టమ్": 1337,
      "కంటెంట్": 1338,
      "కీలక": 1339,
      "సూచిస్తుంది": 1340,
      "కార్బన్": 1341,
      "ఇతరు": 1342,
      "ఏర్": 1343,
      "కాని": 1344,
      "కలా": 1345,
      "టల్": 1346,
      "తర్": 1347,
      "నడ": 1348,
      "నల్": 1349,
      "పద": 1350,
      "బద్ధ": 1351,
      "భవ": 1352,
      "లెక్": 1353,
      "సమీ": 1354,
      "నిమ": 1355,
      "స్కృ": 1356,
      "కున్నాడు": 1357,
      "తిన": 1358,
      "కోవచ్చు": 1359,
      "వ్యాయా": 1360,
      "స్తా": 1361,
      "వచ్చే": 1362,
      "పరికర": 1363,
      "వుల": 1364,
      "ఉపయోగించండి": 1365,
      "గ్రీ": 1366,
      "సంబంధం": 1367,
      "విస్తృ": 1368,
      "అవకాశం": 1369,
      "జంతు": 1370,
      "జీవిత": 1371,
      "తయారు": 1372,
      "డిజైన్": 1373,
      "కొనుగోలు": 1374,
      "మార్కెటింగ్": 1375,
      "అన్": 1376,
      "ఎప్పుడూ": 1377,
      "ఒత్తి": 1378,
      "ణంగా": 1379,
      "పరు": 1380,
      "పాయి": 1381,
      "మార": 1382,
      "రకాల": 1383,
      "లవ": 1384,
      "శై": 1385,
      "షా": 1386,
      "ోగు": 1387,
      "స్వీ": 1388,
      "క్ల": 1389,
      "్యతను": 1390,
      "కులను": 1391,
      "ారో": 1392,
      "డికి": 1393,
      "ప్రణా": 1394,
      "స్తున్న": 1395,
      "కాబట్టి": 1396,
      "ాలుగా": 1397,
      "ముఖ": 1398,
      "పిస్తుంది": 1399,
      "మార్చ": 1400,
      "కూడి": 1401,
      "ించింది": 1402,
      "సేవ": 1403,
      "కరించడం": 1404,
      "ాల్లో": 1405,
      "వ్యాప్": 1406,
      "గ్రహ": 1407,
      "అందించడం": 1408,
      "దీనిని": 1409,
      "మానవ": 1410,
      "రూపొందించండి": 1411,
      "ఖచ్చితంగా": 1412,
      "ళ్ళు": 1413,
      "వెబ్సైట్": 1414,
      "టెక్నాల": 1415,
      "విద్యు": 1416,
      "యాక్సెస్": 1417,
      "డ్రై": 1418,
      "సాఫ్ట్వేర్": 1419,
      "రవాణా": 1420,
      "తర్వాత": 1421,
      "ప్రణాళిక": 1422,
      "టెక్నాలజీ": 1423,
      ",.": 1424,
      "ంపై": 1425,
      "అండ్": 1426,
      "ఆప": 1427,
      "ఆధా": 1428,
      "ఆఫ్": 1429,
      "ఆటో": 1430,
      "కన": 1431,
      "గంట": 1432,
      "డో": 1433,
      "పడు": 1434,
      "బల్": 1435,
      "మొక్క": 1436,
      "వది": 1437,
      "శారీ": 1438,
      "రిగా": 1439,
      "ర్డ్": 1440,
      "ప్రదా": 1441,
      "ప్రోగ్రా": 1442,
      "లుగా": 1443,
      "వాస్త": 1444,
      "టాప్": 1445,
      "దుస్తు": 1446,
      "లేని": 1447,
      "చేయాలి": 1448,
      "కావచ్చు": 1449,
      "ోగ్ర": 1450,
      "ష్ణ": 1451,
      "స్తాడు": 1452,
      "పాత": 1453,
      "కొరకు": 1454,
      "పరిశోధన": 1455,
      "తాన్ని": 1456,
      "పోయా": 1457,
      "ఉండే": 1458,
      "మూల": 1459,
      "శాడు": 1460,
      "కాల్": 1461,
      "దీర్ఘ": 1462,
      "సూచ": 1463,
      "పేరు": 1464,
      "వినియోగదారులు": 1465,
      "ఖర్చులను": 1466,
      "ఆహార": 1467,
      "ట్రాక్": 1468,
      "నిజంగా": 1469,
      "సమర్థవంతంగా": 1470,
      "విజయ": 1471,
      "కార్యకలా": 1472,
      "కుటుంబ": 1473,
      "గణనీయమైన": 1474,
      "ప్రభుత్వ": 1475,
      "అనుకోను": 1476,
      "తొల": 1477,
      "నైపుణ్య": 1478,
      "పదార్థ": 1479,
      "నిమగ్": 1480,
      "ఆధారిత": 1481,
      "శారీరక": 1482,
      "కార్యకలాప": 1483,
      "\".": 1484,
      "అల": 1485,
      "ఉష్ణ": 1486,
      "ఎల": 1487,
      "ఎవర": 1488,
      "ఐదు": 1489,
      "డర్": 1490,
      "దగ్": 1491,
      "నష్ట": 1492,
      "నగర": 1493,
      "పాల్": 1494,
      "పట్టు": 1495,
      "భో": 1496,
      "మైనా": 1497,
      "సభ్య": 1498,
      "ిత": 1499,
      "ౌర": 1500,
      "నిరో": 1501,
      "రికి": 1502,
      "ర్సు": 1503,
      "ందిన": 1504,
      "వివరణ": 1505,
      "విశ్రా": 1506,
      "నాణ": 1507,
      "ప్లే": 1508,
      "వాడ": 1509,
      "కోల్": 1510,
      "సాహ": 1511,
      "క్షన్": 1512,
      "కొల": 1513,
      "స్టో": 1514,
      "బ్లా": 1515,
      "ఉండండి": 1516,
      "తీసుకోవడం": 1517,
      "ఉన్నారు": 1518,
      "క్రీ": 1519,
      "షియ": 1520,
      "ణాన్ని": 1521,
      "ఫిక్": 1522,
      "దృష్ట": 1523,
      "యూజర్": 1524,
      "కార్డు": 1525,
      "చర్యలు": 1526,
      "ప్రేమ": 1527,
      "వనరుల": 1528,
      "మానసిక": 1529,
      "ఆహారం": 1530,
      "మార్గం": 1531,
      "చర్చ": 1532,
      "సులభం": 1533,
      "ప్రభావం": 1534,
      "వ్యక్తులు": 1535,
      "జేషన్": 1536,
      "బ్యాక్": 1537,
      "ఇంటర్నెట్": 1538,
      "నిర్ధారించు": 1539,
      "అవగాహన": 1540,
      "ఇంట్": 1541,
      "ఉంటే": 1542,
      "ఉందా": 1543,
      "గౌర": 1544,
      "జన్": 1545,
      "పంచు": 1546,
      "ఫె": 1547,
      "బ్రా": 1548,
      "భవిష": 1549,
      "శాల": 1550,
      "నికి": 1551,
      "నిమి": 1552,
      "స్పర": 1553,
      "క్య": 1554,
      "ప్రచ": 1555,
      "వింగ్": 1556,
      "రువు": 1557,
      "మారి": 1558,
      "మ్స్": 1559,
      "సంతో": 1560,
      "టిక్": 1561,
      "సాగ": 1562,
      "స్తో": 1563,
      "ఒకే": 1564,
      "వచ్చా": 1565,
      "పరిశ్రమ": 1566,
      "నీరు": 1567,
      "ఉండటం": 1568,
      "దీన్ని": 1569,
      "వ్యక్తిగ": 1570,
      "లైట్": 1571,
      "విధంగా": 1572,
      "సంబంధించిన": 1573,
      "ఇంధన": 1574,
      "జనరేట్": 1575,
      "వనరులను": 1576,
      "లక్ష్యాలను": 1577,
      "భాగం": 1578,
      "సాంకేతికత": 1579,
      "క్లిష్టమైన": 1580,
      "మేధస్సు": 1581,
      "ఇష్టపడ": 1582,
      "భూమి": 1583,
      "జ్ఞానం": 1584,
      "అనుకుంటున్నాను": 1585,
      "మెరుగుపరచడానికి": 1586,
      "శుభ్ర": 1587,
      "దయచేసి": 1588,
      "పునరుత్": 1589,
      "తీవ్రమైన": 1590,
      "శ్రేణి": 1591,
      "దారితీస్తుంది": 1592,
      "పర్యవే": 1593,
      "జరుగుతుంది": 1594,
      "బోస్టన్‌": 1595,
      "పాయింట్": 1596,
      "కూడిన": 1597,
      "పాల్గొ": 1598,
      "భవిష్య": 1599,
      "అద్": 1600,
      "అభ్య": 1601,
      "ఆప్": 1602,
      "ఉంచండి": 1603,
      "కలు": 1604,
      "గార": 1605,
      "గైన": 1606,
      "టప్పుడు": 1607,
      "తప్పు": 1608,
      "నడి": 1609,
      "పించే": 1610,
      "బడు": 1611,
      "యే": 1612,
      "యర్": 1613,
      "వచ": 1614,
      "శారు": 1615,
      "షె": 1616,
      "నిరా": 1617,
      "నిద్ర": 1618,
      "క్యా": 1619,
      "క్యూ": 1620,
      "డిగా": 1621,
      "ట్స్": 1622,
      "ించాలి": 1623,
      "ించాడు": 1624,
      "నాయ": 1625,
      "పురోగ": 1626,
      "స్తున్నారు": 1627,
      "కావ": 1628,
      "సింగ్": 1629,
      "వ్యూహ": 1630,
      "వులను": 1631,
      "రాన్ని": 1632,
      "తాడు": 1633,
      "పింగ్": 1634,
      "పోటీ": 1635,
      "సమయాన్ని": 1636,
      "వర్గీ": 1637,
      "ధ్యం": 1638,
      "గలరా": 1639,
      "ఉన్నాను": 1640,
      "శ్వాస": 1641,
      "కరించిన": 1642,
      "తీసుకోండి": 1643,
      "రెండ": 1644,
      "సమాజ": 1645,
      "వీటి": 1646,
      "పరస్పర": 1647,
      "ఇవ్వబడ్డ": 1648,
      "ఇంటె": 1649,
      "స్పష్టమైన": 1650,
      "మెరుగుపరు": 1651,
      "అందిస్తాయి": 1652,
      "సులభంగా": 1653,
      "బలమైన": 1654,
      "అవకాశాలను": 1655,
      "పెంచడానికి": 1656,
      "అవుట్": 1657,
      "ఎదుర్": 1658,
      "బడతాయి": 1659,
      "అందుబాటు": 1660,
      "మరొక": 1661,
      "లక్షణాలను": 1662,
      "మవుతుంది": 1663,
      "మెరుగైన": 1664,
      "బాధ్యత": 1665,
      "మోడల్": 1666,
      "అన్వే": 1667,
      "నిరోధ": 1668,
      "విశ్రాంతి": 1669,
      "ఇంట్లో": 1670,
      "పునరుత్పాదక": 1671,
      "భవిష్యత్తు": 1672,
      "అద్భు": 1673,
      "20": 1674,
      "ఏమీ": 1675,
      "కట్టు": 1676,
      "గాలి": 1677,
      "చద": 1678,
      "తృ": 1679,
      "నప్పుడు": 1680,
      "పడుతుంది": 1681,
      "బై": 1682,
      "రస్": 1683,
      "వంట": 1684,
      "సాయ": 1685,
      "ులకు": 1686,
      "రిత్ర": 1687,
      "ర్చ్": 1688,
      "ప్రవర్తన": 1689,
      "ించారు": 1690,
      "గారిథ": 1691,
      "లోప": 1692,
      "రుపు": 1693,
      "త్వరగా": 1694,
      "కాం": 1695,
      "తోంది": 1696,
      "మేణా": 1697,
      "నిర్వచ": 1698,
      "చెంద": 1699,
      "సమూహ": 1700,
      "వర్డ్": 1701,
      "కోవాలి": 1702,
      "బార్": 1703,
      "ఉన్నాడు": 1704,
      "క్రమేణా": 1705,
      "కాలక్రమేణా": 1706,
      "సూచన": 1707,
      "పేజీ": 1708,
      "క్రింది": 1709,
      "నెస్": 1710,
      "అనుభవాన్ని": 1711,
      "మొత్తంమీద": 1712,
      "ఫీడ్": 1713,
      "సామర్థ్యాన్ని": 1714,
      "ప్లాన్": 1715,
      "కాలుష": 1716,
      "అల్గారిథ": 1717,
      "ఉద్దేశ": 1718,
      "సహాయపడటానికి": 1719,
      "ప్రమాద": 1720,
      "____": 1721,
      "ఉత్తమ": 1722,
      "ఆకర్షణ": 1723,
      "వ్యాపారాలు": 1724,
      "సంఘటన": 1725,
      "లెక్కి": 1726,
      "ప్రోగ్రామ్": 1727,
      "నిమిష": 1728,
      "ఇంటెలి": 1729,
      "అందుబాటులో": 1730,
      "19": 1731,
      "ంశ": 1732,
      "అభ": 1733,
      "అమ్మ": 1734,
      "ఆస్వా": 1735,
      "ఇస్తుంది": 1736,
      "ఒంట": 1737,
      "గడ": 1738,
      "చట్ట": 1739,
      "నలు": 1740,
      "మౌ": 1741,
      "లూ": 1742,
      "సవా": 1743,
      "నిల": 1744,
      "రింగ్": 1745,
      "నుంచి": 1746,
      "కున్నాను": 1747,
      "ప్రక": 1748,
      "ప్రాయ": 1749,
      "గాయ": 1750,
      "చేర్చ": 1751,
      "తిలో": 1752,
      "లేఖ": 1753,
      "సంస్కృ": 1754,
      "గ్గా": 1755,
      "గుణంగా": 1756,
      "చుట్ట": 1757,
      "వ్యత్యా": 1758,
      "రించడం": 1759,
      "వేరు": 1760,
      "వచ్చింది": 1761,
      "చెందు": 1762,
      "స్టేట్": 1763,
      "కేటా": 1764,
      "కేంద్ర": 1765,
      "కూర": 1766,
      "ళ్లు": 1767,
      "చూసు": 1768,
      "సరైన": 1769,
      "సమాన": 1770,
      "ఫిషియ": 1771,
      "గుర్తు": 1772,
      "ఎక్కువగా": 1773,
      "నిర్వహణ": 1774,
      "హాన్ని": 1775,
      "ఆరోగ్యకరమైన": 1776,
      "అయిన": 1777,
      "చాట్": 1778,
      "ాలనుకుంటున్నారా": 1779,
      "ప్రయాణ": 1780,
      "ప్రాధాన్యత": 1781,
      "జోడి": 1782,
      "ప్రాజెక్ట్": 1783,
      "శైలి": 1784,
      "ఆటోమే": 1785,
      "వ్యక్తిగతీ": 1786,
      "పర్యవేక్ష": 1787,
      "అభ్యా": 1788,
      "ఆశ్": 1789,
      "ఎక్క": 1790,
      "ఎల్ల": 1791,
      "కర్య": 1792,
      "గలి": 1793,
      "గలను": 1794,
      "చల్ల": 1795,
      "చరిత్ర": 1796,
      "ఛా": 1797,
      "ధర": 1798,
      "నగ": 1799,
      "ప్యా": 1800,
      "బడే": 1801,
      "శ్య": 1802,
      "సలు": 1803,
      "సారా": 1804,
      "హాని": 1805,
      "ోద్": 1806,
      "ౌడ్": 1807,
      "నియం": 1808,
      "ర్యా": 1809,
      "స్వే": 1810,
      "కున్నారు": 1811,
      "ప్రజా": 1812,
      "ించదగిన": 1813,
      "విరా": 1814,
      "లోని": 1815,
      "లేదని": 1816,
      "సారి": 1817,
      "వ్యూ": 1818,
      "వ్యర్థ": 1819,
      "వేశ": 1820,
      "పెరగ": 1821,
      "పరిచ": 1822,
      "రాత్రి": 1823,
      "తాజా": 1824,
      "అనుస": 1825,
      "సమతుల": 1826,
      "కూడ": 1827,
      "వర్త": 1828,
      "బ్ద": 1829,
      "జాన్": 1830,
      "కాలం": 1831,
      "సెర్చ్": 1832,
      "భావోద్": 1833,
      "ఇవ్వడానికి": 1834,
      "ఆరోగ్యం": 1835,
      "మనకు": 1836,
      "చేసుకోవడానికి": 1837,
      "చెప్పి": 1838,
      "నమూనా": 1839,
      "మార్పులు": 1840,
      "విషయం": 1841,
      "ఫోన్": 1842,
      "ప్రభావి": 1843,
      "పెంచడం": 1844,
      "స్థిరమైన": 1845,
      "సౌకర్య": 1846,
      "ఇంటికి": 1847,
      "కష్టం": 1848,
      "శీల": 1849,
      "జెన్స్": 1850,
      "స్నేహితు": 1851,
      "కల్పన": 1852,
      "స్తున్నాము": 1853,
      "అమెరి": 1854,
      "ప్రదాయ": 1855,
      "ఉష్ణోగ్ర": 1856,
      "దగ్గర": 1857,
      "అద్భుతమైన": 1858,
      "తృప్": 1859,
      "ఇంటెలిజెన్స్": 1860,
      "స్వేచ్ఛ": 1861,
      "భావోద్వేగ": 1862,
      "ఆవి": 1863,
      "ఏదే": 1864,
      "ఏవై": 1865,
      "కైన": 1866,
      "టూ": 1867,
      "టంటే": 1868,
      "తరం": 1869,
      "త్రా": 1870,
      "దైన": 1871,
      "పడ్": 1872,
      "మ్యా": 1873,
      "రచ": 1874,
      "రాలు": 1875,
      "వత": 1876,
      "వయస్సు": 1877,
      "షిక": 1878,
      "ెం": 1879,
      "స్మార్": 1880,
      "క్లా": 1881,
      "విన": 1882,
      "తింపు": 1883,
      "ప్ల": 1884,
      "మ్ము": 1885,
      "టార్": 1886,
      "లేకుండా": 1887,
      "సంతృప్": 1888,
      "టిమై": 1889,
      "గ్లో": 1890,
      "చువల్": 1891,
      "సాధన": 1892,
      "ఒకరి": 1893,
      "చివరగా": 1894,
      "పాస్": 1895,
      "పెంచు": 1896,
      "ష్టంగా": 1897,
      "మేనే": 1898,
      "తీయ": 1899,
      "కేట్": 1900,
      "వర్చువల్": 1901,
      "వ్వు": 1902,
      "సరళ": 1903,
      "తీసుకోవడానికి": 1904,
      "సృష్టి": 1905,
      "ఏమిటంటే": 1906,
      "శక్తివంతమైన": 1907,
      "పేర్": 1908,
      "గుర్తింపు": 1909,
      "మేరీకి": 1910,
      "ఇంటరా": 1911,
      "ఆధారపడి": 1912,
      "దీనికి": 1913,
      "విశ్వ": 1914,
      "నమూనాలను": 1915,
      "ఖచ్చిత": 1916,
      "ఉద్యోగు": 1917,
      "పద్ధతులను": 1918,
      "ందోళ": 1919,
      "పెరుగుదల": 1920,
      "సామర్థ్యం": 1921,
      "వేయడం": 1922,
      "విశ్లేషణ": 1923,
      "అనుకుంటున్నారా": 1924,
      "ఎవరు": 1925,
      "కుటుం": 1926,
      "పరిగణన": 1927,
      "పెట్టుబడి": 1928,
      "ప్రయత్నించ": 1929,
      "య్యే": 1930,
      "రాయండి": 1931,
      "తగ్గిస్తుంది": 1932,
      "తగినంత": 1933,
      "తొలగ": 1934,
      "నాణ్యత": 1935,
      "ఆప్టిమై": 1936,
      "ఆశ్చర్య": 1937,
      "ఎల్లప్పుడూ": 1938,
      "ఏదేమైనా": 1939,
      "ఏవైనా": 1940,
      "స్మార్ట్": 1941,
      "12": 1942,
      "అతి": 1943,
      "అదే": 1944,
      "ఆందోళ": 1945,
      "ఇద్ద": 1946,
      "ఎల్": 1947,
      "ఎరుపు": 1948,
      "ఏదో": 1949,
      "కఠ": 1950,
      "గడి": 1951,
      "జరిగి": 1952,
      "డై": 1953,
      "తల్లి": 1954,
      "థమిక": 1955,
      "పక్ష": 1956,
      "ఫు": 1957,
      "ఫ్రా": 1958,
      "ఫేస్": 1959,
      "బృ": 1960,
      "భయ": 1961,
      "మాలు": 1962,
      "మంచు": 1963,
      "యన": 1964,
      "రంత": 1965,
      "ల్యా": 1966,
      "వైన": 1967,
      "వారం": 1968,
      "వద్దు": 1969,
      "ేషన్": 1970,
      "నిరంత": 1971,
      "క్టివ్": 1972,
      "దిగు": 1973,
      "ప్రసిద్ధ": 1974,
      "విడు": 1975,
      "లోత": 1976,
      "ల్లు": 1977,
      "మాండ్": 1978,
      "వాడు": 1979,
      "పులు": 1980,
      "సందర్": 1981,
      "సందర్శ": 1982,
      "టిఫిషియ": 1983,
      "కోడ్": 1984,
      "లింగ్": 1985,
      "న్నీ": 1986,
      "సింది": 1987,
      "సిఫా": 1988,
      "డ్డు": 1989,
      "చిరు": 1990,
      "పెం": 1991,
      "ండ్ర": 1992,
      "అనువర్తన": 1993,
      "ందుకు": 1994,
      "వెచ్చ": 1995,
      "ప్రాసెస్": 1996,
      "ప్రాథమిక": 1997,
      "పొడ": 1998,
      "పొర": 1999,
      "కలిగే": 2000,
      "డాడు": 2001,
      "చూప": 2002,
      "ఉండటానికి": 2003,
      "ప్రతికూల": 2004,
      "గలవు": 2005,
      "ద్దీ": 2006,
      "టీమ్": 2007,
      "తరగ": 2008,
      "కలిగిస్తుంది": 2009,
      "యోగాన్ని": 2010,
      "కృత": 2011,
      "సైడ్": 2012,
      "కారణం": 2013,
      "ప్రేరణ": 2014,
      "అందించడానికి": 2015,
      "వాతావరణంలో": 2016,
      "అనుభవం": 2017,
      "గుర్తించడానికి": 2018,
      "మార్గాలు": 2019,
      "ఆర్టిఫిషియ": 2020,
      "ఫీచర్": 2021,
      "ట్రాఫిక్": 2022,
      "దోహ": 2023,
      "ప్రోత్సహించడం": 2024,
      "సామర్థ్య": 2025,
      "వస్తువులు": 2026,
      "సిస్టెంట్": 2027,
      "ప్రత్యేకమైన": 2028,
      "ఉద్గార": 2029,
      "సహాయపడతాయి": 2030,
      "ఆకర్ష": 2031,
      "ఫలితంగా": 2032,
      "గణనీయంగా": 2033,
      "బహుళ": 2034,
      "కాలిక": 2035,
      "ప్రొడ": 2036,
      "విధానాన్ని": 2037,
      "మరోవైపు": 2038,
      "సంక్షిప్తంగా": 2039,
      "కళా": 2040,
      "ఆసక్తి": 2041,
      "విభజ": 2042,
      "ప్రతిస్పంద": 2043,
      "క్లౌడ్": 2044,
      "భోజ": 2045,
      "నిర్ధారించుకోండి": 2046,
      "సంతోష": 2047,
      "ప్రకటన": 2048,
      "చుట్టూ": 2049,
      "పరిగణనలోకి": 2050,
      "విడుదల": 2051,
      "సిఫార్సు": 2052,
      "ఆర్టిఫిషియల్": 2053,
      "ంక్": 2054,
      "ఆపి": 2055,
      "ఇచ్చి": 2056,
      "ఇప్పటి": 2057,
      "ఉద": 2058,
      "ఏఐ": 2059,
      "ఒక్క": 2060,
      "జరగ": 2061,
      "ణు": 2062,
      "ధు": 2063,
      "నలను": 2064,
      "పత్తి": 2065,
      "రహ": 2066,
      "రాల": 2067,
      "షనల్": 2068,
      "హీ": 2069,
      "ునా": 2070,
      "‌ను": 2071,
      "నిన్న": 2072,
      "నిష్": 2073,
      "ర్యు": 2074,
      "స్వంత": 2075,
      "న్ల": 2076,
      "క్పథ": 2077,
      "్యు": 2078,
      "డిజి": 2079,
      "కిల్": 2080,
      "తుందని": 2081,
      "ానిక": 2082,
      "చేస్తారు": 2083,
      "చేశారు": 2084,
      "ల్చ": 2085,
      "లిటీ": 2086,
      "కాన్": 2087,
      "లాజ": 2088,
      "చివ": 2089,
      "చిపో": 2090,
      "వేది": 2091,
      "తీర్": 2092,
      "పిలు": 2093,
      "పోషి": 2094,
      "ప్రాముఖ్య": 2095,
      "రోజ": 2096,
      "డాన్ని": 2097,
      "తెలి": 2098,
      "బాట్": 2099,
      "జాగ్ర": 2100,
      "వైవి": 2101,
      "పనిచేయడం": 2102,
      "పనిచేస్తు": 2103,
      "సహాయపడే": 2104,
      "సృజనా": 2105,
      "ఫిట్": 2106,
      "దృక్పథ": 2107,
      "వినియోగం": 2108,
      "అంగీ": 2109,
      "శిలాజ": 2110,
      "టామ్‌తో": 2111,
      "న్యాయ": 2112,
      "క్రమబద్ధ": 2113,
      "రక్షించడానికి": 2114,
      "కమ్యూనికేట్": 2115,
      "నైతిక": 2116,
      "అనుమత": 2117,
      "కంప్యూటింగ్": 2118,
      "అధునా": 2119,
      "నమూనాలు": 2120,
      "విషయ": 2121,
      "తెలియజే": 2122,
      "వలసిన": 2123,
      "నీటిని": 2124,
      "సమర్థవంతమైన": 2125,
      "వేయడానికి": 2126,
      "000": 2127,
      "నిర్ధారించడానికి": 2128,
      "నిర్ణయాలు": 2129,
      "సరిపో": 2130,
      "పూర్తిగా": 2131,
      "టైమ్": 2132,
      "కొనసాగ": 2133,
      "పార్టీ": 2134,
      "జనాభా": 2135,
      "న్యూరల్": 2136,
      "భద్రతా": 2137,
      "సురక్షితంగా": 2138,
      "విద్యార్థులు": 2139,
      "బయట": 2140,
      "ప్రయోజనాలు": 2141,
      "పనితీరును": 2142,
      "దుస్తులు": 2143,
      "నిమగ్న": 2144,
      "ఎవరైనా": 2145,
      "ఆకర్షణీయ": 2146,
      "కేటాయ": 2147,
      "గుర్తుంచు": 2148,
      "నియంత్": 2149,
      "పరిచయం": 2150,
      "గ్లోబల్": 2151,
      "కుటుంబం": 2152,
      "కఠిన": 2153,
      "బృంద": 2154,
      "భోజనం": 2155,
      "డిజిటల్": 2156,
      "జాగ్రత్త": 2157,
      "సృజనాత్మక": 2158,
      "అధునాతన": 2159,
      "18": 2160,
      "ఆడ": 2161,
      "ఇలా": 2162,
      "ఎప్పుడు": 2163,
      "కరి": 2164,
      "కనీ": 2165,
      "ఖరీ": 2166,
      "గర్": 2167,
      "గారు": 2168,
      "చరణ": 2169,
      "జట్టు": 2170,
      "డ్యూ": 2171,
      "థి": 2172,
      "దాలు": 2173,
      "పట్ల": 2174,
      "ఫార": 2175,
      "బొ": 2176,
      "భారీ": 2177,
      "మతి": 2178,
      "మరణ": 2179,
      "రండి": 2180,
      "రంగా": 2181,
      "సన": 2182,
      "హ్యా": 2183,
      "ాడని": 2184,
      "ిస్తుంది": 2185,
      "ెడ్": 2186,
      "‌లో": 2187,
      "నిమా": 2188,
      "నిబంధ": 2189,
      "క్యు": 2190,
      "ారెంట్": 2191,
      "ప్రసి": 2192,
      "రుచి": 2193,
      "ంటర్": 2194,
      "త్వాన్ని": 2195,
      "ల్డ్": 2196,
      "పున": 2197,
      "సంప్ర": 2198,
      "సంక్లిష్టమైన": 2199,
      "చేయబడిన": 2200,
      "గ్గు": 2201,
      "ంతా": 2202,
      "చురు": 2203,
      "సార్లు": 2204,
      "వ్యవహ": 2205,
      "ముగి": 2206,
      "స్తూ": 2207,
      "స్తాను": 2208,
      "చిన": 2209,
      "పరిణా": 2210,
      "పరిజ్ఞానం": 2211,
      "ష్ట్ర": 2212,
      "రీసై": 2213,
      "పోర్ట్": 2214,
      "ప్రాసె": 2215,
      "ప్రాతిని": 2216,
      "బ్దం": 2217,
      "పొందు": 2218,
      "బాధ": 2219,
      "ఉండాలని": 2220,
      "తీసుకోవ": 2221,
      "సమాధా": 2222,
      "వీస్": 2223,
      "టర్లు": 2224,
      "సూర్యు": 2225,
      "జింగ్": 2226,
      "**:": 2227,
      "ఇవ్వడం": 2228,
      "స్థితి": 2229,
      "తగ్గించడంలో": 2230,
      "నాలుగు": 2231,
      "గేమ్": 2232,
      "ప్రేరే": 2233,
      "ఉత్పత్తు": 2234,
      "సాంప్రదాయ": 2235,
      "ఖర్చులు": 2236,
      "వనరులు": 2237,
      "కమ్యూనిటీ": 2238,
      "తీసుకురా": 2239,
      "ఆలోచ": 2240,
      "చేస్తున్న": 2241,
      "రియల్": 2242,
      "ఖచ్చితమైన": 2243,
      "వ్యక్తుల": 2244,
      "పొందడానికి": 2245,
      "పరిష్కరించడానికి": 2246,
      "దశలను": 2247,
      "ఎదురు": 2248,
      "విలువైన": 2249,
      "కనుగొనడానికి": 2250,
      "జీవన": 2251,
      "ఫలిత": 2252,
      "పనులను": 2253,
      "అంతర్దృష్ట": 2254,
      "నిర్మించడానికి": 2255,
      "బ్బంది": 2256,
      "కుంటారు": 2257,
      "విధానం": 2258,
      "అడగ": 2259,
      "ప్రాప్యత": 2260,
      "ప్రేక్షకులను": 2261,
      "సమీక్ష": 2262,
      "వ్యాయామం": 2263,
      "విస్తృత": 2264,
      "ఒత్తిడి": 2265,
      "దీర్ఘకాలిక": 2266,
      "ఎలక్": 2267,
      "వాడకం": 2268,
      "బ్రాండ్": 2269,
      "పాల్గొన": 2270,
      "షెడ్యూ": 2271,
      "ప్రభావితం": 2272,
      "లోతైన": 2273,
      "పెంపొందించ": 2274,
      "ప్రొడక్ట్": 2275,
      "కఠినమైన": 2276,
      "కనీసం": 2277,
      "10": 2278,
      "అడ్": 2279,
      "అక్కడ": 2280,
      "అసిస్టెంట్": 2281,
      "ఆన": 2282,
      "ఊహ": 2283,
      "కత": 2284,
      "కండి": 2285,
      "కప్పు": 2286,
      "క్రా": 2287,
      "గది": 2288,
      "గలు": 2289,
      "చదు": 2290,
      "జెట్": 2291,
      "దానికి": 2292,
      "ధో": 2293,
      "పాల": 2294,
      "పార": 2295,
      "పత్రి": 2296,
      "బేస్": 2297,
      "మల్": 2298,
      "మళ్ళ": 2299,
      "లం": 2300,
      "వాలు": 2301,
      "శతా": 2302,
      "సల": 2303,
      "సబ్": 2304,
      "హక్కు": 2305,
      "ాత్మక": 2306,
      "ిన్న": 2307,
      "ోల్": 2308,
      "్వ": 2309,
      "రిక్": 2310,
      "ర్స్": 2311,
      "స్నా": 2312,
      "స్పా": 2313,
      "స్పె": 2314,
      "న్లను": 2315,
      "ంచెం": 2316,
      "డింగ్": 2317,
      "డియో": 2318,
      "ప్రస్తు": 2319,
      "ప్రకృ": 2320,
      "తులకు": 2321,
      "ించబడుతుంది": 2322,
      "విచ్ఛ": 2323,
      "తిమ": 2324,
      "ండింటి": 2325,
      "మీతో": 2326,
      "మాం": 2327,
      "మాను": 2328,
      "టాన్ని": 2329,
      "పునర్": 2330,
      "లేను": 2331,
      "లేడు": 2332,
      "సందే": 2333,
      "లికి": 2334,
      "సినిమా": 2335,
      "సాన్ని": 2336,
      "లాభ": 2337,
      "రించండి": 2338,
      "స్తే": 2339,
      "కొంచెం": 2340,
      "రాష్ట్ర": 2341,
      "అనుగుణంగా": 2342,
      "చెల్ల": 2343,
      "చెబు": 2344,
      "స్థానిక": 2345,
      "స్టారెంట్": 2346,
      "కేల": 2347,
      "బ్ల": 2348,
      "డాను": 2349,
      "ఉన్నప్పుడు": 2350,
      "రెండింటి": 2351,
      "రెస్టారెంట్": 2352,
      "రేటు": 2353,
      "కాలంలో": 2354,
      "వినియోగాన్ని": 2355,
      "అభిప్రాయ": 2356,
      "దృశ్య": 2357,
      "కరంగా": 2358,
      "దేశం": 2359,
      "యూని": 2360,
      "అంతిమ": 2361,
      "తగ్గించవచ్చు": 2362,
      "మేరీని": 2363,
      "వ్యవస్థను": 2364,
      "వ్యవస్థలు": 2365,
      "స్పష్టంగా": 2366,
      "ఖర్చుతో": 2367,
      "గుర్తించడం": 2368,
      "గుర్తించండి": 2369,
      "చేసుకోవడం": 2370,
      "తీసుకునే": 2371,
      "సమస్యను": 2372,
      "సమస్యలను": 2373,
      "సర్వీస్": 2374,
      "డెవల": 2375,
      "ప్రభావాలను": 2376,
      "చూడండి": 2377,
      "ాలనుకుంటున్నాను": 2378,
      "టెక్స్ట్": 2379,
      "చేసింది": 2380,
      "సరిగ్గా": 2381,
      "మారుతుంది": 2382,
      "కార్యక్రమ": 2383,
      "అతనికి": 2384,
      "జ్ఞాప": 2385,
      "ించగలవు": 2386,
      "అంశాలను": 2387,
      "అదనపు": 2388,
      "ప్రయాణం": 2389,
      "శీర్": 2390,
      "ఆటగా": 2391,
      "స్నేహితులు": 2392,
      "ప్రయోజనాలను": 2393,
      "పోయింది": 2394,
      "భిన్నంగా": 2395,
      "ప్రాప్యతను": 2396,
      "షాపింగ్": 2397,
      "విద్యుత్": 2398,
      "కనెక్ట్": 2399,
      "అలవా": 2400,
      "కోల్పో": 2401,
      "మెరుగుపరుస్తుంది": 2402,
      "అల్గారిథమ్": 2403,
      "కూరగాయ": 2404,
      "వ్యక్తిగతీకరించిన": 2405,
      "అమెరికా": 2406,
      "సంతృప్తి": 2407,
      "ఇప్పటికే": 2408,
      "ధోరణ": 2409,
      "మళ్ళీ": 2410,
      "విచ్ఛిన్న": 2411,
      "!.": 2412,
      "అక్ష": 2413,
      "అద్ద": 2414,
      "ఆల": 2415,
      "ఆశి": 2416,
      "ఆయన": 2417,
      "ఎత్తు": 2418,
      "ఏది": 2419,
      "ఒప్ప": 2420,
      "గం": 2421,
      "గమని": 2422,
      "జాల": 2423,
      "జనీ": 2424,
      "ట్యా": 2425,
      "ణాలు": 2426,
      "తూ": 2427,
      "తద్వారా": 2428,
      "థా": 2429,
      "ధాని": 2430,
      "ధులు": 2431,
      "నమ్ము": 2432,
      "పాయ": 2433,
      "పడే": 2434,
      "బే": 2435,
      "ళి": 2436,
      "వార": 2437,
      "హౌ": 2438,
      "ాము": 2439,
      "రిని": 2440,
      "ర్క్": 2441,
      "స్యం": 2442,
      "ంచే": 2443,
      "క్వి": 2444,
      "్యానికి": 2445,
      "కుడి": 2446,
      "కుక్క": 2447,
      "యుద్ధ": 2448,
      "డిస్": 2449,
      "డిమాండ్": 2450,
      "ప్రకాశ": 2451,
      "ప్రకారం": 2452,
      "కిరణ": 2453,
      "లుదే": 2454,
      "ట్లను": 2455,
      "విజు": 2456,
      "చేశాడు": 2457,
      "వాయి": 2458,
      "చేయాలో": 2459,
      "లికేషన్": 2460,
      "కాదా": 2461,
      "కాకుండా": 2462,
      "సున్ని": 2463,
      "సుస్థిర": 2464,
      "సిస్": 2465,
      "సాధ్య": 2466,
      "లాంగ్": 2467,
      "ముంద": 2468,
      "వేచి": 2469,
      "వేత్త": 2470,
      "పెరిగిన": 2471,
      "యితే": 2472,
      "రావృ": 2473,
      "పిక్": 2474,
      "ఉపయోగించడానికి": 2475,
      "ళ్లను": 2476,
      "ాలిటీ": 2477,
      "పొందిన": 2478,
      "ెట్లు": 2479,
      "బిజీ": 2480,
      "బిలిటీ": 2481,
      "ఉన్నప్పటికీ": 2482,
      "రేషన్": 2483,
      "ెక్టు": 2484,
      "భావనను": 2485,
      "రోగి": 2486,
      "తేదీ": 2487,
      "ాల్సి": 2488,
      "లైజేషన్": 2489,
      "ఫిల్": 2490,
      "పర్వత": 2491,
      "చర్యను": 2492,
      "గోరిథ": 2493,
      "ఉంటారు": 2494,
      "మొత్తంలో": 2495,
      "సంబంధాలను": 2496,
      "సంబంధిత": 2497,
      "ఇంజనీ": 2498,
      "వినియోగదారులను": 2499,
      "సమాచార": 2500,
      "వాతావరణం": 2501,
      "వాతావరణాన్ని": 2502,
      "ఆధారపడ": 2503,
      "ప్రారంభించండి": 2504,
      "ఆహారాన్ని": 2505,
      "మైంది": 2506,
      "ఉత్పత్తిని": 2507,
      "వేర్వేరు": 2508,
      "సర్దు": 2509,
      "ప్రోత్సహించడానికి": 2510,
      "సంభాషణ": 2511,
      "పెట్టడానికి": 2512,
      "అవుతుంది": 2513,
      "అల్గోరిథ": 2514,
      "వార్మింగ్": 2515,
      "చేయగలవు": 2516,
      "దృష్టిని": 2517,
      "కారణంగా": 2518,
      "కపోతే": 2519,
      "దించడానికి": 2520,
      "రకమైన": 2521,
      "పెట్టుబడు": 2522,
      "ట్లయితే": 2523,
      "అప్లికేషన్": 2524,
      "టేబుల్": 2525,
      "సురక్షితమైన": 2526,
      "కొంతమంది": 2527,
      "బయలుదే": 2528,
      "నివస": 2529,
      "నివారించడానికి": 2530,
      "ప్రయోజనం": 2531,
      "శరీర": 2532,
      "ఏర్పాటు": 2533,
      "గ్రీన్": 2534,
      "జీవితంలో": 2535,
      "వ్యాప్తంగా": 2536,
      "డ్రైవింగ్": 2537,
      "వాస్తవి": 2538,
      "పోయాడు": 2539,
      "బ్లాక్": 2540,
      "స్తోంది": 2541,
      "బోస్టన్‌లో": 2542,
      "పురోగతి": 2543,
      "ఎదుర్కొ": 2544,
      "నిమిషాలు": 2545,
      "ఒంటరిగా": 2546,
      "సంస్కృతి": 2547,
      "చెందుతున్న": 2548,
      "నగరం": 2549,
      "కూడదు": 2550,
      "పెంచుతుంది": 2551,
      "ఇంటరాక్టివ్": 2552,
      "దోహదం": 2553,
      "ఉద్గారాలను": 2554,
      "వేదిక": 2555,
      "ఖరీదైన": 2556,
      "పునరావృ": 2557,
      "ప్రాతినిధ్యం": 2558,
      "షెడ్యూల్": 2559,
      "శీర్షిక": 2560,
      "హౌస్": 2561,
      "అల్గోరిథం": 2562,
      "ంప్": 2563,
      "ంగి": 2564,
      "అధ్య": 2565,
      "ఇష్టమైన": 2566,
      "ఉపరి": 2567,
      "ఉంటు": 2568,
      "ఎడ": 2569,
      "ఎగు": 2570,
      "ఎక్స్": 2571,
      "ఎనర్": 2572,
      "కౌ": 2573,
      "కరం": 2574,
      "కత్తి": 2575,
      "గడానికి": 2576,
      "డయాక్": 2577,
      "తకు": 2578,
      "తదు": 2579,
      "దొ": 2580,
      "ధ్యా": 2581,
      "ధిక": 2582,
      "నది": 2583,
      "పం": 2584,
      "పణ": 2585,
      "పన్ను": 2586,
      "పచ్చ": 2587,
      "పంప": 2588,
      "ఫల": 2589,
      "బూ": 2590,
      "బహి": 2591,
      "బరువు": 2592,
      "భౌ": 2593,
      "యన్": 2594,
      "రవ": 2595,
      "వరు": 2596,
      "వస్తుంది": 2597,
      "వారీ": 2598,
      "సరాన్ని": 2599,
      "హృ": 2600,
      "హ్య": 2601,
      "ీకృత": 2602,
      "ులతో": 2603,
      "ెస్": 2604,
      "నిక": 2605,
      "రిడ్": 2606,
      "స్వచ్": 2607,
      "స్టిక్": 2608,
      "కులకు": 2609,
      "ప్రయోగ": 2610,
      "ప్రదర్శ": 2611,
      "తున్నారు": 2612,
      "ందింది": 2613,
      "ించాను": 2614,
      "విడి": 2615,
      "లోతు": 2616,
      "రుగా": 2617,
      "తిరే": 2618,
      "త్వర": 2619,
      "డుగు": 2620,
      "మాన్": 2621,
      "నేపథ": 2622,
      "దులు": 2623,
      "ద్దా": 2624,
      "లిచ": 2625,
      "గుండ": 2626,
      "కాఫీ": 2627,
      "కావడానికి": 2628,
      "వ్యతిరే": 2629,
      "పాట": 2630,
      "పారి": 2631,
      "కొద్దీ": 2632,
      "ండర్": 2633,
      "పరిశీల": 2634,
      "ందర": 2635,
      "యిన్": 2636,
      "పిలువ": 2637,
      "రీర్": 2638,
      "చెల్లి": 2639,
      "టువంటి": 2640,
      "ందున": 2641,
      "అవసరాన్ని": 2642,
      "వర్ష": 2643,
      "రోబో": 2644,
      "డాక్యు": 2645,
      "ప్రతిబి": 2646,
      "మొబై": 2647,
      "డేటాబేస్": 2648,
      "సూర్య": 2649,
      "వ్యాసం": 2650,
      "ముఖ్యంగా": 2651,
      "గ్రే": 2652,
      "క్రిప్": 2653,
      "కెరీర్": 2654,
      "గోళ": 2655,
      "నిర్వహించడం": 2656,
      "తెలుసుకోవడానికి": 2657,
      "ఇంజి": 2658,
      "పూర్త": 2659,
      "చెప్పండి": 2660,
      "ఆలోచి": 2661,
      "సులభతరం": 2662,
      "అలాగే": 2663,
      "బలం": 2664,
      "దోష": 2665,
      "వ్యాపారం": 2666,
      "పెరుగుతున్న": 2667,
      "బడ్జెట్": 2668,
      "అందమైన": 2669,
      "అందరికీ": 2670,
      "నిర్ణయించు": 2671,
      "శోధ": 2672,
      "ఇష్టం": 2673,
      "వస్తువు": 2674,
      "కథా": 2675,
      "ప్రమాదం": 2676,
      "ప్రక్రియను": 2677,
      "సిద్ధంగా": 2678,
      "కీలకం": 2679,
      "ఆలోచనలు": 2680,
      "ఉపయోగిస్తారు": 2681,
      "కోరుకుంటు": 2682,
      "కనిపి": 2683,
      "దూరం": 2684,
      "శ్రేయస్సు": 2685,
      "స్థాప": 2686,
      "నివసి": 2687,
      "వాహం": 2688,
      "పోయిన": 2689,
      "నిర్మాణం": 2690,
      "చూపుతుంది": 2691,
      "శరీరం": 2692,
      "హోమ్": 2693,
      "చేరుకోవడానికి": 2694,
      "లేకపోవడం": 2695,
      "ప్రతిస్పందించ": 2696,
      "స్వీయ": 2697,
      "వదిలి": 2698,
      "విజయవంతమైన": 2699,
      "నైపుణ్యాలను": 2700,
      "స్టోర్": 2701,
      "ప్రచార": 2702,
      "వీటిలో": 2703,
      "అన్వేష": 2704,
      "కట్టుబడి": 2705,
      "సారాంశ": 2706,
      "త్రాన్ని": 2707,
      "సరళమైన": 2708,
      "విశ్వస": 2709,
      "సందర్భ": 2710,
      "వెచ్చని": 2711,
      "పొడవు": 2712,
      "ఉదయం": 2713,
      "తెలియజేయ": 2714,
      "ఆకర్షణీయమైన": 2715,
      "గుర్తుంచుకోండి": 2716,
      "జాగ్రత్తగా": 2717,
      "ప్రాసెసింగ్": 2718,
      "సమాధానం": 2719,
      "అంతిమంగా": 2720,
      "ఎనర్జీ": 2721,
      "డయాక్సైడ్": 2722,
      "తదుపరి": 2723,
      "స్వచ్ఛ": 2724,
      "పిలువబడే": 2725,
      "(\"": 2726,
      "):": 2727,
      "15": 2728,
      "30": 2729,
      "అయ్యే": 2730,
      "ఆల్": 2731,
      "ఆస్ట్ర": 2732,
      "ఇక": 2733,
      "ఇంత": 2734,
      "ఇటీ": 2735,
      "ఎన్ని": 2736,
      "ఎప్పుడ": 2737,
      "ఎప్పటికీ": 2738,
      "కారాన్ని": 2739,
      "ఖీ": 2740,
      "గృ": 2741,
      "గటు": 2742,
      "చీ": 2743,
      "జత": 2744,
      "టన్": 2745,
      "డయా": 2746,
      "తని": 2747,
      "తలను": 2748,
      "దె": 2749,
      "దలకు": 2750,
      "నొ": 2751,
      "నంలో": 2752,
      "ఫ్యా": 2753,
      "బది": 2754,
      "రకం": 2755,
      "శబ్ద": 2756,
      "సగటు": 2757,
      "హారం": 2758,
      "ేమ్": 2759,
      "నివ్వ": 2760,
      "నిపుణ": 2761,
      "ర్ధ": 2762,
      "ర్పు": 2763,
      "స్టి": 2764,
      "స్కా": 2765,
      "స్టు": 2766,
      "న్సర్": 2767,
      "ంచడం": 2768,
      "క్త": 2769,
      "దిశ": 2770,
      "కుడు": 2771,
      "కున్నా": 2772,
      "కులతో": 2773,
      "ారణ": 2774,
      "యునై": 2775,
      "కిత్": 2776,
      "తుందో": 2777,
      "ించబడింది": 2778,
      "గానికి": 2779,
      "విమా": 2780,
      "వినో": 2781,
      "ల్త్": 2782,
      "ండింగ్": 2783,
      "మాట": 2784,
      "ప్పి": 2785,
      "వాదాలు": 2786,
      "నేరుగా": 2787,
      "సంరక్ష": 2788,
      "టివి": 2789,
      "చేయాలని": 2790,
      "గుడ్": 2791,
      "స్తుందని": 2792,
      "న్నో": 2793,
      "క్షీ": 2794,
      "లాన్ని": 2795,
      "చికిత్": 2796,
      "తోట": 2797,
      "వేడి": 2798,
      "వేరియ": 2799,
      "పాజి": 2800,
      "మెటీ": 2801,
      "మిక్": 2802,
      "ాయితీ": 2803,
      "యిర్": 2804,
      "అనుకున్నాను": 2805,
      "రీలు": 2806,
      "పోల్చ": 2807,
      "చెట్టు": 2808,
      "వెను": 2809,
      "వెంట": 2810,
      "మార్గాన్ని": 2811,
      "కలిగ": 2812,
      "చూపించ": 2813,
      "ంటేషన్": 2814,
      "గలదు": 2815,
      "ఉన్నాము": 2816,
      "సరదా": 2817,
      "తీసుకో": 2818,
      "మూసి": 2819,
      "శాంత": 2820,
      "చేయడంలో": 2821,
      "సెల": 2822,
      "తగ్గు": 2823,
      "భావం": 2824,
      "భావన": 2825,
      "తేడ": 2826,
      "బుక్": 2827,
      "ఉత్పాదక": 2828,
      "ఫికేషన్": 2829,
      "తెలుసా": 2830,
      "చర్యలను": 2831,
      "తగ్గించడం": 2832,
      "ించినప్పుడు": 2833,
      "వ్యవస్థల": 2834,
      "లక్ష్యం": 2835,
      "నెమ్మ": 2836,
      "మ్యూజి": 2837,
      "పూర్వ": 2838,
      "సోద": 2839,
      "రోజువారీ": 2840,
      "వేగవంతమైన": 2841,
      "లక్ష్యంగా": 2842,
      "ఆహ్": 2843,
      "చేసేటప్పుడు": 2844,
      "ప్రపంచంలో": 2845,
      "చెప్పా": 2846,
      "ఆర్కి": 2847,
      "ఆర్డర్": 2848,
      "టెలి": 2849,
      "భాగస్వా": 2850,
      "ఫ్రేమ్": 2851,
      "మార్పులను": 2852,
      "నిర్ణయం": 2853,
      "నిజం": 2854,
      "నిజాయితీ": 2855,
      "ప్రభావవంతమైన": 2856,
      "మాట్లాడు": 2857,
      "సంభాష": 2858,
      "చూడటం": 2859,
      "ాలనుకుంటున్న": 2860,
      "సాధించడానికి": 2861,
      "పాత్రలు": 2862,
      "పరిష్కార": 2863,
      "ప్లాట్": 2864,
      "ప్రశ్నలు": 2865,
      "ఎదుగు": 2866,
      "అనుమతిస్తాయి": 2867,
      "ఆదాయాన్ని": 2868,
      "అల్పా": 2869,
      "చేస్తాడు": 2870,
      "వార్తా": 2871,
      "అంచనాలు": 2872,
      "అత్యవ": 2873,
      "చ్ఛిక": 2874,
      "ఉత్తే": 2875,
      "పరిగణించ": 2876,
      "పనులు": 2877,
      "నేర్చుకోవడానికి": 2878,
      "ఎంచుకోండి": 2879,
      "ఎంచుకున్న": 2880,
      "సంవత్సరాల": 2881,
      "పునరుద్ధ": 2882,
      "పరిస్థితులు": 2883,
      "కనిపించే": 2884,
      "పాఠశాల": 2885,
      "పరిమితం": 2886,
      "చిత్రం": 2887,
      "హైడ్ర": 2888,
      "పట్టణ": 2889,
      "తున్నాయి": 2890,
      "కంటెంట్ను": 2891,
      "తినడం": 2892,
      "స్తాము": 2893,
      "సేవలను": 2894,
      "వాస్తవ": 2895,
      "నష్టం": 2896,
      "మారింది": 2897,
      "అభ్యర్థ": 2898,
      "నిరాశ": 2899,
      "నిరోధించడానికి": 2900,
      "ఆస్వాది": 2901,
      "స్టేట్స్": 2902,
      "వ్యర్థాల": 2903,
      "నమూనాను": 2904,
      "దగ్గరగా": 2905,
      "రచయి": 2906,
      "మేనేజ్": 2907,
      "ఆప్టిమైజ్": 2908,
      "నిరంతరం": 2909,
      "సంతోషంగా": 2910,
      "ఆపిల్": 2911,
      "ప్రాముఖ్యత": 2912,
      "వైవిధ్య": 2913,
      "ఫిట్నెస్": 2914,
      "ప్రసిద్ధి": 2915,
      "అంతర్దృష్టులను": 2916,
      "చదువు": 2917,
      "ప్రకృతి": 2918,
      "మాంసం": 2919,
      "సున్నితమైన": 2920,
      "బిజీగా": 2921,
      "ఉపరితల": 2922,
      "గుండె": 2923,
      "మొబైల్": 2924,
      "ఆస్ట్రే": 2925,
      "ఎప్పుడైనా": 2926,
      "తనిఖీ": 2927,
      "బదిలీ": 2928,
      "యునైటెడ్": 2929,
      "24": 2930,
      "ంగు": 2931,
      "అయ": 2932,
      "అడి": 2933,
      "అక్క": 2934,
      "అడుగు": 2935,
      "ఆకలి": 2936,
      "ఇండ": 2937,
      "ఇచ్చ": 2938,
      "ఇప్పటికీ": 2939,
      "ఉప్పు": 2940,
      "కణ": 2941,
      "కన్": 2942,
      "గరి": 2943,
      "చక్క": 2944,
      "డైన": 2945,
      "త్యం": 2946,
      "ధృ": 2947,
      "ధన్య": 2948,
      "ధమిక": 2949,
      "నూ": 2950,
      "నవీ": 2951,
      "నమో": 2952,
      "నచ్చి": 2953,
      "నచ్చ": 2954,
      "పల": 2955,
      "పట్టి": 2956,
      "బాల్": 2957,
      "భార": 2958,
      "మను": 2959,
      "మాల": 2960,
      "మాలను": 2961,
      "మరె": 2962,
      "రన్": 2963,
      "లర్": 2964,
      "వడ్": 2965,
      "శం": 2966,
      "షూ": 2967,
      "సన్": 2968,
      "సదు": 2969,
      "సవాలు": 2970,
      "హం": 2971,
      "ేదు": 2972,
      "ౌన్": 2973,
      "ౌండ్": 2974,
      "నిక్": 2975,
      "నిరు": 2976,
      "నిండి": 2977,
      "నిశ్": 2978,
      "నిన్ను": 2979,
      "రియా": 2980,
      "రిస్తుంది": 2981,
      "స్క్రీ": 2982,
      "క్వై": 2983,
      "క్టర్": 2984,
      "కుంటే": 2985,
      "ారోగ": 2986,
      "యువ": 2987,
      "డిగ్రీ": 2988,
      "ప్రై": 2989,
      "ప్రచు": 2990,
      "కింద": 2991,
      "వివర": 2992,
      "విగే": 2993,
      "విభిన్న": 2994,
      "చేశా": 2995,
      "నాతో": 2996,
      "నావిగే": 2997,
      "ంటారు": 2998,
      "ల్లా": 2999,
      "డుకున్న": 3000,
      "మ్మి": 3001,
      "వాదే": 3002,
      "దుపు": 3003,
      "దుకా": 3004,
      "ద్ది": 3005,
      "ైనర్": 3006,
      "చేయబడుతుంది": 3007,
      "కోర్": 3008,
      "ాయని": 3009,
      "స్తున్నాడు": 3010,
      "కాంతి": 3011,
      "మైనది": 3012,
      "సిబ్బంది": 3013,
      "సాగు": 3014,
      "సాహి": 3015,
      "క్షమ": 3016,
      "డ్స్": 3017,
      "లావాదే": 3018,
      "పాన్": 3019,
      "పెయి": 3020,
      "మెకాని": 3021,
      "యాజ": 3022,
      "యాదృ": 3023,
      "యాచరణ": 3024,
      "పరిధి": 3025,
      "పిలిచ": 3026,
      "రీని": 3027,
      "పోయ": 3028,
      "పోరా": 3029,
      "చెందా": 3030,
      "సమగ్ర": 3031,
      "ఉపయోగించు": 3032,
      "స్టర్": 3033,
      "కేజీ": 3034,
      "వెలు": 3035,
      "కూడుకున్న": 3036,
      "ప్రాణ": 3037,
      "ప్రాధమిక": 3038,
      "పొడి": 3039,
      "పొదుపు": 3040,
      "వ్వులు": 3041,
      "త్రం": 3042,
      "కరించే": 3043,
      "శాంతి": 3044,
      "రేపు": 3045,
      "జ్డ్": 3046,
      "వీలు": 3047,
      "సెన్": 3048,
      "సెషన్": 3049,
      "వృత్తి": 3050,
      "భావాలను": 3051,
      "దానిపై": 3052,
      "తేలిక": 3053,
      "సృష్టించడం": 3054,
      "ఫిర్యా": 3055,
      "బోర్డ్": 3056,
      "బోయే": 3057,
      "కార్యాచరణ": 3058,
      "సైన్స్": 3059,
      "కారకాల": 3060,
      "విధాలుగా": 3061,
      "కెమె": 3062,
      "శ్రద్ధ": 3063,
      "ఇంధ": 3064,
      "అందించండి": 3065,
      "వినియోగదారుల": 3066,
      "స్పీ": 3067,
      "ఖర్చును": 3068,
      "హార్డ్": 3069,
      "ాలోని": 3070,
      "ప్రారంభించడానికి": 3071,
      "చెప్పలేదు": 3072,
      "ప్రపంచవ్యాప్తంగా": 3073,
      "ఇన్పుట్": 3074,
      "అవసరాలు": 3075,
      "ందాం": 3076,
      "సులభమైన": 3077,
      "కరణను": 3078,
      "పద్ధతి": 3079,
      "పద్ధతుల": 3080,
      "వ్యక్తీ": 3081,
      "విస్తరించి": 3082,
      "పొందడం": 3083,
      "విజయం": 3084,
      "చేసినప్పుడు": 3085,
      "క్లింగ్": 3086,
      "పెట్టండి": 3087,
      "అందరూ": 3088,
      "మొదట": 3089,
      "ఇంటర్వ్యూ": 3090,
      "కలప": 3091,
      "ఆదాయం": 3092,
      "ముందుకు": 3093,
      "చేస్తాను": 3094,
      "కారణాలు": 3095,
      "కంట్ర": 3096,
      "సౌర": 3097,
      "ఎవరి": 3098,
      "రంగంలో": 3099,
      "కంపెనీలు": 3100,
      "పార్కు": 3101,
      "పర్యావరణం": 3102,
      "తలుపు": 3103,
      "సంఖ్యను": 3104,
      "ప్రయత్నించండి": 3105,
      "హెల్త్": 3106,
      "స్థాయిలను": 3107,
      "బెర్": 3108,
      "స్వయ": 3109,
      "భాషను": 3110,
      "బీచ్": 3111,
      "శాస్త్రవేత్త": 3112,
      "చిత్రాలు": 3113,
      "వచ్చాడు": 3114,
      "ప్రాధాన్యతలు": 3115,
      "అనుభవాలను": 3116,
      "భద్రత": 3117,
      "బడ్డాయి": 3118,
      "రూపంలో": 3119,
      "రూపకల్పన": 3120,
      "పరిమాణం": 3121,
      "ప్రదేశంలో": 3122,
      "ఆసక్": 3123,
      "నడప": 3124,
      "వ్యాప్తి": 3125,
      "విద్యుత్తు": 3126,
      "ప్రణాళికను": 3127,
      "ఆపరే": 3128,
      "సూచించండి": 3129,
      "నైపుణ్యాలు": 3130,
      "నిమగ్నం": 3131,
      "గౌరవ": 3132,
      "జన్యు": 3133,
      "బోస్టన్‌కు": 3134,
      "________": 3135,
      "గడప": 3136,
      "మౌలిక": 3137,
      "వ్యత్యాసం": 3138,
      "చూసుకోండి": 3139,
      "అయినప్పటికీ": 3140,
      "ఎక్కడికి": 3141,
      "విరామం": 3142,
      "సౌకర్యవంతమైన": 3143,
      "పేర్కొన": 3144,
      "ఉద్యోగులకు": 3145,
      "ఆశ్చర్యపో": 3146,
      "ఆందోళన": 3147,
      "ల్యాప్": 3148,
      "రహస్య": 3149,
      "చివరి": 3150,
      "పోషిస్తుంది": 3151,
      "ముగింపు": 3152,
      "ఉత్పత్తులను": 3153,
      "పారదర్శ": 3154,
      "ప్రస్తుత": 3155,
      "ఆలస్యం": 3156,
      "ట్యాగ్": 3157,
      "కౌంట్": 3158,
      "ద్దాం": 3159,
      "ప్రతిబింబ": 3160,
      "పూర్తయి": 3161,
      "విశ్వసనీయ": 3162,
      "పోల్చండి": 3163,
      "వెనుక": 3164,
      "భాగస్వామ": 3165,
      "అల్పాహారం": 3166,
      "ఉత్తేజ": 3167,
      "ధన్యవాదాలు": 3168,
      "సదుపాయ": 3169,
      "37": 3170,
      "ంజ": 3171,
      "ంకింగ్": 3172,
      "ఆశ": 3173,
      "ఆకట్టు": 3174,
      "ఆధు": 3175,
      "ఎడా": 3176,
      "ఎండ్": 3177,
      "ఐడి": 3178,
      "కడ": 3179,
      "కద": 3180,
      "కమైన": 3181,
      "కండ": 3182,
      "గమ": 3183,
      "చని": 3184,
      "తరంగ": 3185,
      "దండ్ర": 3186,
      "ధూ": 3187,
      "ధై": 3188,
      "ధరించ": 3189,
      "నవ": 3190,
      "నడు": 3191,
      "నవ్వు": 3192,
      "పటి": 3193,
      "ఫర్": 3194,
      "బెట్": 3195,
      "భర్": 3196,
      "భవి": 3197,
      "భయం": 3198,
      "యంత్ర": 3199,
      "రక్త": 3200,
      "షవర్": 3201,
      "సార": 3202,
      "సవి": 3203,
      "సాలు": 3204,
      "ానని": 3205,
      "ీట్": 3206,
      "ెర": 3207,
      "ోద్య": 3208,
      "నిలు": 3209,
      "ర్ప": 3210,
      "ర్యం": 3211,
      "స్కే": 3212,
      "స్టింగ్": 3213,
      "క్వా": 3214,
      "క్సి": 3215,
      "కుని": 3216,
      "కుంది": 3217,
      "కుంటుంది": 3218,
      "యుఎస్": 3219,
      "ప్రమో": 3220,
      "ప్రవేశ": 3221,
      "ప్రశాంత": 3222,
      "ప్రశం": 3223,
      "తుపా": 3224,
      "ట్లే": 3225,
      "ించాలో": 3226,
      "విస్": 3227,
      "విగా": 3228,
      "విసి": 3229,
      "విందు": 3230,
      "లోనే": 3231,
      "నాట": 3232,
      "ంటమ్": 3233,
      "మాన్ని": 3234,
      "మాపణ": 3235,
      "మ్మా": 3236,
      "వాదన": 3237,
      "పురా": 3238,
      "సందేశ": 3239,
      "చేయగలి": 3240,
      "కోశ": 3241,
      "లిన": 3242,
      "లియా": 3243,
      "గుండా": 3244,
      "సుమారు": 3245,
      "న్నప్పుడు": 3246,
      "టామ్కు": 3247,
      "సార్": 3248,
      "వ్యయ": 3249,
      "వ్యయం": 3250,
      "క్షమాపణ": 3251,
      "డ్డ": 3252,
      "లాద": 3253,
      "ాలనుకుంటే": 3254,
      "ముడి": 3255,
      "ముక్క": 3256,
      "స్తారా": 3257,
      "ఒకరు": 3258,
      "చిక్కు": 3259,
      "చికె": 3260,
      "వేసి": 3261,
      "వేసవి": 3262,
      "పాన్ని": 3263,
      "పెరి": 3264,
      "పెన్": 3265,
      "యాప్": 3266,
      "పరికల్పన": 3267,
      "పరికరం": 3268,
      "సహకార": 3269,
      "సహోద్య": 3270,
      "రాసిన": 3271,
      "తాము": 3272,
      "అనువర్త": 3273,
      "పిటి": 3274,
      "పోష": 3275,
      "పోర్": 3276,
      "చెందిన": 3277,
      "ఉపయోగించిన": 3278,
      "కేర్": 3279,
      "కూర్చ": 3280,
      "తెరవ": 3281,
      "బాగు": 3282,
      "బాహ్య": 3283,
      "చూస్తున్నాను": 3284,
      "జీవులు": 3285,
      "ప్రతిదీ": 3286,
      "కీయ": 3287,
      "వైరస్": 3288,
      "సేపు": 3289,
      "సేంద్ర": 3290,
      "సరఫ": 3291,
      "తనను": 3292,
      "కరించవచ్చు": 3293,
      "కరించాడు": 3294,
      "ఉన్నారని": 3295,
      "డేటాసెట్": 3296,
      "మూడ": 3297,
      "వీడియో": 3298,
      "కలిగిన": 3299,
      "ఫ్లో": 3300,
      "వహి": 3301,
      "జిపిటి": 3302,
      "బుల్స్": 3303,
      "పరంగా": 3304,
      "పరమైన": 3305,
      "ఫిక్స్": 3306,
      "బోర్": 3307,
      "ఇవ్వబడింది": 3308,
      "వెళ్తాను": 3309,
      "చర్యల": 3310,
      "మధ్యలో": 3311,
      "అనిపిస్తుంది": 3312,
      "శిక్ష": 3313,
      "వ్యవస్థలను": 3314,
      "సంబంధించి": 3315,
      "వినియోగదారులకు": 3316,
      "ంపులు": 3317,
      "హార్": 3318,
      "నెల": 3319,
      "వంతు": 3320,
      "మెరుగుదల": 3321,
      "దీనివల్ల": 3322,
      "లక్ష్యాలు": 3323,
      "తున్నారా": 3324,
      "ప్రపంచాన్ని": 3325,
      "ట్టిన": 3326,
      "అవసరాలను": 3327,
      "స్సులో": 3328,
      "నమూన": 3329,
      "మార్పును": 3330,
      "డెస్క్": 3331,
      "చేస్తున్నారు": 3332,
      "ప్రత్యక్ష": 3333,
      "ఫోటో": 3334,
      "పద్ధతులు": 3335,
      "పరిష్కారం": 3336,
      "ప్లాస్టిక్": 3337,
      "ప్రాంతం": 3338,
      "ప్రాంతాలు": 3339,
      "కంప్యూటర్లు": 3340,
      "క్లిష్ట": 3341,
      "పెట్టడం": 3342,
      "అందం": 3343,
      "నిర్ణయించండి": 3344,
      "ప్రశ్నను": 3345,
      "ముఖ్యమైనది": 3346,
      "ఫామ్": 3347,
      "కారణమవుతుంది": 3348,
      "కనుగొనండి": 3349,
      "కనుగొనడం": 3350,
      "అందువల్ల": 3351,
      "అనారోగ": 3352,
      "మరచిపో": 3353,
      "హెడ్": 3354,
      "స్టాక్": 3355,
      "సంవత్సరాలు": 3356,
      "ప్రభుత్వం": 3357,
      "భాషా": 3358,
      "ట్రో": 3359,
      "శాస్త్రం": 3360,
      "శాస్త్రీయ": 3361,
      "దూరంగా": 3362,
      "వద్దని": 3363,
      "మార్కెట్లో": 3364,
      "రికన్": 3365,
      "పుస్తకాలు": 3366,
      "బోస్టన్": 3367,
      "పట్టించు": 3368,
      "పరిమాణ": 3369,
      "పరిమాణాన్ని": 3370,
      "డబ్బును": 3371,
      "ప్రాజెక్టు": 3372,
      "ఇతరుల": 3373,
      "ఇతరులకు": 3374,
      "నడక": 3375,
      "తినడానికి": 3376,
      "పరికరాలు": 3377,
      "పరికరాలను": 3378,
      "ఒత్తిడిని": 3379,
      "మొక్కల": 3380,
      "మొక్కలు": 3381,
      "ఉండేలా": 3382,
      "పదార్థాలను": 3383,
      "ఎవరూ": 3384,
      "వివరణాత్మక": 3385,
      "క్యార": 3386,
      "పరిశ్రమలో": 3387,
      "శ్వాసకోశ": 3388,
      "రెండూ": 3389,
      "ఉద్దేశ్యం": 3390,
      "కేంద్రీకృత": 3391,
      "ఆటోమేషన్": 3392,
      "అభ్యాస": 3393,
      "అభ్యాసం": 3394,
      "హానికరమైన": 3395,
      "ఆవిష్": 3396,
      "పడ్డాడు": 3397,
      "సృష్టిస్తుంది": 3398,
      "ఖచ్చితత్వం": 3399,
      "ఖచ్చితత్వాన్ని": 3400,
      "తల్లిదండ్ర": 3401,
      "ఫుడ్": 3402,
      "చిరునా": 3403,
      "పిలుస్తారు": 3404,
      "రోజూ": 3405,
      "క్రమబద్ధీ": 3406,
      "నియంత్రించడానికి": 3407,
      "చురుకైన": 3408,
      "రీసైక్లింగ్": 3409,
      "పాల్గొనడం": 3410,
      "పెంపొందించడానికి": 3411,
      "శతాబ్దం": 3412,
      "సలహా": 3413,
      "స్నానం": 3414,
      "యూనిట్": 3415,
      "కూరగాయలు": 3416,
      "విచ్ఛిన్నం": 3417,
      "అద్దె": 3418,
      "వాయిస్": 3419,
      "ముందస్తు": 3420,
      "ఇంజనీరింగ్": 3421,
      "సర్దుబాటు": 3422,
      "పునరావృత": 3423,
      "ధికార": 3424,
      "బహిరంగ": 3425,
      "హృదయ": 3426,
      "విడిచి": 3427,
      "వ్యతిరేకంగా": 3428,
      "డాక్యుమెంట్": 3429,
      "సారాంశంలో": 3430,
      "వినోదం": 3431,
      "టివిటీ": 3432,
      "వెంటనే": 3433,
      "తేడాలను": 3434,
      "నెమ్మదిగా": 3435,
      "ఆహ్లాద": 3436,
      "ప్లాట్ఫామ్": 3437,
      "రచయిత": 3438,
      "ధృవీ": 3439,
      "నమోదు": 3440,
      "స్క్రీన్": 3441,
      "యాదృచ్ఛిక": 3442,
      "ఫిర్యాదు": 3443,
      "పేర్కొనండి": 3444,
      "ఆశ్చర్యపోతున్నాను": 3445,
      "చికెన్": 3446,
      "సహోద్యోగు": 3447,
      "అనువర్తనం": 3448,
      "సేంద్రీయ": 3449,
      "\",": 3450,
      "),": 3451,
      "50": 3452,
      "ంగ": 3453,
      "అసం": 3454,
      "అప్పుడు": 3455,
      "అడిగా": 3456,
      "అణు": 3457,
      "ఆస్": 3458,
      "ఈత": 3459,
      "ఎటువంటి": 3460,
      "ఎయిర్": 3461,
      "ఓటు": 3462,
      "కరు": 3463,
      "చల": 3464,
      "చక్ర": 3465,
      "జల": 3466,
      "జరిగిన": 3467,
      "డమే": 3468,
      "ణత": 3469,
      "తండ్": 3470,
      "దర": 3471,
      "దలు": 3472,
      "దడు": 3473,
      "పవ": 3474,
      "పాలు": 3475,
      "పరా": 3476,
      "పండ్": 3477,
      "పండు": 3478,
      "ప్యత": 3479,
      "పించింది": 3480,
      "ఫాలో": 3481,
      "ఫాను": 3482,
      "మన్": 3483,
      "మంచ": 3484,
      "మపా": 3485,
      "మరుగు": 3486,
      "మయ్య": 3487,
      "యని": 3488,
      "రని": 3489,
      "రశ్": 3490,
      "రచన": 3491,
      "రసాయ": 3492,
      "వయ": 3493,
      "వలి": 3494,
      "వరీ": 3495,
      "వ్రా": 3496,
      "వాల్": 3497,
      "వన్య": 3498,
      "సాలను": 3499,
      "సపోర్ట్": 3500,
      "హ్": 3501,
      "హార": 3502,
      "ాంత": 3503,
      "ెడి": 3504,
      "నియా": 3505,
      "నివేదిక": 3506,
      "రిఫ్": 3507,
      "రిమో": 3508,
      "రికార్డు": 3509,
      "స్లై": 3510,
      "ంచడానికి": 3511,
      "్యాల": 3512,
      "కుల": 3513,
      "ప్రత్యా": 3514,
      "తుకు": 3515,
      "తులతో": 3516,
      "తున్నాడు": 3517,
      "తుఫాను": 3518,
      "ట్టా": 3519,
      "ించాలని": 3520,
      "ించబడిన": 3521,
      "విరు": 3522,
      "విచ్": 3523,
      "విదేశ": 3524,
      "విధాన": 3525,
      "విపరీ": 3526,
      "విప్ల": 3527,
      "వివాహం": 3528,
      "చేర": 3529,
      "ంట్ర": 3530,
      "త్తులు": 3531,
      "త్తాన్ని": 3532,
      "ల్ఫ్": 3533,
      "మీటర్": 3534,
      "మాతో": 3535,
      "టాపిక్": 3536,
      "పుష్": 3537,
      "దులుగా": 3538,
      "సంపా": 3539,
      "సంకే": 3540,
      "సంభవ": 3541,
      "సంభవి": 3542,
      "సంక్లిష్ట": 3543,
      "టిస్": 3544,
      "టికెట్": 3545,
      "దాపు": 3546,
      "దాదాపు": 3547,
      "చేయలే": 3548,
      "చేయకుండా": 3549,
      "చేయబడింది": 3550,
      "చేయబడతాయి": 3551,
      "కోట": 3552,
      "కోర్సు": 3553,
      "లిన్": 3554,
      "లిక్": 3555,
      "గుతారు": 3556,
      "కాపీ": 3557,
      "కాశాన్ని": 3558,
      "సులో": 3559,
      "సిపీ": 3560,
      "సిఫార": 3561,
      "సాస్": 3562,
      "సాక్ష": 3563,
      "మును": 3564,
      "రించే": 3565,
      "చిత్రాన్ని": 3566,
      "వేజ్": 3567,
      "పాడ": 3568,
      "పెంపు": 3569,
      "మెదడు": 3570,
      "మిగి": 3571,
      "మిలియ": 3572,
      "మిరియ": 3573,
      "కొట్ట": 3574,
      "భార్య": 3575,
      "భాగాన్ని": 3576,
      "నిర్ధారణ": 3577,
      "వులకు": 3578,
      "రాడు": 3579,
      "రాబోయే": 3580,
      "తాయు": 3581,
      "అనువైన": 3582,
      "పోలీ": 3583,
      "పోస్ట్": 3584,
      "చెట్లు": 3585,
      "స్థలం": 3586,
      "ందులు": 3587,
      "ఉపయోగం": 3588,
      "ఉపయోగించగల": 3589,
      "ప్పుడే": 3590,
      "స్ట్రా": 3591,
      "కేస్": 3592,
      "వెన్న": 3593,
      "వెలికి": 3594,
      "డేట": 3595,
      "ళ్లి": 3596,
      "కలిపి": 3597,
      "ధాన్ని": 3598,
      "షన్లు": 3599,
      "తెరి": 3600,
      "దేశాన్ని": 3601,
      "ప్రతిపా": 3602,
      "ప్రతిరోజూ": 3603,
      "కీలు": 3604,
      "వైఖ": 3605,
      "వైశాల": 3606,
      "ఉన్నాయా": 3607,
      "సేకరణ": 3608,
      "టీవీ": 3609,
      "మొత్తాన్ని": 3610,
      "తనకు": 3611,
      "పనిని": 3612,
      "పనికి": 3613,
      "పనిచేసే": 3614,
      "బిగ్": 3615,
      "బిజి": 3616,
      "తీసుకోవచ్చు": 3617,
      "రెసిపీ": 3618,
      "సమాజం": 3619,
      "క్రెడి": 3620,
      "వంతం": 3621,
      "వహించండి": 3622,
      "దానితో": 3623,
      "వ్యక్తికి": 3624,
      "ఏమిటో": 3625,
      "షిప్": 3626,
      "షింగ్": 3627,
      "అభిన": 3628,
      "ణాత్మక": 3629,
      "పేస్": 3630,
      "పేపర్": 3631,
      "ముఖ్యమో": 3632,
      "ఉత్సాహ": 3633,
      "గ్రూ": 3634,
      "క్రింద": 3635,
      "బోధ": 3636,
      "కార్మి": 3637,
      "మోటార్": 3638,
      "స్థితిని": 3639,
      "అంకి": 3640,
      "మేరీతో": 3641,
      "తెలుసుకోండి": 3642,
      "గేమింగ్": 3643,
      "వ్యవస్థకు": 3644,
      "వ్యవస్థలో": 3645,
      "ఆమెను": 3646,
      "ఆమెకు": 3647,
      "లక్ష్యాన్ని": 3648,
      "ప్రేమి": 3649,
      "లీకేజీ": 3650,
      "అంతా": 3651,
      "అంతకంటే": 3652,
      "సాంస్కృ": 3653,
      "హాజ": 3654,
      "లభ్యత": 3655,
      "రక్షించు": 3656,
      "అనుభూ": 3657,
      "మైతే": 3658,
      "ప్రపంచం": 3659,
      "భాగాలు": 3660,
      "భాగాలను": 3661,
      "సమస్యలకు": 3662,
      "అధి": 3663,
      "ఫ్రీ": 3664,
      "మార్పులకు": 3665,
      "డెడ్": 3666,
      "నిజమైన": 3667,
      "వ్యాపారాన్ని": 3668,
      "ప్రోత్సహించండి": 3669,
      "మంచిది": 3670,
      "ప్రజలకు": 3671,
      "ాలనుకుంటున్నారు": 3672,
      "ఎంగే": 3673,
      "పాత్రను": 3674,
      "పరిష్కరించ": 3675,
      "పరిష్కారాన్ని": 3676,
      "సమర్థత": 3677,
      "విజన్": 3678,
      "విజయాన్ని": 3679,
      "పెట్టె": 3680,
      "ప్రశ్నలకు": 3681,
      "ఫార్": 3682,
      "విలువను": 3683,
      "విలువలను": 3684,
      "ముందుగా": 3685,
      "వస్తువులను": 3686,
      "ించగలదు": 3687,
      "స్థిరంగా": 3688,
      "సంవత్సరం": 3689,
      "మెరుగుపరచడంలో": 3690,
      "ఎవరికీ": 3691,
      "రంగం": 3692,
      "సిద్ధం": 3693,
      "సిద్ధాంత": 3694,
      "కొనసాగు": 3695,
      "ఆలోచనలను": 3696,
      "ఫ్రెండ్": 3697,
      "ఫైర్": 3698,
      "బహుశా": 3699,
      "లక్షణాలు": 3700,
      "ఉపయోగిస్తుంది": 3701,
      "ఉపయోగిస్తాయి": 3702,
      "నియంత్ర": 3703,
      "పరిస్థితిని": 3704,
      "పిల్లలు": 3705,
      "పిల్లలను": 3706,
      "పాఠశ": 3707,
      "పాఠ్య": 3708,
      "పరిమితులు": 3709,
      "వచ్చారు": 3710,
      "విద్యార్థులకు": 3711,
      "ఉంచడానికి": 3712,
      "పుస్తకాలను": 3713,
      "అమెరికన్": 3714,
      "హైలైట్": 3715,
      "బాధ్యతాయు": 3716,
      "సంక్షిప్త": 3717,
      "సంక్షిప్తీ": 3718,
      "అడవి": 3719,
      "ఖాస్తు": 3720,
      "ఖాతా": 3721,
      "నివారించ": 3722,
      "క్ట్రిక్": 3723,
      "ంత్రం": 3724,
      "నిర్మాణ": 3725,
      "విశ్లేషించడానికి": 3726,
      "విశ్లేషించడం": 3727,
      "విశ్లేషించండి": 3728,
      "గెలు": 3729,
      "లేకపోతే": 3730,
      "రాజధాని": 3731,
      "సమీప": 3732,
      "వ్యాయామ": 3733,
      "జంతువులు": 3734,
      "మారడం": 3735,
      "స్తున్నప్పుడు": 3736,
      "మార్చండి": 3737,
      "డ్రైవర్": 3738,
      "గంటలు": 3739,
      "బల్బు": 3740,
      "తొలగి": 3741,
      "ఎలక్ట్రిక్": 3742,
      "వాడకాన్ని": 3743,
      "కొలవడానికి": 3744,
      "పంచుకోవడానికి": 3745,
      "ప్రచారం": 3746,
      "శ్రేణిని": 3747,
      "పురోగతిని": 3748,
      "కావాలి": 3749,
      "వర్గీకరణ": 3750,
      "అన్వేషణ": 3751,
      "చదవడం": 3752,
      "సాయంత్రం": 3753,
      "కాలుష్యాన్ని": 3754,
      "అల్గారిథమ్స్": 3755,
      "సంఘటనలు": 3756,
      "సవాళ్లను": 3757,
      "చేర్చడం": 3758,
      "చల్లని": 3759,
      "పెరగడం": 3760,
      "సమతుల్య": 3761,
      "చెప్పింది": 3762,
      "స్నేహితుడు": 3763,
      "ఉష్ణోగ్రత": 3764,
      "క్లాస్": 3765,
      "మేనేజర్": 3766,
      "ఉద్యోగులు": 3767,
      "ఆప్టిమైజేషన్": 3768,
      "దిగువ": 3769,
      "అనువర్తనాలను": 3770,
      "తరగతి": 3771,
      "వాతావరణంలోకి": 3772,
      "ఫీచర్లు": 3773,
      "సామర్థ్యాలు": 3774,
      "ఆకర్షించడానికి": 3775,
      "విభజించడం": 3776,
      "ప్రతిస్పందన": 3777,
      "ఇచ్చిన": 3778,
      "ఒక్కరూ": 3779,
      "రోజంతా": 3780,
      "కేటాయించండి": 3781,
      "ఇలాంటి": 3782,
      "సంప్రదించ": 3783,
      "గలుగుతారు": 3784,
      "మల్టీ": 3785,
      "స్పామ్": 3786,
      "డెవలపర్": 3787,
      "కార్యక్రమాలు": 3788,
      "అలవాటు": 3789,
      "యుద్ధం": 3790,
      "డిస్కౌంట్": 3791,
      "ప్రకాశవంతమైన": 3792,
      "విజువ": 3793,
      "లాంగ్వేజ్": 3794,
      "పెట్టుబడులు": 3795,
      "వాస్తవిక": 3796,
      "అధ్యయ": 3797,
      "భౌతిక": 3798,
      "వరుస": 3799,
      "వర్షం": 3800,
      "సూర్యరశ్": 3801,
      "ఇంజిన్": 3802,
      "ఇకపై": 3803,
      "ఇటీవలి": 3804,
      "గృహ": 3805,
      "నొప్పి": 3806,
      "నివ్వండి": 3807,
      "పాజిటివ్": 3808,
      "మెటీరియల్": 3809,
      "మ్యూజిక్": 3810,
      "పూర్వక": 3811,
      "అత్యవసర": 3812,
      "మేనేజ్మెంట్": 3813,
      "ఆస్ట్రేలియా": 3814,
      "చక్కెర": 3815,
      "మరెన్నో": 3816,
      "క్వైరీ": 3817,
      "లావాదేవీ": 3818,
      "వెలుపల": 3819,
      "వృత్తిపరమైన": 3820,
      "ఇంధనాలు": 3821,
      "కంట్రోల్": 3822,
      "విద్యుత్తును": 3823,
      "ల్యాప్టాప్": 3824,
      "ఉత్తేజకరమైన": 3825,
      "ఆధునిక": 3826,
      "ఎడారి": 3827,
      "క్వాంటమ్": 3828,
      "సరఫరా": 3829,
      "బోర్డు": 3830,
      "దరఖాస్తు": 3831,
      "రిమోట్": 3832,
      "ప్రత్యామ్": 3833,
      "విరుద్ధ": 3834,
      "సిఫారసు": 3835,
      "పోలీసు": 3836,
      "క్రెడిట్": 3837,
      "సాంస్కృతిక": 3838,
      "నియంత్రణ": 3839,
      "సూర్యరశ్మి": 3840,
      "\")": 3841,
      "40": 3842,
      "అమరి": 3843,
      "అగ్": 3844,
      "అదృష్ట": 3845,
      "అసమాన": 3846,
      "ఆయు": 3847,
      "ఆరో": 3848,
      "ఆక్సి": 3849,
      "ఇతి": 3850,
      "ఇచ్": 3851,
      "ఇంగ్": 3852,
      "ఇప్పుడే": 3853,
      "ఉపా": 3854,
      "ఉనికి": 3855,
      "ఎద": 3856,
      "ఎలు": 3857,
      "ఎండ": 3858,
      "ఏకా": 3859,
      "ఐస్": 3860,
      "కస్": 3861,
      "కటి": 3862,
      "కన్నా": 3863,
      "కంటి": 3864,
      "కతను": 3865,
      "కళ్ళు": 3866,
      "ఖం": 3867,
      "గెట్": 3868,
      "గనై": 3869,
      "ఘన": 3870,
      "చార": 3871,
      "చైనా": 3872,
      "జ్యూ": 3873,
      "జన్య": 3874,
      "జబ్బు": 3875,
      "టరీ": 3876,
      "తంత్ర": 3877,
      "థ్": 3878,
      "థర్": 3879,
      "దశా": 3880,
      "ధుల": 3881,
      "ధ్వ": 3882,
      "నంగా": 3883,
      "నల్ల": 3884,
      "పది": 3885,
      "పసు": 3886,
      "పవర్": 3887,
      "పబ్": 3888,
      "ఫం": 3889,
      "బదులుగా": 3890,
      "మస్": 3891,
      "మట్టి": 3892,
      "మమ్మల్ని": 3893,
      "యడం": 3894,
      "రకాన్ని": 3895,
      "ళీ": 3896,
      "ళాయి": 3897,
      "వడ": 3898,
      "వాల": 3899,
      "షధ": 3900,
      "షీట్": 3901,
      "సభ": 3902,
      "సత్య": 3903,
      "ుడి": 3904,
      "నిధులు": 3905,
      "రిస్క్": 3906,
      "రింజ": 3907,
      "నుగుణంగా": 3908,
      "ర్తి": 3909,
      "స్కి": 3910,
      "స్కో": 3911,
      "స్లా": 3912,
      "స్పి": 3913,
      "స్పేస్": 3914,
      "న్సీ": 3915,
      "క్లో": 3916,
      "క్యం": 3917,
      "క్యో": 3918,
      "క్లియ": 3919,
      "దిన": 3920,
      "దిరి": 3921,
      "కుండ": 3922,
      "కుందాం": 3923,
      "కుళాయి": 3924,
      "డిసి": 3925,
      "డియం": 3926,
      "ప్రీ": 3927,
      "ప్రెస్": 3928,
      "కింది": 3929,
      "కిటి": 3930,
      "ట్రి": 3931,
      "ించాయి": 3932,
      "విల్": 3933,
      "విడ్": 3934,
      "విన్నాను": 3935,
      "లోడ్": 3936,
      "ానిక్": 3937,
      "చేప": 3938,
      "చేశ": 3939,
      "చేతి": 3940,
      "రుచు": 3941,
      "తిరుగు": 3942,
      "నాన్న": 3943,
      "నాత్మక": 3944,
      "నారింజ": 3945,
      "ంటీ": 3946,
      "మీరే": 3947,
      "మీటర్లు": 3948,
      "ప్రియ": 3949,
      "వాగ్": 3950,
      "వాక్య": 3951,
      "టాబ్ల": 3952,
      "నేల": 3953,
      "పువ్వులు": 3954,
      "న్నిస్": 3955,
      "దురు": 3956,
      "ద్వే": 3957,
      "లేదో": 3958,
      "ైనవి": 3959,
      "సంయోగ": 3960,
      "టిల్": 3961,
      "టికల్": 3962,
      "దాడు": 3963,
      "చేయవలసిన": 3964,
      "లింక్": 3965,
      "గ్లా": 3966,
      "గుస": 3967,
      "గురువు": 3968,
      "కాగి": 3969,
      "కావలసిన": 3970,
      "సుల": 3971,
      "సాడు": 3972,
      "డ్లు": 3973,
      "లార్": 3974,
      "న్నాము": 3975,
      "పెడ": 3976,
      "పెన్ను": 3977,
      "పెళ్లి": 3978,
      "మెంటేషన్": 3979,
      "యార్క్": 3980,
      "గింగ్": 3981,
      "పరిచే": 3982,
      "పరిపూర్": 3983,
      "పరిశోధ": 3984,
      "భావి": 3985,
      "మేషన్": 3986,
      "తీసి": 3987,
      "నిర్దేశ": 3988,
      "అనుసం": 3989,
      "అనుకూ": 3990,
      "అనుకూల": 3991,
      "పిలవ": 3992,
      "రీసెర్చ్": 3993,
      "చెక్": 3994,
      "చెప్పు": 3995,
      "చెట్లను": 3996,
      "చెందింది": 3997,
      "చెయిన్": 3998,
      "స్టేషన్": 3999,
      "ంటింగ్": 4000,
      "వెంట్": 4001,
      "కూర్చు": 4002,
      "డేట్": 4003,
      "వర్గ": 4004,
      "వర్ణ": 4005,
      "బ్రి": 4006,
      "బ్లూ": 4007,
      "ళ్లలో": 4008,
      "రోల్": 4009,
      "బాక్స్": 4010,
      "చూపి": 4011,
      "చూశా": 4012,
      "దేని": 4013,
      "జీని": 4014,
      "వారితో": 4015,
      "అతన్ని": 4016,
      "జాతులు": 4017,
      "జాతుల": 4018,
      "జాతీయ": 4019,
      "త్రు": 4020,
      "సేల్స్": 4021,
      "సేవల": 4022,
      "సేకరించడం": 4023,
      "సరే": 4024,
      "బిల్": 4025,
      "బిందు": 4026,
      "బిల్లు": 4027,
      "ఉన్నారా": 4028,
      "ఉన్నట్లు": 4029,
      "డేటాపై": 4030,
      "శాండ్": 4031,
      "రేజ్": 4032,
      "రేటర్": 4033,
      "సమాంత": 4034,
      "సమావేశ": 4035,
      "క్షణం": 4036,
      "వహించే": 4037,
      "సూపర్": 4038,
      "సూత్రం": 4039,
      "జియో": 4040,
      "గొట్ట": 4041,
      "సృష్టించవచ్చు": 4042,
      "బంధం": 4043,
      "పేక్ష": 4044,
      "పేలవ": 4045,
      "క్రియా": 4046,
      "బోతున్నా": 4047,
      "దేశాల": 4048,
      "దేశాలు": 4049,
      "ఇవ్వవచ్చు": 4050,
      "వృద్ధిని": 4051,
      "వెళ్లి": 4052,
      "అంతు": 4053,
      "ఎలాంటి": 4054,
      "ద్రవ్య": 4055,
      "ఇక్కడకు": 4056,
      "శ్రయ": 4057,
      "గణిత": 4058,
      "శిఖ": 4059,
      "నిర్వహించదగిన": 4060,
      "ఆరోగ్యాన్ని": 4061,
      "అభివృద్ధికి": 4062,
      "అందించే": 4063,
      "వినియోగదారులతో": 4064,
      "నెలవ": 4065,
      "రోజులు": 4066,
      "వేగంతో": 4067,
      "ప్రారంభమవుతుంది": 4068,
      "కర్షణ": 4069,
      "చేసుకో": 4070,
      "లక్ష్యాలపై": 4071,
      "మార్గదర్శ": 4072,
      "కరమైనది": 4073,
      "ఆర్గనై": 4074,
      "టెన్నిస్": 4075,
      "ఇన్సు": 4076,
      "క్స్ను": 4077,
      "కల్పిస్తుంది": 4078,
      "సమస్యలు": 4079,
      "స్ట్రి": 4080,
      "చేస్తున్నాడు": 4081,
      "రూపొందించబడింది": 4082,
      "బలంగా": 4083,
      "బలాలు": 4084,
      "బలహీ": 4085,
      "చార్ట్": 4086,
      "మాట్లాడే": 4087,
      "ఫోన్లు": 4088,
      "ప్రోత్సహించే": 4089,
      "ప్రోత్సహిస్తుంది": 4090,
      "ధికా": 4091,
      "పద్ధతిలో": 4092,
      "ళ్ళను": 4093,
      "ప్రయత్నాలు": 4094,
      "సాధనాలు": 4095,
      "పెరుగుతుంది": 4096,
      "పెరుగుదలకు": 4097,
      "ప్లాంట్": 4098,
      "ప్రాంతాలను": 4099,
      "ప్రాంతాలలో": 4100,
      "మేధను": 4101,
      "మారుతున్న": 4102,
      "వస్తువుల": 4103,
      "చేస్తూ": 4104,
      "ఉద్భవ": 4105,
      "కథను": 4106,
      "పడింది": 4107,
      "అంశాలు": 4108,
      "కంటైనర్": 4109,
      "ప్రమాదాన్ని": 4110,
      "ల్లింగ్": 4111,
      "సంరక్షణను": 4112,
      "మెరుగుపరచడం": 4113,
      "ఇంటిగ్ర": 4114,
      "టైప్": 4115,
      "జీవితం": 4116,
      "అనధికార": 4117,
      "అనధికా": 4118,
      "ఫలితాన్ని": 4119,
      "ఆలోచనను": 4120,
      "బహుమ": 4121,
      "బహుమతి": 4122,
      "లక్షణం": 4123,
      "శుద్ధి": 4124,
      "ముద్రను": 4125,
      "సెట్టింగ్": 4126,
      "నియన్": 4127,
      "రితనం": 4128,
      "సహజమైన": 4129,
      "స్థాయిలో": 4130,
      "స్వతంత్ర": 4131,
      "సంవత్సరాలలో": 4132,
      "నిర్మించండి": 4133,
      "పిల్లల": 4134,
      "పిల్లలకు": 4135,
      "న్యూయార్క్": 4136,
      "పరిమిత": 4137,
      "రంగులు": 4138,
      "ఉపయోగించబడుతుంది": 4139,
      "ప్రొఫె": 4140,
      "తగ్గిస్తాయి": 4141,
      "తగ్గింపు": 4142,
      "ఉంచడం": 4143,
      "పుస్తక": 4144,
      "పుస్తకం": 4145,
      "ఉద్యోగి": 4146,
      "పదార్ధ": 4147,
      "శ్రామిక": 4148,
      "కునేలా": 4149,
      "నెట్వర్క్లు": 4150,
      "ప్రయోజనాల": 4151,
      "ఖాళీ": 4152,
      "నమ్మదగిన": 4153,
      "భిన్నమైన": 4154,
      "ప్రదేశం": 4155,
      "గ్రామ": 4156,
      "సముద్రం": 4157,
      "ప్రిడి": 4158,
      "ప్రింటర్": 4159,
      "రాజ్య": 4160,
      "రాజకీయ": 4161,
      "ప్రేక్షకులు": 4162,
      "ఇతరులతో": 4163,
      "స్తాడని": 4164,
      "శైలు": 4165,
      "స్తున్నారని": 4166,
      "గంటల": 4167,
      "ప్రభుత్వాలు": 4168,
      "కార్యకలాపాలను": 4169,
      "కార్యకలాపాలలో": 4170,
      "నగరాలు": 4171,
      "భోజన": 4172,
      "గౌరవం": 4173,
      "పాల్గొనే": 4174,
      "అభ్యసన": 4175,
      "నిద్రపో": 4176,
      "నాయక": 4177,
      "వ్యూహాలు": 4178,
      "వ్యూహాలను": 4179,
      "సమాజానికి": 4180,
      "సమాజంలో": 4181,
      "వీటిని": 4182,
      "చదవ": 4183,
      "లోపలికి": 4184,
      "నిర్వచించడం": 4185,
      "నిర్వచించండి": 4186,
      "చెందడానికి": 4187,
      "సమూహం": 4188,
      "పేజీని": 4189,
      "ఉద్దేశ్యాన్ని": 4190,
      "ఒంటరితనం": 4191,
      "చట్టం": 4192,
      "నిలబడ": 4193,
      "లేఖను": 4194,
      "జోడించండి": 4195,
      "ఛార్": 4196,
      "వ్యర్థాలను": 4197,
      "పెరగడానికి": 4198,
      "అనుసరించడం": 4199,
      "కూడదని": 4200,
      "టూత్": 4201,
      "క్లాసి": 4202,
      "సాధనాలను": 4203,
      "ఇద్దరు": 4204,
      "ఇద్దరూ": 4205,
      "నిరంతర": 4206,
      "దిగుమతి": 4207,
      "నిష్క్రమ": 4208,
      "చివరికి": 4209,
      "తెలివైన": 4210,
      "దృక్పథాన్ని": 4211,
      "బయటకు": 4212,
      "నిమగ్నతను": 4213,
      "హ్యాష్": 4214,
      "పరిణామాలను": 4215,
      "రీసైకిల్": 4216,
      "స్థితిస్థాప": 4217,
      "జీవనశైలి": 4218,
      "ఫలితాలను": 4219,
      "ఎలక్ట్ర": 4220,
      "ఆనంద": 4221,
      "సందేశాన్ని": 4222,
      "డెవలప్": 4223,
      "ఆటగాడు": 4224,
      "జాలం": 4225,
      "కిరణజన్య": 4226,
      "ఫిల్టర్": 4227,
      "సంభాషణను": 4228,
      "బయలుదేర": 4229,
      "ఉంటుందని": 4230,
      "ఎగువ": 4231,
      "బూట్లు": 4232,
      "కోరుకుంటున్నాను": 4233,
      "సందర్భంలో": 4234,
      "స్వచ్ఛమైన": 4235,
      "చీకటి": 4236,
      "నిజాయితీగా": 4237,
      "వార్తాపత్రి": 4238,
      "వాస్తవానికి": 4239,
      "పట్టిక": 4240,
      "మనుగడ": 4241,
      "నిశ్శబ్ద": 4242,
      "ప్రైవే": 4243,
      "క్షమించండి": 4244,
      "పిలిచాడు": 4245,
      "హార్డ్వేర్": 4246,
      "ఆపరేటింగ్": 4247,
      "పూర్తయిన": 4248,
      "కదలిక": 4249,
      "ధూమపా": 4250,
      "ధైర్య": 4251,
      "భర్తీ": 4252,
      "సారూ": 4253,
      "ప్రశంస": 4254,
      "తుపాకీ": 4255,
      "కూర్చో": 4256,
      "అనారోగ్య": 4257,
      "ఆవిష్కరణ": 4258,
      "ఆస్తి": 4259,
      "పవన": 4260,
      "పండ్లు": 4261,
      "ట్టాడు": 4262,
      "విపరీతమైన": 4263,
      "పెంపుడు": 4264,
      "డేటాలోని": 4265,
      "బిజినెస్": 4266,
      "ప్రత్యామ్నాయ": 4267,
      "థర్మల్": 4268,
      "పసుపు": 4269,
      "పబ్లిక్": 4270,
      "వాగ్దా": 4271,
      "సంయోగక్రియ": 4272,
      "అనుకూలీ": 4273,
      "పేలవమైన": 4274,
      "నెలవారీ": 4275,
      "బలహీన": 4276,
      "ప్రొఫెషనల్": 4277,
      "\":": 4278,
      "11": 4279,
      "16": 4280,
      "500": 4281,
      ";.": 4282,
      "?\".": 4283,
      "అట": 4284,
      "అంచు": 4285,
      "అబ్బ": 4286,
      "అసలు": 4287,
      "అమ్మా": 4288,
      "ఆవ": 4289,
      "ఆడు": 4290,
      "ఆకార": 4291,
      "ఆచరణ": 4292,
      "ఇమే": 4293,
      "ఇబ్బ": 4294,
      "ఇబ్బంది": 4295,
      "ఈవెంట్": 4296,
      "ఉంచు": 4297,
      "ఉందో": 4298,
      "ఎఫ": 4299,
      "ఎలి": 4300,
      "ఎత్త": 4301,
      "ఎన్ను": 4302,
      "ఏక": 4303,
      "ఐక్య": 4304,
      "కవ": 4305,
      "కంలో": 4306,
      "కనం": 4307,
      "కరో": 4308,
      "కనె": 4309,
      "గూ": 4310,
      "గడు": 4311,
      "గడం": 4312,
      "గతం": 4313,
      "గట్టి": 4314,
      "గందర": 4315,
      "చతు": 4316,
      "చడం": 4317,
      "చంప": 4318,
      "జాలు": 4319,
      "జెంట్": 4320,
      "టప్": 4321,
      "టగి": 4322,
      "డొ": 4323,
      "డాల": 4324,
      "డ్రా": 4325,
      "ణాల": 4326,
      "తద": 4327,
      "తగా": 4328,
      "తత్": 4329,
      "థీ": 4330,
      "దలను": 4331,
      "దరణ": 4332,
      "ద్రా": 4333,
      "ధ్ర": 4334,
      "నొక": 4335,
      "పస్": 4336,
      "పైన": 4337,
      "పక్క": 4338,
      "పన్న": 4339,
      "పాలి": 4340,
      "పత్ర": 4341,
      "ఫరె": 4342,
      "బైన": 4343,
      "బగ్": 4344,
      "బయో": 4345,
      "బస్సులో": 4346,
      "భీ": 4347,
      "మల": 4348,
      "మరీ": 4349,
      "మళ్": 4350,
      "మహి": 4351,
      "రౌ": 4352,
      "లసిన": 4353,
      "ళాలు": 4354,
      "వండ": 4355,
      "వోల్": 4356,
      "వదులు": 4357,
      "శే": 4358,
      "శనం": 4359,
      "శబ్దం": 4360,
      "షే": 4361,
      "షో": 4362,
      "షర్": 4363,
      "సొ": 4364,
      "సానికి": 4365,
      "సన్ని": 4366,
      "సద్": 4367,
      "సమి": 4368,
      "సరీ": 4369,
      "సంచు": 4370,
      "సకాలంలో": 4371,
      "ీకరణ": 4372,
      "‌కు": 4373,
      "నివే": 4374,
      "నిసరి": 4375,
      "రిక్ష": 4376,
      "రిజి": 4377,
      "రిజర్": 4378,
      "రిపోర్": 4379,
      "నుంచ": 4380,
      "స్కూ": 4381,
      "స్పూ": 4382,
      "స్క్రిప్": 4383,
      "క్వ": 4384,
      "క్టీ": 4385,
      "క్చర్": 4386,
      "ాలనే": 4387,
      "కుగా": 4388,
      "కుడిని": 4389,
      "డియ": 4390,
      "డివి": 4391,
      "ప్రస": 4392,
      "ప్రవా": 4393,
      "ప్రసం": 4394,
      "ప్రముఖ": 4395,
      "తుల్లో": 4396,
      "లుక్": 4397,
      "ించని": 4398,
      "ించలేదు": 4399,
      "ించబడతాయి": 4400,
      "గార్": 4401,
      "విమాన": 4402,
      "విభాగ": 4403,
      "విభాగం": 4404,
      "విఫల": 4405,
      "లోగో": 4406,
      "చేతులు": 4407,
      "రుణ": 4408,
      "తిరస్": 4409,
      "నాశనం": 4410,
      "మాక్": 4411,
      "మాక్స్": 4412,
      "వాది": 4413,
      "వాటా": 4414,
      "వాటర్": 4415,
      "వాత్మక": 4416,
      "వాదం": 4417,
      "వాడిని": 4418,
      "వాషింగ్": 4419,
      "టాస్క్": 4420,
      "పుట్టిన": 4421,
      "దుర": 4422,
      "ద్దిగా": 4423,
      "లేరు": 4424,
      "లేషన్": 4425,
      "లేబుల్": 4426,
      "సంకో": 4427,
      "సంపద": 4428,
      "టిష్": 4429,
      "టికె": 4430,
      "దాట": 4431,
      "దాయ": 4432,
      "చేయను": 4433,
      "చేయాల్సిన": 4434,
      "చేయవద్దని": 4435,
      "లిం": 4436,
      "లియో": 4437,
      "లివరీ": 4438,
      "గుడ్డు": 4439,
      "స్తున్నారా": 4440,
      "కాకపోతే": 4441,
      "చుట్టు": 4442,
      "సిఫికేషన్": 4443,
      "సాపేక్ష": 4444,
      "క్షే": 4445,
      "లాండ్": 4446,
      "లాజి": 4447,
      "ముగ": 4448,
      "స్తం": 4449,
      "ఒకప్పుడు": 4450,
      "చిత": 4451,
      "చిట్": 4452,
      "చింతి": 4453,
      "చిటికె": 4454,
      "వేతన": 4455,
      "వేగాన్ని": 4456,
      "పాప్": 4457,
      "పాటి": 4458,
      "పెడుతుంది": 4459,
      "పెరిగి": 4460,
      "పెంచి": 4461,
      "వచ్చి": 4462,
      "యాద": 4463,
      "యాత్ర": 4464,
      "మియం": 4465,
      "కొని": 4466,
      "కొంద": 4467,
      "కొద్దిగా": 4468,
      "ండగా": 4469,
      "పరిచింది": 4470,
      "ందరికీ": 4471,
      "భాన్ని": 4472,
      "సహకారం": 4473,
      "తీపి": 4474,
      "తీర్చ": 4475,
      "ాయిడ్": 4476,
      "యిక": 4477,
      "నిర్మూల": 4478,
      "వును": 4479,
      "వుతుంది": 4480,
      "రాన్": 4481,
      "తాక": 4482,
      "పిత": 4483,
      "పిరి": 4484,
      "స్టీ": 4485,
      "స్టై": 4486,
      "పైథా": 4487,
      "కేవల": 4488,
      "కేటగి": 4489,
      "వెళ": 4490,
      "వెల్": 4491,
      "వెతుకు": 4492,
      "మార్క్": 4493,
      "మార్చు": 4494,
      "అవయ": 4495,
      "అవ్వ": 4496,
      "వర్తి": 4497,
      "వర్టై": 4498,
      "వర్కింగ్": 4499,
      "బ్రిడ్": 4500,
      "యంప్రతి": 4501,
      "కోవాలని": 4502,
      "పొగ": 4503,
      "పొందింది": 4504,
      "సహాయక": 4505,
      "బాస్": 4506,
      "బాడీ": 4507,
      "చూసి": 4508,
      "చూస్తారు": 4509,
      "చూశాడు": 4510,
      "చూస్తున్నాము": 4511,
      "ఉండదు": 4512,
      "జాక్": 4513,
      "జాన్ని": 4514,
      "వైర్": 4515,
      "వైట్": 4516,
      "వైవిధ": 4517,
      "ల్లీ": 4518,
      "ల్లర్": 4519,
      "ఉన్నాయని": 4520,
      "పనిచేయడానికి": 4521,
      "పనిచేస్తుంది": 4522,
      "పనిప్రాంత": 4523,
      "బిట్": 4524,
      "తీసుకోవాలి": 4525,
      "వంటివి": 4526,
      "ఉన్నవారికి": 4527,
      "భిప్రాయ": 4528,
      "మూడే": 4529,
      "సమాజాన్ని": 4530,
      "కాలేదు": 4531,
      "బంధాన్ని": 4532,
      "వంతె": 4533,
      "వంతో": 4534,
      "సెల్": 4535,
      "వృక్ష": 4536,
      "వహిస్తుంది": 4537,
      "సృష్టించడంలో": 4538,
      "క్రితం": 4539,
      "బోతున్నాను": 4540,
      "దేశంలో": 4541,
      "దారులకు": 4542,
      "కార్ల": 4543,
      "కృషి": 4544,
      "జుట్టు": 4545,
      "పర్సన": 4546,
      "మర్స్": 4547,
      "మర్చిపో": 4548,
      "మర్యాద": 4549,
      "సైట్లు": 4550,
      "సైబర్": 4551,
      "సైకిల్": 4552,
      "వృద్ధికి": 4553,
      "అంకె": 4554,
      "తగ్గడానికి": 4555,
      "తగ్గించండి": 4556,
      "వ్యవసాయ": 4557,
      "అనిపించ": 4558,
      "అనిపించింది": 4559,
      "గోప": 4560,
      "గోల్": 4561,
      "వాటికి": 4562,
      "కొన్నిసార్లు": 4563,
      "నిర్వహించండి": 4564,
      "ఉత్పత్తులు": 4565,
      "అందించాలి": 4566,
      "అంతటా": 4567,
      "అంతరాయ": 4568,
      "అంతరిక్ష": 4569,
      "టోక్యో": 4570,
      "ప్రారంభి": 4571,
      "సోర్స్": 4572,
      "రోజుకు": 4573,
      "వేగం": 4574,
      "ప్రారంభంలో": 4575,
      "చేసుకోండి": 4576,
      "చెప్పడానికి": 4577,
      "చెప్పడం": 4578,
      "పడటానికి": 4579,
      "పడటం": 4580,
      "లెస్": 4581,
      "ప్రోటో": 4582,
      "మార్గాల": 4583,
      "మార్గాలను": 4584,
      "ప్రపంచంలోని": 4585,
      "తీసుకుంటుంది": 4586,
      "తీసుకువచ్చే": 4587,
      "భాగంగా": 4588,
      "జర్ట్": 4589,
      "వివరించే": 4590,
      "అయినా": 4591,
      "డెలివరీ": 4592,
      "డెజర్ట్": 4593,
      "ఉదాహరణలు": 4594,
      "చేస్తుందో": 4595,
      "రూపొందించడానికి": 4596,
      "రూపొందించడం": 4597,
      "అర్థవంతమైన": 4598,
      "ట్రాన్స్": 4599,
      "రియాలిటీ": 4600,
      "దోషి": 4601,
      "వలసి": 4602,
      "నీటిలో": 4603,
      "ధిప": 4604,
      "ప్రజలను": 4605,
      "చూడలేదు": 4606,
      "విస్తరించడానికి": 4607,
      "అవకాశాలు": 4608,
      "పొందండి": 4609,
      "ప్రయత్నం": 4610,
      "సాధనం": 4611,
      "సాధించవచ్చు": 4612,
      "సాధించడంలో": 4613,
      "బడ్డాడు": 4614,
      "వైపులా": 4615,
      "ప్రధానంగా": 4616,
      "అందంగా": 4617,
      "బ్యాండ్": 4618,
      "ప్రశ్నల": 4619,
      "కలంగా": 4620,
      "విలువలు": 4621,
      "జ్ఞానాన్ని": 4622,
      "నోటి": 4623,
      "నోట్స్": 4624,
      "ప్రత్యేకంగా": 4625,
      "తప్పనిసరి": 4626,
      "బడలేదు": 4627,
      "బడతారు": 4628,
      "కారణమవు": 4629,
      "అంశం": 4630,
      "అంశానికి": 4631,
      "అంశంపై": 4632,
      "కనుగొనవచ్చు": 4633,
      "సౌంద": 4634,
      "కున్నప్పుడు": 4635,
      "ప్రక్రియలో": 4636,
      "వెళ్ళడానికి": 4637,
      "అందుకే": 4638,
      "ఇంటిని": 4639,
      "మందికి": 4640,
      "మద్దతును": 4641,
      "ఉత్తర": 4642,
      "దించడం": 4643,
      "దించారు": 4644,
      "జీవితాన్ని": 4645,
      "మరమ్మ": 4646,
      "స్నేహ": 4647,
      "ప్రయాణి": 4648,
      "పార్క్": 4649,
      "ెక్ట్స్": 4650,
      "మొదటిసారి": 4651,
      "ంపజే": 4652,
      "కష్టపడి": 4653,
      "హెచ్": 4654,
      "హెచ్చ": 4655,
      "నియమ": 4656,
      "నియమాలు": 4657,
      "నేర్చుకోవడం": 4658,
      "స్థాయిలు": 4659,
      "బెటిస్": 4660,
      "బెదిరి": 4661,
      "స్వరం": 4662,
      "స్వయంప్రతి": 4663,
      "కోరుకున్న": 4664,
      "సంవత్సరంలో": 4665,
      "నిర్మించడం": 4666,
      "ట్రె": 4667,
      "బీన్స్": 4668,
      "తీవ్రంగా": 4669,
      "దూర": 4670,
      "వచ్చో": 4671,
      "వచ్చాను": 4672,
      "అనుభవాలు": 4673,
      "సానుకూలంగా": 4674,
      "ఎంపికలు": 4675,
      "ఎంపికలను": 4676,
      "వాసన": 4677,
      "స్థానం": 4678,
      "స్థానంలో": 4679,
      "విద్యార్థి": 4680,
      "నైపుణ్యం": 4681,
      "మెరుగ్గా": 4682,
      "వెళ్లండి": 4683,
      "నెట్వర్క్ను": 4684,
      "నిర్ధారించడం": 4685,
      "స్ట్రక్చర్": 4686,
      "నిర్మాణాన్ని": 4687,
      "గెలవ": 4688,
      "గ్రాఫిక్స్": 4689,
      "రైలు": 4690,
      "సముద్రపు": 4691,
      "విభజన": 4692,
      "ప్రింట్": 4693,
      "బద్ధం": 4694,
      "విస్తృతంగా": 4695,
      "విస్తృతమైన": 4696,
      "జంతువుల": 4697,
      "మారడానికి": 4698,
      "వెబ్సైట్ను": 4699,
      "పడుతున్నాను": 4700,
      "కాల్చిన": 4701,
      "పట్టుదల": 4702,
      "ప్లేట్": 4703,
      "కొలత": 4704,
      "కార్డులు": 4705,
      "ఒకేసారి": 4706,
      "ఇంధనాలను": 4707,
      "మేధస్సును": 4708,
      "ఇష్టపడలేదు": 4709,
      "పాయింట్ల": 4710,
      "నడిప": 4711,
      "నిరాకరించాడు": 4712,
      "రెండవది": 4713,
      "భవిష్యత్తును": 4714,
      "భవిష్యత్తులో": 4715,
      "రస్రా": 4716,
      "లోపల": 4717,
      "కాంక్ష": 4718,
      "సూచనలను": 4719,
      "కాలుష్య": 4720,
      "ంశం": 4721,
      "సవాళ్లు": 4722,
      "చేర్చండి": 4723,
      "లేఖలు": 4724,
      "చాట్బాట్": 4725,
      "ఆటోమేట్": 4726,
      "ఆటోమేటెడ్": 4727,
      "పర్యవేక్షించండి": 4728,
      "ఎక్కడి": 4729,
      "చరిత్రలో": 4730,
      "ధరలు": 4731,
      "వ్యూహాన్ని": 4732,
      "అనుసరించండి": 4733,
      "సమతుల్యతను": 4734,
      "ఆరోగ్యంపై": 4735,
      "చెప్పిన": 4736,
      "అమెరికాల": 4737,
      "టార్గెట్": 4738,
      "సాధనంగా": 4739,
      "ఒకరితో": 4740,
      "పాస్వర్డ్": 4741,
      "గుర్తింపును": 4742,
      "ప్రయత్నించాడు": 4743,
      "తొలగించడం": 4744,
      "జరిగింది": 4745,
      "ఫ్రాన్స్": 4746,
      "చిరునవ్వు": 4747,
      "ప్రతిస్పందనలను": 4748,
      "సిఫార్సులను": 4749,
      "పోషిస్తాయి": 4750,
      "ప్రాముఖ్యతను": 4751,
      "తెలిసిన": 4752,
      "వైవిధ్యం": 4753,
      "పనిచేస్తుందో": 4754,
      "అంగీకరించ": 4755,
      "అనుమతించే": 4756,
      "విషయాలు": 4757,
      "సరిపోయే": 4758,
      "కొనసాగించడానికి": 4759,
      "బృందం": 4760,
      "బృందంలో": 4761,
      "186": 4762,
      "గర్వ": 4763,
      "ఫారె": 4764,
      "బొగ్గు": 4765,
      "మరణించాడు": 4766,
      "నిబంధనలు": 4767,
      "నిబంధనలను": 4768,
      "సంప్రది": 4769,
      "చురుకుగా": 4770,
      "సూర్యుని": 4771,
      "తీసుకురావడానికి": 4772,
      "ఎలక్ట్రా": 4773,
      "అడ్డం": 4774,
      "అడ్వర్టై": 4775,
      "ఆనందించ": 4776,
      "క్రాస్": 4777,
      "శతాబ్ద": 4778,
      "సబ్జ": 4779,
      "కేలరీ": 4780,
      "రెండింటికీ": 4781,
      "ఆటగాళ్ళు": 4782,
      "అల్గారిథమ్లను": 4783,
      "ఆశిస్తున్నాను": 4784,
      "ఒప్పంద": 4785,
      "విజువల్": 4786,
      "ఆధారపడటాన్ని": 4787,
      "శరీరానికి": 4788,
      "ఉంటుందా": 4789,
      "ప్రయోగాలు": 4790,
      "త్వరలో": 4791,
      "నేపథ్య": 4792,
      "చెల్లింపు": 4793,
      "నిర్ణయించుకున్నాడు": 4794,
      "శ్రేయస్సును": 4795,
      "తెలియజేయడానికి": 4796,
      "ఇంతకు": 4797,
      "డయాబెటిస్": 4798,
      "స్కాంత": 4799,
      "విమానా": 4800,
      "చికిత్స": 4801,
      "తోటలో": 4802,
      "వేరియబుల్": 4803,
      "మూసివేయ": 4804,
      "తగ్గుతుంది": 4805,
      "ఉత్పాదకత": 4806,
      "చెప్పాను": 4807,
      "ఫ్రేమ్వర్క్": 4808,
      "పునరుద్ధరణ": 4809,
      "ఆస్వాదించండి": 4810,
      "వైవిధ్యమైన": 4811,
      "అయస్కాంత": 4812,
      "అడిగారు": 4813,
      "ఇండెక్": 4814,
      "నచ్చలేదు": 4815,
      "భారత": 4816,
      "వడ్డి": 4817,
      "డిగ్రీల": 4818,
      "నావిగేట్": 4819,
      "యాజమాన్": 4820,
      "తేలికపాటి": 4821,
      "కెమెరా": 4822,
      "స్పీకర్": 4823,
      "బెర్రీ": 4824,
      "స్వయంగా": 4825,
      "ముగింపులో": 4826,
      "ప్రతిబింబించే": 4827,
      "భాగస్వామ్యం": 4828,
      "ఆకట్టుకునే": 4829,
      "ప్రమోషన్లు": 4830,
      "ప్రశాంతమైన": 4831,
      "పురాతన": 4832,
      "చేయగలిగే": 4833,
      "పెరిగే": 4834,
      "బాగుంది": 4835,
      "నమూనాలో": 4836,
      "క్యారెక్": 4837,
      "విడిచిపెట్ట": 4838,
      "ఆహ్లాదకరమైన": 4839,
      "తండ్రి": 4840,
      "మంచం": 4841,
      "రసాయన": 4842,
      "వన్యప్రాణ": 4843,
      "స్లైడ్": 4844,
      "విప్లవాత్మక": 4845,
      "పుష్కలంగా": 4846,
      "సంభవిస్తుంది": 4847,
      "మునుపటి": 4848,
      "మిగిలిన": 4849,
      "వైశాల్యం": 4850,
      "రెసిపీని": 4851,
      "లీకేజీలను": 4852,
      "హాజరు": 4853,
      "అధిగమ": 4854,
      "సిద్ధాంతం": 4855,
      "ఫ్రెండ్లీ": 4856,
      "సంక్షిప్తీకరించండి": 4857,
      "విరుద్ధంగా": 4858,
      "అమరిక": 4859,
      "అదృష్టం": 4860,
      "ఇచ్చే": 4861,
      "ఎదగడానికి": 4862,
      "ఖండం": 4863,
      "జబ్బులు": 4864,
      "థ్రి": 4865,
      "క్లియర్": 4866,
      "దినచర్యను": 4867,
      "అనుసంధాని": 4868,
      "బ్రిటిష్": 4869,
      "చూశాను": 4870,
      "జియోథర్మల్": 4871,
      "క్రియాశీల": 4872,
      "అనధికారిక": 4873,
      "ఎలక్ట్రానిక్": 4874,
      "ధూమపానం": 4875,
      "సారూప్యత": 4876,
      "అటవీ": 4877,
      "అబ్బాయి": 4878,
      "అమ్మాయి": 4879,
      "ఆవశ్య": 4880,
      "ఆచరణాత్మక": 4881,
      "గందరగోళ": 4882,
      "చతురస్రా": 4883,
      "తదనుగుణంగా": 4884,
      "బైనరీ": 4885,
      "మహిళ": 4886,
      "సద్వినియోగం": 4887,
      "సమితి": 4888,
      "నుంచైనా": 4889,
      "ప్రవాహాన్ని": 4890,
      "సంకోచ": 4891,
      "చిటికెడు": 4892,
      "కొందరు": 4893,
      "నిర్మూలన": 4894,
      "కేవలం": 4895,
      "వైవిధ్యాన్ని": 4896,
      "స్వయంప్రతిపత్తి": 4897,
      "అడ్వర్టైజింగ్": 4898,
      ");.": 4899,
      "..": 4900,
      "14": 4901,
      "32": 4902,
      "ed": 4903,
      "ంపో": 4904,
      "ంకీ": 4905,
      "ంతిని": 4906,
      "అబ": 4907,
      "అర": 4908,
      "అసాధారణ": 4909,
      "అలెర్": 4910,
      "అర్ధ": 4911,
      "ఆకు": 4912,
      "ఆమ్": 4913,
      "ఆలి": 4914,
      "ఆసు": 4915,
      "ఆగి": 4916,
      "ఆపై": 4917,
      "ఆశా": 4918,
      "ఆకాశ": 4919,
      "ఆత్మ": 4920,
      "ఆకాశాన్ని": 4921,
      "ఆచార": 4922,
      "ఆధిప": 4923,
      "ఆకాంక్ష": 4924,
      "ఇరు": 4925,
      "ఇసు": 4926,
      "ఇల్లు": 4927,
      "ఉమ్మ": 4928,
      "ఎక్": 4929,
      "ఎఫ్": 4930,
      "ఏడు": 4931,
      "ఏకీ": 4932,
      "ఏమైనా": 4933,
      "ఐట": 4934,
      "ఐఫోన్": 4935,
      "ఒప్పు": 4936,
      "ఓఎస్": 4937,
      "ఓపెన్": 4938,
      "ఔషధ": 4939,
      "కప్": 4940,
      "కలను": 4941,
      "కవర్": 4942,
      "కాలా": 4943,
      "కశక్తి": 4944,
      "కరిగి": 4945,
      "కష్టమైన": 4946,
      "కమాండ్": 4947,
      "కన్నీ": 4948,
      "గై": 4949,
      "గ్య": 4950,
      "గటి": 4951,
      "గాలు": 4952,
      "గ్యా": 4953,
      "గారం": 4954,
      "గణా": 4955,
      "చొ": 4956,
      "చౌ": 4957,
      "చలి": 4958,
      "చాయి": 4959,
      "జలు": 4960,
      "జపాన్": 4961,
      "ట్యూ": 4962,
      "టంతో": 4963,
      "టోగ్ర": 4964,
      "డలు": 4965,
      "డౌన్": 4966,
      "ణీ": 4967,
      "ణిక": 4968,
      "తాయ": 4969,
      "తక్షణ": 4970,
      "తరిగిన": 4971,
      "తాయని": 4972,
      "థే": 4973,
      "ధీ": 4974,
      "నల": 4975,
      "నానికి": 4976,
      "నడా": 4977,
      "పంది": 4978,
      "పంట": 4979,
      "పంపు": 4980,
      "పగటి": 4981,
      "ఫే": 4982,
      "ఫ్యూ": 4983,
      "ఫండ్": 4984,
      "ఫైనా": 4985,
      "ఫండింగ్": 4986,
      "బన": 4987,
      "బౌ": 4988,
      "మణ": 4989,
      "మత": 4990,
      "మహ": 4991,
      "మాని": 4992,
      "మంట": 4993,
      "మన్ని": 4994,
      "మండ": 4995,
      "మనీ": 4996,
      "మరే": 4997,
      "మట్ట": 4998,
      "మాల్": 4999,
      "మహా": 5000,
      "మయ్యే": 5001,
      "మందులు": 5002,
      "రైన": 5003,
      "రమైన": 5004,
      "రద్దు": 5005,
      "రెట్లు": 5006,
      "లాయ": 5007,
      "లాలు": 5008,
      "లభి": 5009,
      "వన్": 5010,
      "వసా": 5011,
      "వస్తాయి": 5012,
      "వాలని": 5013,
      "వన్నీ": 5014,
      "శారా": 5015,
      "శత్రు": 5016,
      "సాల": 5017,
      "సమ్": 5018,
      "సన్న": 5019,
      "సమ్మి": 5020,
      "హాలు": 5021,
      "హాయి": 5022,
      "హరిత": 5023,
      "ింది": 5024,
      "ిస్తాయి": 5025,
      "ూఫ్": 5026,
      "ూహాన్ని": 5027,
      "ెషన్": 5028,
      "ేతు": 5029,
      "ోమ": 5030,
      "ోగానికి": 5031,
      "‌తో": 5032,
      "నింప": 5033,
      "రికా": 5034,
      "రిటీ": 5035,
      "రియాక్": 5036,
      "రివార్": 5037,
      "ర్రి": 5038,
      "ర్కి": 5039,
      "ర్షణ": 5040,
      "స్ఫ": 5041,
      "స్వి": 5042,
      "స్వర": 5043,
      "స్లీ": 5044,
      "స్కోరు": 5045,
      "స్కేల": 5046,
      "స్పోరా": 5047,
      "న్యా": 5048,
      "ంచాల": 5049,
      "ంచవచ్చు": 5050,
      "క్వె": 5051,
      "క్లీ": 5052,
      "దిత": 5053,
      "దిరిగా": 5054,
      "ాలంటే": 5055,
      "్యంగా": 5056,
      "్యాలు": 5057,
      "కుట్టు": 5058,
      "కుర్చ": 5059,
      "కుదించడానికి": 5060,
      "డింది": 5061,
      "డివై": 5062,
      "ప్రవాహ": 5063,
      "ప్రవర్త": 5064,
      "ప్రవాహం": 5065,
      "ప్రదేశాన్ని": 5066,
      "కిలో": 5067,
      "తులలో": 5068,
      "లుసు": 5069,
      "ట్బాల్": 5070,
      "ించకండి": 5071,
      "ించాము": 5072,
      "గాన్": 5073,
      "విచ": 5074,
      "విన్న": 5075,
      "విమర్": 5076,
      "ానింగ్": 5077,
      "రుదు": 5078,
      "రుస్తుంది": 5079,
      "తికి": 5080,
      "తిరోగ": 5081,
      "నార్": 5082,
      "నాన్": 5083,
      "నాది": 5084,
      "ంటా": 5085,
      "ంటాడు": 5086,
      "ంటాను": 5087,
      "త్వా": 5088,
      "త్తుల": 5089,
      "త్సాహ": 5090,
      "త్పత్తి": 5091,
      "మానం": 5092,
      "మాన్య": 5093,
      "మాణు": 5094,
      "మాణిక": 5095,
      "మాదిరిగా": 5096,
      "ప్స్": 5097,
      "మ్మారి": 5098,
      "వాక్": 5099,
      "వాణి": 5100,
      "నేర్": 5101,
      "నేటి": 5102,
      "నేర్ప": 5103,
      "పునాది": 5104,
      "దుంప": 5105,
      "లేము": 5106,
      "లేచి": 5107,
      "లేవు": 5108,
      "లేటెడ్": 5109,
      "సంపర్": 5110,
      "సంపూర్": 5111,
      "సంగీ": 5112,
      "సంగ్రహ": 5113,
      "సంప్రదాయ": 5114,
      "సంపన్న": 5115,
      "సంబంధాన్ని": 5116,
      "టిపి": 5117,
      "చేయలేదు": 5118,
      "చేయమని": 5119,
      "చేయలేను": 5120,
      "చేయాల్సి": 5121,
      "చేయాలనుకుంటున్న": 5122,
      "కోరి": 5123,
      "కోచ్": 5124,
      "కోరిక": 5125,
      "కోడింగ్": 5126,
      "లిస్ట్": 5127,
      "లిస్తే": 5128,
      "గ్రి": 5129,
      "గ్రిడ్": 5130,
      "గుణ": 5131,
      "గుహ": 5132,
      "గులు": 5133,
      "గురు": 5134,
      "గుల్": 5135,
      "చ్చు": 5136,
      "కాపాడు": 5137,
      "కాదని": 5138,
      "కాళ్ళు": 5139,
      "కామర్స్": 5140,
      "సుగు": 5141,
      "సుదీర్ఘ": 5142,
      "ష్టాన్ని": 5143,
      "చుర్యం": 5144,
      "సిల్": 5145,
      "సియా": 5146,
      "క్షిక": 5147,
      "క్షనల్": 5148,
      "డ్రి": 5149,
      "లాంటి": 5150,
      "ాలనుకోవడం": 5151,
      "ముని": 5152,
      "ములు": 5153,
      "ముద్దు": 5154,
      "ముగ్గు": 5155,
      "ముదురు": 5156,
      "తోక": 5157,
      "వేర": 5158,
      "వేళ": 5159,
      "వేషన్": 5160,
      "వేరే": 5161,
      "వేడె": 5162,
      "వేసింది": 5163,
      "పాక్షిక": 5164,
      "మెన్": 5165,
      "మెలో": 5166,
      "మెనూ": 5167,
      "మెడిసి": 5168,
      "యాన్": 5169,
      "యాంటీ": 5170,
      "మిస్": 5171,
      "మిశ్ర": 5172,
      "మిళి": 5173,
      "గిఫ్ట్": 5174,
      "కొర": 5175,
      "కొండ": 5176,
      "కొమ్మ": 5177,
      "కొద్ది": 5178,
      "పరిరక్షణ": 5179,
      "పరికల్ప": 5180,
      "పరిగె": 5181,
      "పరిశుభ్ర": 5182,
      "ందనే": 5183,
      "భావాన్ని": 5184,
      "భావిస్త": 5185,
      "తీత": 5186,
      "యింది": 5187,
      "యింట్": 5188,
      "వుతాయి": 5189,
      "రాతి": 5190,
      "రాత్ర": 5191,
      "రావడానికి": 5192,
      "రావడం": 5193,
      "తాగా": 5194,
      "అనుసరి": 5195,
      "అనుమానం": 5196,
      "పిజ్": 5197,
      "పియన్": 5198,
      "రీసెట్": 5199,
      "రీతిలో": 5200,
      "రీఫండ్": 5201,
      "పోతున్న": 5202,
      "పోవడానికి": 5203,
      "పోలిక": 5204,
      "పోలిస్తే": 5205,
      "చెడ్డ": 5206,
      "స్థలాన్ని": 5207,
      "్యాం": 5208,
      "సమన్": 5209,
      "సమర్ప": 5210,
      "సమూహాన్ని": 5211,
      "ఉపయోగపడుతుంది": 5212,
      "మార్చి": 5213,
      "మార్పి": 5214,
      "మార్చింది": 5215,
      "ప్రాంప్": 5216,
      "ప్రాక్టీ": 5217,
      "ప్రామాణిక": 5218,
      "ప్రాచుర్యం": 5219,
      "అవత": 5220,
      "నంపై": 5221,
      "నంబర్": 5222,
      "ప్పొ": 5223,
      "కోవటానికి": 5224,
      "వారాంత": 5225,
      "పొల": 5226,
      "పొరేషన్": 5227,
      "రోమ్": 5228,
      "రోడ్డు": 5229,
      "రోపియన్": 5230,
      "సహాయంతో": 5231,
      "ెట్టి": 5232,
      "తెల్ల": 5233,
      "చూసే": 5234,
      "చూసింది": 5235,
      "వారిని": 5236,
      "ప్రతిని": 5237,
      "ప్రతిచర్య": 5238,
      "ప్రతిదాన్ని": 5239,
      "జాతి": 5240,
      "జాకెట్": 5241,
      "గలరు": 5242,
      "గలనా": 5243,
      "గలడు": 5244,
      "ఉన్నాడని": 5245,
      "సేవ్": 5246,
      "సేకరించండి": 5247,
      "సేకరించిన": 5248,
      "శ్చి": 5249,
      "టీని": 5250,
      "టీనే": 5251,
      "మొదల": 5252,
      "పనిలో": 5253,
      "పనిచేస్తాయి": 5254,
      "పనిచేస్తాడు": 5255,
      "బిక్": 5256,
      "ఉన్నత": 5257,
      "ఉన్నారో": 5258,
      "డేటాకు": 5259,
      "రెజ్యూ": 5260,
      "రేఖ": 5261,
      "రేకె": 5262,
      "సహాయపడు": 5263,
      "సహాయపడింది": 5264,
      "బంతి": 5265,
      "వీల": 5266,
      "వీధి": 5267,
      "సెంట్ర": 5268,
      "ద్యోగ": 5269,
      "తరాలకు": 5270,
      "తగ్గిన": 5271,
      "వృద్ధ": 5272,
      "వృత్త": 5273,
      "వృథా": 5274,
      "ఫ్లా": 5275,
      "ఫ్లై": 5276,
      "భావాలు": 5277,
      "భావించాడు": 5278,
      "టర్న్": 5279,
      "టర్బై": 5280,
      "దానికంటే": 5281,
      "రూటర్": 5282,
      "రూపాన్ని": 5283,
      "వ్యక్తిత్వం": 5284,
      "తేడా": 5285,
      "బడిందని": 5286,
      "గొలుసు": 5287,
      "లైఫ్": 5288,
      "లైటింగ్": 5289,
      "మ్మర్": 5290,
      "అభిరుచి": 5291,
      "అభిరుచు": 5292,
      "పరమాణు": 5293,
      "వ్యాఖ్య": 5294,
      "వ్యాధులు": 5295,
      "వ్యాధుల": 5296,
      "సృష్టించే": 5297,
      "గ్రౌండ్": 5298,
      "క్రిమి": 5299,
      "దృఢ": 5300,
      "బోధి": 5301,
      "యూనియన్": 5302,
      "యూరోపియన్": 5303,
      "దారుల": 5304,
      "దారులు": 5305,
      "దారులను": 5306,
      "కార్లు": 5307,
      "కార్పొరేషన్": 5308,
      "జున్ను": 5309,
      "మోకాలి": 5310,
      "మోసాన్ని": 5311,
      "సైంటి": 5312,
      "కారకాలను": 5313,
      "అంగు": 5314,
      "అంగార": 5315,
      "చర్యలకు": 5316,
      "తగ్గించే": 5317,
      "వ్యవధి": 5318,
      "కెనడా": 5319,
      "పూట": 5320,
      "గోళిక": 5321,
      "గోధు": 5322,
      "గణి": 5323,
      "శిథి": 5324,
      "ఉంటాను": 5325,
      "ఎక్కువసేపు": 5326,
      "ించినట్లయితే": 5327,
      "తెలుసుకోవ": 5328,
      "గేమ్స్": 5329,
      "త్రిభు": 5330,
      "అభివృద్ధిని": 5331,
      "వినియోగదారుని": 5332,
      "వినియోగదారుకు": 5333,
      "ంపుల": 5334,
      "మనస్సు": 5335,
      "హాట్": 5336,
      "నెర": 5337,
      "వంతులు": 5338,
      "రక్షించడంలో": 5339,
      "సోలార్": 5340,
      "రోజును": 5341,
      "ప్రారంభించ": 5342,
      "ప్రారంభించవచ్చు": 5343,
      "ప్రారంభమవు": 5344,
      "ప్రారంభమైంది": 5345,
      "కర్త": 5346,
      "కర్బన": 5347,
      "గుర్తించే": 5348,
      "గుర్తించవచ్చు": 5349,
      "గుర్తించడంలో": 5350,
      "చేసుకోవచ్చు": 5351,
      "చేసుకోవాలి": 5352,
      "చేసుకున్నా": 5353,
      "చెప్పే": 5354,
      "చెప్పారు": 5355,
      "చెప్పగలరా": 5356,
      "లక్ష్యంతో": 5357,
      "ప్రోటీ": 5358,
      "మైళ్ళు": 5359,
      "చర్చి": 5360,
      "ప్రపంచానికి": 5361,
      "ఆర్ఎన్": 5362,
      "టెస్టింగ్": 5363,
      "ఆరోగ్యానికి": 5364,
      "భాగంలో": 5365,
      "అవసరమైతే": 5366,
      "సమస్యల": 5367,
      "తక్కువగా": 5368,
      "సర్వే": 5369,
      "సర్వర్": 5370,
      "సర్వ్": 5371,
      "సర్క్యూ": 5372,
      "మార్పుల": 5373,
      "డెన్": 5374,
      "ఫీసు": 5375,
      "తెలియదా": 5376,
      "పెద్దది": 5377,
      "ప్రోత్సాహ": 5378,
      "రియల్స్": 5379,
      "ప్రోత్సహించడంలో": 5380,
      "ఉద్యోగానికి": 5381,
      "తమను": 5382,
      "ప్రజల": 5383,
      "ప్రజంటేషన్": 5384,
      "వ్యక్తులను": 5385,
      "వ్యక్తులకు": 5386,
      "ాలనుకుంటున్నాడు": 5387,
      "పొందే": 5388,
      "పరచడం": 5389,
      "పెరుగుతోంది": 5390,
      "పరిష్కరించండి": 5391,
      "టెక్చర్": 5392,
      "బడ్డాను": 5393,
      "విద్యను": 5394,
      "విద్యాల": 5395,
      "ప్రాంతాల": 5396,
      "ప్రాంతాలకు": 5397,
      "తారుమారు": 5398,
      "యాక్టివిటీ": 5399,
      "అవును": 5400,
      "బ్యాం": 5401,
      "బ్యాంకింగ్": 5402,
      "ఇంటర్ఫేస్": 5403,
      "ప్రశ్నలను": 5404,
      "కలత": 5405,
      "కలవడానికి": 5406,
      "దశలో": 5407,
      "సరిచేయండి": 5408,
      "ఇష్టపడే": 5409,
      "భూకంప": 5410,
      "పాదముద్రను": 5411,
      "సమయాలను": 5412,
      "అతనితో": 5413,
      "చేస్తే": 5414,
      "చేస్తాడని": 5415,
      "చేస్తానని": 5416,
      "వార్షిక": 5417,
      "కథకు": 5418,
      "తప్పించు": 5419,
      "చేయగలమని": 5420,
      "పర్యాట": 5421,
      "అంశాలపై": 5422,
      "సౌలభ": 5423,
      "సంరక్షణలో": 5424,
      "వెళ్ళడం": 5425,
      "వెళ్ళాడు": 5426,
      "వెళ్ళాను": 5427,
      "ఎవరో": 5428,
      "సీక్వె": 5429,
      "రంగాలలో": 5430,
      "జీవనో": 5431,
      "కంపెనీలను": 5432,
      "టైల్": 5433,
      "దించే": 5434,
      "పరిగణించండి": 5435,
      "ఆకర్షి": 5436,
      "ఫలితం": 5437,
      "ఆలోచనతో": 5438,
      "తలుపులు": 5439,
      "పనులకు": 5440,
      "పనులపై": 5441,
      "ఫైల్": 5442,
      "ఫైబర్": 5443,
      "ఫైళ్లను": 5444,
      "ముద్రణ": 5445,
      "కష్టతరం": 5446,
      "తయార": 5447,
      "తయారీ": 5448,
      "వ్రాయ": 5449,
      "ఎంపికను": 5450,
      "నియమం": 5451,
      "స్టార్": 5452,
      "స్టార్ట్": 5453,
      "నేర్చుకోవచ్చు": 5454,
      "సంక్షే": 5455,
      "అంతర్గత": 5456,
      "స్వరాన్ని": 5457,
      "కోరుకో": 5458,
      "కాలికంగా": 5459,
      "పరిస్థితుల": 5460,
      "భాషలో": 5461,
      "అనుకోకుండా": 5462,
      "ఆటలో": 5463,
      "కనిపిస్తుంది": 5464,
      "కారును": 5465,
      "జనాభ": 5466,
      "య్యారు": 5467,
      "తీవ్రత": 5468,
      "రంగులో": 5469,
      "శాస్త్రంలో": 5470,
      "కల్పించడం": 5471,
      "న్‌లో": 5472,
      "కుంటూ": 5473,
      "ప్రొవై": 5474,
      "స్తున్నాయి": 5475,
      "సురక్షితం": 5476,
      "స్థాపించ": 5477,
      "దారితీసింది": 5478,
      "పర్యటన": 5479,
      "పర్యవసా": 5480,
      "ఉద్యోగం": 5481,
      "ఉద్యోగాలను": 5482,
      "ఆన్లైన్లో": 5483,
      "అమెజాన్": 5484,
      "వెళ్లాలని": 5485,
      "వెళ్లాలనుకుంటున్నారా": 5486,
      "ప్రయోజనకరమైన": 5487,
      "నమ్మకాన్ని": 5488,
      "నివారణ": 5489,
      "పరీక్షించడం": 5490,
      "వాయువు": 5491,
      "వాయువులను": 5492,
      "చూపుతాయి": 5493,
      "గ్రాఫ్": 5494,
      "బర్న్": 5495,
      "బ్రౌ": 5496,
      "బ్రష్": 5497,
      "భ్రమ": 5498,
      "శరీరాన్ని": 5499,
      "విభే": 5500,
      "అవగాహనను": 5501,
      "వైద్యంలో": 5502,
      "ప్రేక్షకులకు": 5503,
      "సిస్టమ్స్": 5504,
      "కీలకమైన": 5505,
      "పదజాలం": 5506,
      "లెక్టివ్": 5507,
      "స్తానని": 5508,
      "ముఖం": 5509,
      "సేవను": 5510,
      "డ్రైవ్": 5511,
      "కనెక్": 5512,
      "గంటలకు": 5513,
      "మొక్కలను": 5514,
      "ప్రోగ్రామింగ్": 5515,
      "దుస్తులను": 5516,
      "పోయాను": 5517,
      "మూలం": 5518,
      "కాల్స్": 5519,
      "కాల్చడం": 5520,
      "సూచించే": 5521,
      "పదార్థం": 5522,
      "పదార్థాలు": 5523,
      "కార్యకలాపాల": 5524,
      "కార్యకలాపాలు": 5525,
      "నష్టాలు": 5526,
      "నగరాల్లో": 5527,
      "సభ్యుల": 5528,
      "సభ్యులతో": 5529,
      "క్రీం": 5530,
      "క్రీడ": 5531,
      "చర్చలు": 5532,
      "చర్చించడానికి": 5533,
      "నిర్ధారించుకోవడానికి": 5534,
      "గౌరవాన్ని": 5535,
      "జన్మ": 5536,
      "ఫెడ": 5537,
      "ప్రచారాన్ని": 5538,
      "ఒకేలా": 5539,
      "సాంకేతికతలో": 5540,
      "శుభ్రం": 5541,
      "శుభ్రంగా": 5542,
      "పాయింట్లను": 5543,
      "అభ్యస": 5544,
      "ఆప్షన్": 5545,
      "కావాలా": 5546,
      "కావాలనుకుంటే": 5547,
      "వ్యూహం": 5548,
      "రెండవ": 5549,
      "మెరుగుపరుస్తాయి": 5550,
      "అవుట్ను": 5551,
      "ఎదుర్కోవడం": 5552,
      "చదవడానికి": 5553,
      "బైక్": 5554,
      "ప్రవర్తనను": 5555,
      "కాంపో": 5556,
      "చెందే": 5557,
      "సమూహాల": 5558,
      "సూచనలు": 5559,
      "కాలుష్యం": 5560,
      "కాలుష్యానికి": 5561,
      "ప్రమాదాలను": 5562,
      "ఉత్తమమైన": 5563,
      "లెక్కించండి": 5564,
      "లెక్కించే": 5565,
      "నిమిషం": 5566,
      "అమ్మకాల": 5567,
      "అమ్మకాలు": 5568,
      "అమ్మకాలను": 5569,
      "ఆస్వాదించడానికి": 5570,
      "చట్టాలు": 5571,
      "వ్యత్యాసాన్ని": 5572,
      "కేటాయి": 5573,
      "చూసుకోవడానికి": 5574,
      "సమానంగా": 5575,
      "పర్యవేక్షించడం": 5576,
      "ఛాన": 5577,
      "ఛానె": 5578,
      "ప్యాక్": 5579,
      "ప్రజాదరణ": 5580,
      "తాజాగా": 5581,
      "సమతుల్యం": 5582,
      "స్నేహితుడిని": 5583,
      "ఉష్ణోగ్రతను": 5584,
      "ఉష్ణోగ్రతల": 5585,
      "స్వేచ్ఛగా": 5586,
      "టూల్": 5587,
      "త్రాగ": 5588,
      "పడ్డ": 5589,
      "వినడానికి": 5590,
      "ప్లగ్": 5591,
      "ప్లానింగ్": 5592,
      "సంతృప్తిని": 5593,
      "ఒకరినొక": 5594,
      "ఇంటరాక్షన్": 5595,
      "విశ్వవిద్యాల": 5596,
      "ప్రయత్నించడం": 5597,
      "తగినంతగా": 5598,
      "ఆందోళనలు": 5599,
      "ఇద్దరికీ": 5600,
      "గడిపే": 5601,
      "జరిగిందని": 5602,
      "జరిగిందో": 5603,
      "పక్షులు": 5604,
      "ఫుట్బాల్": 5605,
      "ఫేస్బుక్": 5606,
      "ల్యాండ్": 5607,
      "పొరను": 5608,
      "చూపించడానికి": 5609,
      "తరగతులను": 5610,
      "కృతజ్ఞ": 5611,
      "ట్రాఫిక్ను": 5612,
      "దోహద": 5613,
      "కళాకారు": 5614,
      "విభజించండి": 5615,
      "ప్రకటనలు": 5616,
      "సిఫార్సులు": 5617,
      "ఇచ్చింది": 5618,
      "జరగవచ్చు": 5619,
      "రాలేదు": 5620,
      "నిష్పాక్షిక": 5621,
      "పిలుపు": 5622,
      "న్యాయమైన": 5623,
      "క్రమబద్ధంగా": 5624,
      "నిమగ్నత": 5625,
      "నియంత్రించ": 5626,
      "కరిస్తుంది": 5627,
      "హ్యాండ్": 5628,
      "రుచికరమైన": 5629,
      "పరిణామాలు": 5630,
      "పొందుతుంది": 5631,
      "పొందుతారు": 5632,
      "తీసుకోవలసిన": 5633,
      "సూర్యుడి": 5634,
      "సూర్యుడు": 5635,
      "ప్రేరేపిస్తుంది": 5636,
      "ప్రేరేపించే": 5637,
      "తీసుకురావడం": 5638,
      "ఎదురుచూస్తున్నాము": 5639,
      "అంతర్దృష్టులు": 5640,
      "పాల్గొనడానికి": 5641,
      "పాలకూర": 5642,
      "సలహాలు": 5643,
      "హక్కులను": 5644,
      "స్పెసిఫికేషన్": 5645,
      "ప్రస్తుతం": 5646,
      "మానుకోండి": 5647,
      "సందేహ": 5648,
      "చెబుతారు": 5649,
      "కేలరీలు": 5650,
      "రెండింటినీ": 5651,
      "రేటును": 5652,
      "అభిప్రాయం": 5653,
      "ధోరణి": 5654,
      "ధోరణులను": 5655,
      "నమ్ముతారు": 5656,
      "యుద్ధంలో": 5657,
      "సాధ్యమైన": 5658,
      "సాధ్యమవుతుంది": 5659,
      "ముందే": 5660,
      "పిక్నిక్": 5661,
      "బిలిటీని": 5662,
      "సమాచారంతో": 5663,
      "వాస్తవికత": 5664,
      "ఖరీదైనది": 5665,
      "ఖరీదైనవి": 5666,
      "ంగిల": 5667,
      "అధ్యయన": 5668,
      "ఎడమ": 5669,
      "ఎడ్యు": 5670,
      "దొంగిల": 5671,
      "ధ్యాయు": 5672,
      "ధ్యానం": 5673,
      "పచ్చబొ": 5674,
      "పంపడం": 5675,
      "బరువును": 5676,
      "భౌగోళిక": 5677,
      "లోతుగా": 5678,
      "నేపథ్యం": 5679,
      "చెల్లిస్తారు": 5680,
      "రోబోట్": 5681,
      "ఆలోచిస్తున్నాను": 5682,
      "బడ్జెట్ను": 5683,
      "కనిపిస్తాడు": 5684,
      "ప్రతిస్పందించడానికి": 5685,
      "ప్రచారాల": 5686,
      "అన్వేషించడం": 5687,
      "స్వచ్ఛంద": 5688,
      "డయాస్పోరా": 5689,
      "దెయ": 5690,
      "దెబ్బ": 5691,
      "ఫ్యాషన్": 5692,
      "స్టులు": 5693,
      "క్షీణ": 5694,
      "వేరియబుల్స్": 5695,
      "సరదాగా": 5696,
      "తీసుకోవచ్చా": 5697,
      "సెలవు": 5698,
      "ఉత్పాదకతను": 5699,
      "సోదరు": 5700,
      "ఆర్కిటెక్చర్": 5701,
      "టెలిస్కో": 5702,
      "మాట్లాడుతున్నా": 5703,
      "ఎదుగుదల": 5704,
      "హైడ్రే": 5705,
      "అక్కడే": 5706,
      "ఆకలితో": 5707,
      "నవీకరించడం": 5708,
      "వడ్డీ": 5709,
      "నిరుద్యోగ": 5710,
      "నిండిన": 5711,
      "ప్రచురించ": 5712,
      "వివరాలను": 5713,
      "నావిగేషన్": 5714,
      "దుకాణ": 5715,
      "సాహిత్యం": 5716,
      "పెయింట్": 5717,
      "మెకానిక్స్": 5718,
      "యాజమాన్య": 5719,
      "పోరాడ": 5720,
      "చెందాడు": 5721,
      "వ్యక్తీకరణను": 5722,
      "ఎవరితో": 5723,
      "స్వయంచాల": 5724,
      "శాస్త్రవేత్తలు": 5725,
      "ఆసక్తులు": 5726,
      "నడపడానికి": 5727,
      "________________": 5728,
      "గడపడం": 5729,
      "విశ్వసనీయతను": 5730,
      "చనిపో": 5731,
      "స్కేల్": 5732,
      "ముడిపడి": 5733,
      "మూడవ": 5734,
      "మూడవది": 5735,
      "పట్టించుకోవడం": 5736,
      "పరిమాణంలో": 5737,
      "చిరునామా": 5738,
      "క్రమబద్ధీకరించండి": 5739,
      "సహోద్యోగులతో": 5740,
      "అడిగాడు": 5741,
      "చక్రం": 5742,
      "వ్రాత": 5743,
      "విదేశీ": 5744,
      "మీటర్ల": 5745,
      "సంకేత": 5746,
      "సంభవించే": 5747,
      "మిలియన్ల": 5748,
      "మిరియాల": 5749,
      "తెరిచి": 5750,
      "సమాజంపై": 5751,
      "అభినంది": 5752,
      "అంకిత": 5753,
      "రక్షించుకోవడానికి": 5754,
      "అనుభూతిని": 5755,
      "ఎంగేజింగ్": 5756,
      "ఫైర్వాల్": 5757,
      "పాఠశాలలో": 5758,
      "బాధ్యతాయుతమైన": 5759,
      "నివారించడంలో": 5760,
      "సమీపంలో": 5761,
      "తొలగింపు": 5762,
      "విజువలైజేషన్": 5763,
      "అధ్యయనాలు": 5764,
      "అసమానతలను": 5765,
      "ఆయుధ": 5766,
      "ఇతివృత్త": 5767,
      "ఉపాధ్యాయు": 5768,
      "ధ్వని": 5769,
      "స్కిల్స్": 5770,
      "కుళాయిలు": 5771,
      "కిటికీ": 5772,
      "విల్లే": 5773,
      "ప్రియమైన": 5774,
      "టాబ్లెట్": 5775,
      "ద్వేషి": 5776,
      "చెప్పులు": 5777,
      "స్ట్రిప్": 5778,
      "ఇంటిగ్రేషన్": 5779,
      "బహుమతులు": 5780,
      "స్వతంత్రంగా": 5781,
      "గ్రామస్తు": 5782,
      "ప్రిడిక్టివ్": 5783,
      "రాజ్యసమితి": 5784,
      "అనారోగ్యంతో": 5785,
      "వాగ్దానాన్ని": 5786,
      "ఇమేజ్": 5787,
      "ఎఫెక్ట్స్": 5788,
      "ఎత్తైన": 5789,
      "ఐక్యరాజ్యసమితి": 5790,
      "కనెక్షన్": 5791,
      "గూగుల్": 5792,
      "గట్టిగా": 5793,
      "ఫరెన్స్": 5794,
      "మళ్లీ": 5795,
      "వోల్టే": 5796,
      "సరీసృ": 5797,
      "రిపోర్టింగ్": 5798,
      "వాషింగ్టన్": 5799,
      "చింతిస్తున్నాను": 5800,
      "వెతుకుతున్న": 5801,
      "అవ్వండి": 5802,
      "బాస్కెట్": 5803,
      "మూడేళ్ల": 5804,
      "మర్చిపోవద్దు": 5805,
      "అంతరాయం": 5806,
      "అంతరిక్షంలో": 5807,
      "తప్పనిసరిగా": 5808,
      "మరమ్మత్తు": 5809,
      "సబ్జెక్టు": 5810,
      "కేలరీల": 5811,
      "విమానాశ్రయ": 5812,
      "ఇండెక్స్": 5813,
      "యాజమాన్యం": 5814,
      "అబద్ద": 5815,
      "అలెర్జీ": 5816,
      "ఇసుక": 5817,
      "ఉమ్మడి": 5818,
      "గణాం": 5819,
      "జలుబు": 5820,
      "టోగ్రఫీ": 5821,
      "పగటిపూట": 5822,
      "మహమ్మారి": 5823,
      "మన్నికైన": 5824,
      "కుర్చీ": 5825,
      "విమర్శ": 5826,
      "వాణిజ": 5827,
      "సంపర్కం": 5828,
      "ముగ్గురు": 5829,
      "వేడెక్క": 5830,
      "మెడిసిన్": 5831,
      "మిళితం": 5832,
      "పరికల్పనను": 5833,
      "ప్రాక్టీస్": 5834,
      "మొదలైనవి": 5835,
      "రెజ్యూమె": 5836,
      "రేకెత్తి": 5837,
      "సెంట్రల్": 5838,
      "గోధుమ": 5839,
      "త్రిభుజం": 5840,
      "మనస్సును": 5841,
      "ఒకరినొకరు": 5842,
      "స్పెసిఫికేషన్లను": 5843,
      "టెలిస్కోప్": 5844,
      "\").": 5845,
      "13": 5846,
      "21": 5847,
      "25": 5848,
      "200": 5849,
      "34": 5850,
      "42": 5851,
      "44": 5852,
      "77": 5853,
      "85": 5854,
      "ct": 5855,
      "ంబి": 5856,
      "ంక్స్": 5857,
      "ంశాన్ని": 5858,
      "అప": 5859,
      "అస్": 5860,
      "అపో": 5861,
      "అప్పు": 5862,
      "అస్పష్టంగా": 5863,
      "అటువంటి": 5864,
      "అకడ": 5865,
      "అబద్ధం": 5866,
      "అరుదు": 5867,
      "ఆరు": 5868,
      "ఆత్": 5869,
      "ఆనం": 5870,
      "ఆండ్ర": 5871,
      "ఆడియో": 5872,
      "ఆకస్": 5873,
      "ఇట": 5874,
      "ఇద": 5875,
      "ఇన్నో": 5876,
      "ఇస్తారా": 5877,
      "ఈక్వి": 5878,
      "ఉల్ల": 5879,
      "ఉల్లి": 5880,
      "ఉడికి": 5881,
      "ఉల్లా": 5882,
      "ఊహా": 5883,
      "ఊపిరి": 5884,
      "ఎర్": 5885,
      "ఎడి": 5886,
      "ఎమ్": 5887,
      "ఎఫిషియ": 5888,
      "ఎంటర్": 5889,
      "ఏవి": 5890,
      "ఏరో": 5891,
      "ఏడా": 5892,
      "ఏజెంట్": 5893,
      "ఐడీ": 5894,
      "ఒక్": 5895,
      "ఓదా": 5896,
      "కది": 5897,
      "కట్": 5898,
      "కగా": 5899,
      "కాయ": 5900,
      "కన్స్": 5901,
      "కదల": 5902,
      "ఖండ": 5903,
      "ఖ్యా": 5904,
      "గన్": 5905,
      "గతి": 5906,
      "గడ్": 5907,
      "గమం": 5908,
      "గసంపర్కం": 5909,
      "ఘనీ": 5910,
      "చది": 5911,
      "చారు": 5912,
      "చాను": 5913,
      "చక్రా": 5914,
      "జర": 5915,
      "జూ": 5916,
      "జరి": 5917,
      "జలా": 5918,
      "జరుపు": 5919,
      "జైనర్": 5920,
      "టారు": 5921,
      "టచ్": 5922,
      "టమి": 5923,
      "డ్యా": 5924,
      "డపై": 5925,
      "డదీ": 5926,
      "డెంట్": 5927,
      "డర్లు": 5928,
      "ణ్యం": 5929,
      "తారా": 5930,
      "తనం": 5931,
      "తలె": 5932,
      "త్యాన్ని": 5933,
      "తడిగా": 5934,
      "థె": 5935,
      "దై": 5936,
      "దంగా": 5937,
      "దనం": 5938,
      "దట్ట": 5939,
      "దయాన్ని": 5940,
      "దద్దు": 5941,
      "ధం": 5942,
      "ధులను": 5943,
      "ధరించడం": 5944,
      "ధరించండి": 5945,
      "నాల్": 5946,
      "నవల": 5947,
      "నహాయి": 5948,
      "నష్టాన్ని": 5949,
      "పఠ": 5950,
      "పంగా": 5951,
      "పదే": 5952,
      "పగల": 5953,
      "పజి": 5954,
      "పకరణ": 5955,
      "పదం": 5956,
      "పౌండ్": 5957,
      "ఫాల్": 5958,
      "బ్యూ": 5959,
      "బట్ట": 5960,
      "భను": 5961,
      "మట": 5962,
      "మడ": 5963,
      "మయ": 5964,
      "మది": 5965,
      "మానికి": 5966,
      "మతో": 5967,
      "మంద": 5968,
      "మించి": 5969,
      "మోగ్రా": 5970,
      "మధ్యా": 5971,
      "యాని": 5972,
      "యండి": 5973,
      "యాలను": 5974,
      "యారం": 5975,
      "యవ్వ": 5976,
      "రొ": 5977,
      "రపు": 5978,
      "రాలను": 5979,
      "రహి": 5980,
      "రద్దీ": 5981,
      "లంగా": 5982,
      "లెట్": 5983,
      "ల్యూ": 5984,
      "ళిత": 5985,
      "వణ": 5986,
      "వశ": 5987,
      "వని": 5988,
      "వసం": 5989,
      "వయం": 5990,
      "వాలి": 5991,
      "వళి": 5992,
      "శె": 5993,
      "సట": 5994,
      "సద": 5995,
      "సవ": 5996,
      "సరు": 5997,
      "సలా": 5998,
      "సాల్": 5999,
      "సాలకు": 6000,
      "సరియ": 6001,
      "సజీవ": 6002,
      "సత్వ": 6003,
      "సనల్": 6004,
      "సత్వర": 6005,
      "హలో": 6006,
      "హాల్": 6007,
      "ాప": 6008,
      "ాడా": 6009,
      "ితంగా": 6010,
      "ీకరించండి": 6011,
      "ువు": 6012,
      "ురాలు": 6013,
      "ూర్తి": 6014,
      "ృహ": 6015,
      "ెన్స్": 6016,
      "ెన్సీ": 6017,
      "ొత్త": 6018,
      "ోర్": 6019,
      "ోంది": 6020,
      "్వం": 6021,
      "‌మే": 6022,
      "‌బాల్": 6023,
      "‌విచ్": 6024,
      "నిస్": 6025,
      "నింది": 6026,
      "నిలి": 6027,
      "నిషన్": 6028,
      "నిందించ": 6029,
      "నింపు": 6030,
      "రినీ": 6031,
      "రికార్": 6032,
      "రిపేర్": 6033,
      "రిస్తూ": 6034,
      "రిపోర్ట్": 6035,
      "రిటైల్": 6036,
      "రిఫరెన్స్": 6037,
      "నువ్వు": 6038,
      "ర్చే": 6039,
      "ర్భావం": 6040,
      "స్ప్ర": 6041,
      "స్క్ర": 6042,
      "స్పర్": 6043,
      "న్యు": 6044,
      "న్షన్": 6045,
      "న్షియ": 6046,
      "ంచబడుతుంది": 6047,
      "క్ష్": 6048,
      "దించండి": 6049,
      "్యమైన": 6050,
      "కుడికి": 6051,
      "యుగ": 6052,
      "యువల్": 6053,
      "మరికొన్ని": 6054,
      "డిన్న": 6055,
      "డిష్": 6056,
      "డితో": 6057,
      "డిపాజి": 6058,
      "డిజైనర్": 6059,
      "ప్రతీ": 6060,
      "ప్రవహించే": 6061,
      "ప్రూఫ్": 6062,
      "కిరా": 6063,
      "తుది": 6064,
      "తుడు": 6065,
      "తుందా": 6066,
      "ందిస్త": 6067,
      "ట్రిక్": 6068,
      "ించదు": 6069,
      "ించారా": 6070,
      "ించకుండా": 6071,
      "ించబడు": 6072,
      "ించగలను": 6073,
      "ించలేను": 6074,
      "గానే": 6075,
      "గార్డ్": 6076,
      "వింత": 6077,
      "వింటు": 6078,
      "విత్త": 6079,
      "విక్ర": 6080,
      "వికేంద్రీకృత": 6081,
      "విహార": 6082,
      "విశే": 6083,
      "విసుగు": 6084,
      "విటమి": 6085,
      "లోమాను": 6086,
      "చేత": 6087,
      "చేకూ": 6088,
      "చేసాను": 6089,
      "చేపట్ట": 6090,
      "చేద్దాం": 6091,
      "చేసాడు": 6092,
      "రుణం": 6093,
      "తింటు": 6094,
      "నాళ": 6095,
      "నాప్": 6096,
      "ల్ప": 6097,
      "మీణ": 6098,
      "మీటింగ్": 6099,
      "మీడియ": 6100,
      "డుకు": 6101,
      "మానే": 6102,
      "మాయా": 6103,
      "మానాన్ని": 6104,
      "ప్లి": 6105,
      "ప్పై": 6106,
      "ప్లై": 6107,
      "ప్చర్": 6108,
      "వాతి": 6109,
      "వాసం": 6110,
      "వాచ్": 6111,
      "నేచు": 6112,
      "నేషనల్": 6113,
      "పురుగు": 6114,
      "పుట్ట": 6115,
      "పుకారు": 6116,
      "పువ్వు": 6117,
      "దులను": 6118,
      "లేనివా": 6119,
      "లేయర్": 6120,
      "లేనప్పుడు": 6121,
      "ైనదా": 6122,
      "సంతా": 6123,
      "సంకల్ప": 6124,
      "సందేశం": 6125,
      "టిక్స్": 6126,
      "టింగు": 6127,
      "టిఎమ్": 6128,
      "దాచిన": 6129,
      "చేయని": 6130,
      "చేయదు": 6131,
      "చేయటానికి": 6132,
      "చేయాలనుకుంటే": 6133,
      "చేయడమే": 6134,
      "చేయాలనుకుంటున్నారు": 6135,
      "చేయకూడదని": 6136,
      "కోలు": 6137,
      "కోట్": 6138,
      "కోకుండా": 6139,
      "కోరాడు": 6140,
      "కోపంగా": 6141,
      "లింది": 6142,
      "లిఫ్ట్": 6143,
      "ాయ్": 6144,
      "గ్నిషన్": 6145,
      "ంతరం": 6146,
      "గుండ్ర": 6147,
      "స్తుంటే": 6148,
      "చ్ను": 6149,
      "క్కని": 6150,
      "క్కలు": 6151,
      "కాహా": 6152,
      "కాంటా": 6153,
      "సుందర": 6154,
      "సుగమం": 6155,
      "చుకున్నాడు": 6156,
      "సిం": 6157,
      "సిరీ": 6158,
      "సివ్": 6159,
      "సిగర": 6160,
      "సారించే": 6161,
      "లాగా": 6162,
      "లాగి": 6163,
      "లాండు": 6164,
      "ాలనుకునే": 6165,
      "ముఖా": 6166,
      "మురికి": 6167,
      "ముప్పై": 6168,
      "స్తాయని": 6169,
      "ఒకవేళ": 6170,
      "చివర": 6171,
      "చివరకు": 6172,
      "చిహ్": 6173,
      "చిక్కని": 6174,
      "న్నాయి": 6175,
      "వేట": 6176,
      "వేడిని": 6177,
      "పాతం": 6178,
      "పాధి": 6179,
      "పానీయ": 6180,
      "పాంతరం": 6181,
      "పెడు": 6182,
      "పెట్టి": 6183,
      "పెంచండి": 6184,
      "పెంప": 6185,
      "పెట్టాడు": 6186,
      "మెథ": 6187,
      "మెక్": 6188,
      "మెంట": 6189,
      "మెటా": 6190,
      "మెత్త": 6191,
      "మెటల్": 6192,
      "మెమరీ": 6193,
      "మెట్రిక్": 6194,
      "వచ్చిన": 6195,
      "యాక్షన్": 6196,
      "మిలీ": 6197,
      "మిశ్రమ": 6198,
      "మినహాయి": 6199,
      "కొలు": 6200,
      "కొడుకు": 6201,
      "ండమ్": 6202,
      "ండటంతో": 6203,
      "పరిపాల": 6204,
      "ందన": 6205,
      "భాగానికి": 6206,
      "సహనం": 6207,
      "సహకరించడం": 6208,
      "మేల్": 6209,
      "మేజర్": 6210,
      "తీర": 6211,
      "యిల్": 6212,
      "యింగ్": 6213,
      "నిర్మి": 6214,
      "నిర్లక్ష్య": 6215,
      "నిర్దేశం": 6216,
      "వులతో": 6217,
      "వుల్లో": 6218,
      "రాణి": 6219,
      "రాశాడు": 6220,
      "తాకి": 6221,
      "తాగు": 6222,
      "తార్కి": 6223,
      "అనుకున్న": 6224,
      "ఉపయోగాన్ని": 6225,
      "పిండి": 6226,
      "పిల్లి": 6227,
      "పిణీ": 6228,
      "పోషణ": 6229,
      "పోవడం": 6230,
      "చెడి": 6231,
      "చెవి": 6232,
      "చెక్క": 6233,
      "చెరువు": 6234,
      "చెల్లు": 6235,
      "చెమట": 6236,
      "్యాడు": 6237,
      "ఉపయోగంలో": 6238,
      "ఉపయోగకరమైన": 6239,
      "నీయం": 6240,
      "స్టాల్": 6241,
      "పైగా": 6242,
      "పైపులు": 6243,
      "ంటిని": 6244,
      "వెం": 6245,
      "వెక్టర్": 6246,
      "మార్చే": 6247,
      "ప్రావీ": 6248,
      "ప్రాబ్ల": 6249,
      "అవ్": 6250,
      "అవలో": 6251,
      "అవరో": 6252,
      "అవకాశాన్ని": 6253,
      "డేటింగ్": 6254,
      "వర్సెస్": 6255,
      "బ్స్": 6256,
      "బ్బి": 6257,
      "కోవాల్సిన": 6258,
      "ాలిసిస్": 6259,
      "పొరుగు": 6260,
      "పొందా": 6261,
      "డానని": 6262,
      "డార్క్": 6263,
      "డాక్టర్": 6264,
      "ంట్లు": 6265,
      "ికార": 6266,
      "బాక్": 6267,
      "బాట్లు": 6268,
      "బాధి": 6269,
      "బాటిల్": 6270,
      "చూపే": 6271,
      "చూస్తున్న": 6272,
      "చూపించే": 6273,
      "చూశారు": 6274,
      "చూస్తూ": 6275,
      "చూస్తాను": 6276,
      "చూశారా": 6277,
      "కండ్": 6278,
      "కీలను": 6279,
      "కీబోర్డ్": 6280,
      "జార్": 6281,
      "జావా": 6282,
      "త్రీ": 6283,
      "త్రాలు": 6284,
      "గలం": 6285,
      "గలడని": 6286,
      "గలగాలి": 6287,
      "వైపరీ": 6288,
      "ద్దరూ": 6289,
      "ించిందని": 6290,
      "ఉన్నాయో": 6291,
      "ఉన్నానని": 6292,
      "సేకరించడానికి": 6293,
      "సరస": 6294,
      "మొగ్గు": 6295,
      "ించేలా": 6296,
      "ించేటప్పుడు": 6297,
      "కరించబడిన": 6298,
      "తీసుకుంటు": 6299,
      "తీసుకె": 6300,
      "తీసుకొని": 6301,
      "ఉన్నంత": 6302,
      "ఉన్నవారు": 6303,
      "మూర్": 6304,
      "రెసిస్టెంట్": 6305,
      "రెస్పా": 6306,
      "రెగ్య": 6307,
      "శాన్": 6308,
      "శాసన": 6309,
      "శాకాహా": 6310,
      "జ్జు": 6311,
      "క్రో": 6312,
      "క్రొత్త": 6313,
      "కాలే": 6314,
      "కాలంగా": 6315,
      "కాలతో": 6316,
      "బంతిని": 6317,
      "బంగారు": 6318,
      "బంగారం": 6319,
      "వీడ్": 6320,
      "సెస": 6321,
      "సెక్యూ": 6322,
      "సెటప్": 6323,
      "సెకండ్": 6324,
      "వరదలు": 6325,
      "తరల": 6326,
      "తరచూ": 6327,
      "కలిగిస్తాయి": 6328,
      "భావించారు": 6329,
      "భావనలు": 6330,
      "వహించాలి": 6331,
      "రూపాంతరం": 6332,
      "సూట్": 6333,
      "సూక్ష్": 6334,
      "ండ్ల": 6335,
      "రోగనిరోధ": 6336,
      "వ్యక్తిని": 6337,
      "వ్యక్తిత్వ": 6338,
      "తేనె": 6339,
      "తేమతో": 6340,
      "తేలింది": 6341,
      "జిమ్": 6342,
      "వ్వండి": 6343,
      "లైబ్ర": 6344,
      "లైజ్డ్": 6345,
      "శక్తిగా": 6346,
      "శక్తిలో": 6347,
      "అభిజ్ఞా": 6348,
      "పరచు": 6349,
      "వ్యాధి": 6350,
      "వ్యాసానికి": 6351,
      "పేద": 6352,
      "ఉత్తీర్": 6353,
      "గ్రేట్": 6354,
      "ఫింగ్": 6355,
      "ఫిక్షన్": 6356,
      "క్రిస్": 6357,
      "దృగ్": 6358,
      "బోట్": 6359,
      "బోతున్న": 6360,
      "బోతున్నారా": 6361,
      "బోహైడ్రే": 6362,
      "దేశవ్యాప్తంగా": 6363,
      "యూమర్": 6364,
      "కార్పస్": 6365,
      "కార్బోహైడ్రే": 6366,
      "కృతం": 6367,
      "**.": 6368,
      "పర్సనల్": 6369,
      "మర్చి": 6370,
      "వెళ్తు": 6371,
      "వెళ్తున్నాను": 6372,
      "చర్యకు": 6373,
      "చర్యగా": 6374,
      "విధులు": 6375,
      "పూల": 6376,
      "పూలింగ్": 6377,
      "శ్రో": 6378,
      "అనివార్": 6379,
      "గోడలు": 6380,
      "శిల్": 6381,
      "ఉంటాడు": 6382,
      "ఉంటాడని": 6383,
      "ఉంటానని": 6384,
      "నిర్వహించే": 6385,
      "నిర్వహించడంలో": 6386,
      "నిర్వహిస్తుంది": 6387,
      "తెలుసుకోవడం": 6388,
      "తెలుసునని": 6389,
      "త్రిక": 6390,
      "సంబంధితంగా": 6391,
      "ఇంకే": 6392,
      "ఇంకె": 6393,
      "ంచిన": 6394,
      "అభివృద్ధిలో": 6395,
      "అందించగలరా": 6396,
      "అందించగలవు": 6397,
      "లీడర్": 6398,
      "వినియోగదారుడు": 6399,
      "వినియోగదారులలో": 6400,
      "అంతే": 6401,
      "స్పృహ": 6402,
      "సాంప్రదా": 6403,
      "టోన్లు": 6404,
      "లియన్": 6405,
      "లియాలో": 6406,
      "నెంట్": 6407,
      "లభించే": 6408,
      "క్రమణ": 6409,
      "క్రమంలో": 6410,
      "ధనవంతులు": 6411,
      "కస్టమర్లకు": 6412,
      "సోర్": 6413,
      "సోల్": 6414,
      "ఆధారాలు": 6415,
      "రోజుల": 6416,
      "రోజుల్లో": 6417,
      "జనరేటర్": 6418,
      "వేగవంతం": 6419,
      "దీనిలో": 6420,
      "వనరుగా": 6421,
      "వనరులకు": 6422,
      "గుర్తించగలదు": 6423,
      "వివరిస్తుంది": 6424,
      "చెప్పాలని": 6425,
      "చెప్పాలంటే": 6426,
      "లక్ష్యాల": 6427,
      "పడవ": 6428,
      "పడండి": 6429,
      "పడాలి": 6430,
      "పడతాయి": 6431,
      "పడతారు": 6432,
      "మానాలను": 6433,
      "మానవులు": 6434,
      "మైన్": 6435,
      "మైలు": 6436,
      "మైనింగ్": 6437,
      "గినప్పుడు": 6438,
      "నెట్వర్కింగ్": 6439,
      "మార్గంలో": 6440,
      "మార్గాల్లో": 6441,
      "మార్గనిర్దేశం": 6442,
      "చర్మ": 6443,
      "ప్రపంచంపై": 6444,
      "ఉత్పత్తికి": 6445,
      "ఆర్ట్": 6446,
      "టెంపో": 6447,
      "నైట్": 6448,
      "తీసుకురండి": 6449,
      "తీసుకుంటారు": 6450,
      "ఇన్ఫ్రా": 6451,
      "భాగాలకు": 6452,
      "అనుమాని": 6453,
      "అవసరాల": 6454,
      "కల్లో": 6455,
      "కల్పిత": 6456,
      "జర్లు": 6457,
      "జర్మన్": 6458,
      "జర్మనీ": 6459,
      "భుజాలు": 6460,
      "హరణకు": 6461,
      "సమస్యకు": 6462,
      "వివరించడానికి": 6463,
      "ఫ్రంట్": 6464,
      "స్ట్రింగ్": 6465,
      "నమూనాకు": 6466,
      "నమూనాల": 6467,
      "సర్ఫింగ్": 6468,
      "డెమోగ్రా": 6469,
      "తరువాతి": 6470,
      "విషయాన్ని": 6471,
      "ఉదాహరణను": 6472,
      "చేస్తుందని": 6473,
      "చేస్తున్నారా": 6474,
      "చేస్తున్నాము": 6475,
      "తెలియని": 6476,
      "తెలియదని": 6477,
      "రూపొందించడంలో": 6478,
      "రూపొందించబడ్డాయి": 6479,
      "పెద్దగా": 6480,
      "జాబిత": 6481,
      "కరణం": 6482,
      "కరణలను": 6483,
      "కరణాన్ని": 6484,
      "నిజమని": 6485,
      "ప్రభావాల": 6486,
      "ప్రభావాలు": 6487,
      "మాట్లాడాను": 6488,
      "ఫోల్డ్": 6489,
      "ఉద్యమం": 6490,
      "పద్ధతులతో": 6491,
      "చూడవచ్చు": 6492,
      "క్రియేట్": 6493,
      "సాంకేతికతను": 6494,
      "సాంకేతికతలు": 6495,
      "రక్షణను": 6496,
      "పొందవచ్చు": 6497,
      "పొందడంలో": 6498,
      "జేమ్స్": 6499,
      "సాధించే": 6500,
      "సాధించదగిన": 6501,
      "సాధికార": 6502,
      "పెరుగుతాయి": 6503,
      "వెబ్సైట్లు": 6504,
      "టెక్సాస్": 6505,
      "ప్రశ్నా": 6506,
      "ప్రాంతాన్ని": 6507,
      "వైపున": 6508,
      "వైపుకు": 6509,
      "కంప్యూటర్ల": 6510,
      "పెంచవచ్చు": 6511,
      "క్లిక్": 6512,
      "ించుకోండి": 6513,
      "వేయండి": 6514,
      "యాక్సెస": 6515,
      "లైన్లను": 6516,
      "బ్యాకప్": 6517,
      "మేధో": 6518,
      "నిర్ధారిస్తుంది": 6519,
      "నిర్ణయానికి": 6520,
      "నిర్ణయించడానికి": 6521,
      "కలయి": 6522,
      "దశల": 6523,
      "దశలు": 6524,
      "ముఖ్యమైనవి": 6525,
      "ఫాస్ట్": 6526,
      "శోషణ": 6527,
      "భూతి": 6528,
      "భూగర్": 6529,
      "భూగోళ": 6530,
      "మనిషి": 6531,
      "కార్యాల": 6532,
      "అతనిని": 6533,
      "ఎంతకాలం": 6534,
      "ఎంతసేపు": 6535,
      "డ్రెస్": 6536,
      "నోరు": 6537,
      "వార్త": 6538,
      "వార్తలు": 6539,
      "అంచనాలను": 6540,
      "పడిన": 6541,
      "ించగలరా": 6542,
      "చేయగలనని": 6543,
      "అత్యు": 6544,
      "అత్యధిక": 6545,
      "సహాయపడగలను": 6546,
      "కారణాలను": 6547,
      "అంశాల": 6548,
      "కనుగొనబడలేదు": 6549,
      "కపోవచ్చు": 6550,
      "సౌండ్": 6551,
      "ప్రమాణ": 6552,
      "సంరక్షణకు": 6553,
      "అనుకుంటున్నారు": 6554,
      "మెరుగుపరచండి": 6555,
      "మెరుగుపరచవచ్చు": 6556,
      "అందుకుంటారు": 6557,
      "మలుపు": 6558,
      "మలుపులు": 6559,
      "సీపీ": 6560,
      "సీజన్": 6561,
      "సీఫుడ్": 6562,
      "రంగాల్లో": 6563,
      "అనలి": 6564,
      "అనూహ": 6565,
      "అనాలిసిస్": 6566,
      "ప్రయాణాన్ని": 6567,
      "పార్ట్": 6568,
      "పార్స్లీ": 6569,
      "ఫ్రెష్": 6570,
      "పర్యావరణానికి": 6571,
      "పర్యావరణాన్ని": 6572,
      "పర్యావరణంపై": 6573,
      "డీప్": 6574,
      "డీబగ్": 6575,
      "పనుల": 6576,
      "పనులుగా": 6577,
      "సంఖ్యల": 6578,
      "సంఖ్యలో": 6579,
      "పెట్టుకోండి": 6580,
      "పెట్టుకున్నా": 6581,
      "పెట్టుకుంది": 6582,
      "వ్యాపారాలకు": 6583,
      "వ్యాపారాలపై": 6584,
      "నియర్": 6585,
      "స్వాగతం": 6586,
      "స్వాధీ": 6587,
      "స్టాటి": 6588,
      "స్టాక్స్": 6589,
      "సంక్షో": 6590,
      "అంతర్దృష్టిని": 6591,
      "అంతర్జాతీయ": 6592,
      "ఎంచుకోవడం": 6593,
      "బెస్ట్": 6594,
      "బెంచ్": 6595,
      "బెలూ": 6596,
      "కోరుకున్నాడు": 6597,
      "టేషన్": 6598,
      "టేబుల్స్": 6599,
      "పునరుజ్": 6600,
      "పరిస్థితులలో": 6601,
      "భాషలు": 6602,
      "నిర్మించ": 6603,
      "అనుకోలేదు": 6604,
      "కనిపించ": 6605,
      "జెన్": 6606,
      "జెన్సీ": 6607,
      "ట్రై": 6608,
      "తొందర": 6609,
      "తొమ్మి": 6610,
      "బీమా": 6611,
      "పరిమితులను": 6612,
      "రంగులను": 6613,
      "దూకుడు": 6614,
      "చిత్రలేఖ": 6615,
      "వచ్చని": 6616,
      "ఉపయోగించబడతాయి": 6617,
      "ఉపయోగించవచ్చో": 6618,
      "అనుభవించడానికి": 6619,
      "అనుభవించవచ్చు": 6620,
      "మాట్లాడటానికి": 6621,
      "మాట్లాడటం": 6622,
      "సంభావ్యతను": 6623,
      "ఎంపికగా": 6624,
      "తలనొప్పి": 6625,
      "భద్రతను": 6626,
      "రాయడానికి": 6627,
      "కుంటాడు": 6628,
      "స్తున్నానని": 6629,
      "మార్కెట్లలో": 6630,
      "విద్యార్థుల": 6631,
      "ఇమెయిల్ను": 6632,
      "ఉంచే": 6633,
      "ులర్": 6634,
      "రికగ్నిషన్": 6635,
      "పుస్తకాల": 6636,
      "జరుగుతుందో": 6637,
      "హైకింగ్": 6638,
      "గొప్పది": 6639,
      "వెళ్లాలి": 6640,
      "వెళ్లకూడదని": 6641,
      "ప్రయోజనకరంగా": 6642,
      "నమ్మశ": 6643,
      "వాహనాలు": 6644,
      "ఒకటిగా": 6645,
      "పరిమాణాలు": 6646,
      "స్ట్రీ": 6647,
      "స్ట్రేషన్": 6648,
      "రేట్లను": 6649,
      "పరీక్షా": 6650,
      "పరీక్షను": 6651,
      "పరీక్షలో": 6652,
      "పరీక్షించడానికి": 6653,
      "ప్రదేశాల": 6654,
      "ప్రదేశానికి": 6655,
      "ప్రదేశాలను": 6656,
      "గెలీ": 6657,
      "గ్రామీణ": 6658,
      "బర్డ్": 6659,
      "బ్రూ": 6660,
      "రైస్": 6661,
      "రైట్": 6662,
      "రైడ్": 6663,
      "హోస్ట్": 6664,
      "హోటల్": 6665,
      "హోపకరణ": 6666,
      "చేరుకోవడం": 6667,
      "చేరుకునే": 6668,
      "లేకపోయా": 6669,
      "సంఘర్షణ": 6670,
      "సంస్థకు": 6671,
      "సంస్థలో": 6672,
      "రాజ్యానికి": 6673,
      "వైద్యులు": 6674,
      "పనితీరులో": 6675,
      "మోడల్స్": 6676,
      "ఇతరులను": 6677,
      "ఏర్పడుతుంది": 6678,
      "ఏర్పరచు": 6679,
      "పదాలు": 6680,
      "బద్ధమైన": 6681,
      "వ్యాయామాలు": 6682,
      "పరికరాల": 6683,
      "జంతువులకు": 6684,
      "జీవితాలను": 6685,
      "జీవితంలోని": 6686,
      "పరుస్తుంది": 6687,
      "మారండి": 6688,
      "మారాయి": 6689,
      "మారవచ్చు": 6690,
      "షాక్": 6691,
      "షాప్": 6692,
      "షార్ట్": 6693,
      "స్వీకరించ": 6694,
      "స్వీకరించడానికి": 6695,
      "స్వీకరించండి": 6696,
      "క్లయింట్": 6697,
      "ముఖి": 6698,
      "ముఖాన్ని": 6699,
      "మార్చడానికి": 6700,
      "మార్చడం": 6701,
      "మార్చవచ్చు": 6702,
      "సేవలు": 6703,
      "గ్రహం": 6704,
      "గ్రహాల": 6705,
      "సాఫ్ట్వేర్ను": 6706,
      "రవాణాను": 6707,
      "ప్రణాళికలను": 6708,
      "టెక్నాలజీని": 6709,
      "ఆపరేషన్": 6710,
      "కనబ": 6711,
      "పడుతున్న": 6712,
      "పడుతున్నా": 6713,
      "పడుతుందని": 6714,
      "రిగాయి": 6715,
      "దుస్తుల": 6716,
      "పాతాలు": 6717,
      "పాతంలో": 6718,
      "పరిశోధనలో": 6719,
      "పోయాడని": 6720,
      "ఉండేది": 6721,
      "మూల్యాం": 6722,
      "సూచించడానికి": 6723,
      "సూచించవచ్చు": 6724,
      "ఆహారంలో": 6725,
      "విజయానికి": 6726,
      "విజయవంత": 6727,
      "పదార్థాలతో": 6728,
      "అలసట": 6729,
      "నష్టాలను": 6730,
      "పట్టుకోండి": 6731,
      "సభ్యులు": 6732,
      "సభ్యులకు": 6733,
      "సభ్యుడి": 6734,
      "వివరణను": 6735,
      "నాణ్యతను": 6736,
      "ప్లేస్": 6737,
      "కోల్పోయాడు": 6738,
      "స్టోరేజ్": 6739,
      "బ్లాగ్": 6740,
      "ప్రేమను": 6741,
      "చర్చించండి": 6742,
      "బ్యాక్టీ": 6743,
      "బ్రాడ్": 6744,
      "మారిపోయింది": 6745,
      "సంతోషి": 6746,
      "పరిశ్రమను": 6747,
      "పరిశ్రమపై": 6748,
      "ఇంధనాల": 6749,
      "ఇష్టపడను": 6750,
      "శుభ్రమైన": 6751,
      "శుభ్రపరచడం": 6752,
      "పర్యవేక్షణ": 6753,
      "పాయింట్లు": 6754,
      "నడిపించ": 6755,
      "షెల్ఫ్": 6756,
      "క్యాన్సర్": 6757,
      "క్యాప్చర్": 6758,
      "పోటీని": 6759,
      "వీటికి": 6760,
      "ఎదుర్కోవటానికి": 6761,
      "అన్వేషి": 6762,
      "2020": 6763,
      "చదరపు": 6764,
      "ప్రవర్తనలో": 6765,
      "లోపలి": 6766,
      "కాంతిని": 6767,
      "పేజీలో": 6768,
      "క్రిందికి": 6769,
      "ఉద్దేశించిన": 6770,
      "ప్రమాదాలు": 6771,
      "ప్రమాదంలో": 6772,
      "ప్రమాదకరమైన": 6773,
      "ప్రమాదకరం": 6774,
      "సంఘటనల": 6775,
      "సంఘటనలను": 6776,
      "లెక్కించడానికి": 6777,
      "నిమిషాల": 6778,
      "అమ్మక": 6779,
      "చట్టాలను": 6780,
      "మౌస్": 6781,
      "మౌంట్": 6782,
      "నిలబెట్": 6783,
      "ప్రకట": 6784,
      "వ్యత్యాసాలు": 6785,
      "వ్యత్యాసాలను": 6786,
      "వేరుశె": 6787,
      "చెందుతుంది": 6788,
      "చాట్బో": 6789,
      "ప్రాధాన్యతలను": 6790,
      "జోడించడం": 6791,
      "జోడించడానికి": 6792,
      "జోడించవచ్చు": 6793,
      "పర్యవేక్షించబడిన": 6794,
      "గలిగా": 6795,
      "గలిగారు": 6796,
      "చల్లగా": 6797,
      "చరిత్రను": 6798,
      "ప్యానె": 6799,
      "ర్యాండమ్": 6800,
      "విరామాల": 6801,
      "రాత్రికి": 6802,
      "అనుసరించ": 6803,
      "అనుసరణ": 6804,
      "ప్రభావితమ": 6805,
      "సౌకర్యవంతంగా": 6806,
      "భావోద్వేగాలు": 6807,
      "ఆవిరిని": 6808,
      "ఆవిర్భావం": 6809,
      "టూల్స్": 6810,
      "దైనందిన": 6811,
      "మ్యాన్": 6812,
      "రచించిన": 6813,
      "వినడం": 6814,
      "సాధనాల": 6815,
      "పేర్కొ": 6816,
      "తొలగించడానికి": 6817,
      "ఆశ్చర్యపోయాడు": 6818,
      "స్మార్ట్ఫోన్": 6819,
      "స్మార్ట్ఫోన్లు": 6820,
      "అతిగా": 6821,
      "అతిపెద్ద": 6822,
      "అదేవిధంగా": 6823,
      "గడిచాయి": 6824,
      "గడియారం": 6825,
      "డైమెన్": 6826,
      "పక్షాల": 6827,
      "ఫుల్": 6828,
      "భయపడ్డాడు": 6829,
      "ల్యాండింగ్": 6830,
      "సందర్భాన్ని": 6831,
      "డ్డున": 6832,
      "అనువర్తనాలు": 6833,
      "పొడవులను": 6834,
      "పొరపాటు": 6835,
      "చూపించడం": 6836,
      "ఫీచర్ల": 6837,
      "సామర్థ్యాలను": 6838,
      "ఆకర్షించే": 6839,
      "ఆసక్తికరమైన": 6840,
      "ప్రతిస్పందనను": 6841,
      "సంతోషం": 6842,
      "ప్రకటనను": 6843,
      "ఆపిల్స్": 6844,
      "ఇచ్చినప్పుడు": 6845,
      "జరగకుండా": 6846,
      "రహదారి": 6847,
      "హీట్": 6848,
      "నిష్పత్తి": 6849,
      "కాన్ఫి": 6850,
      "తీర్చే": 6851,
      "తీర్మానాన్ని": 6852,
      "పనిచేస్తున్నా": 6853,
      "దృక్పథం": 6854,
      "అంగీకరించడం": 6855,
      "క్రమబద్ధమైన": 6856,
      "అనుమతించింది": 6857,
      "విషయాలను": 6858,
      "పార్టీకి": 6859,
      "జనాభాను": 6860,
      "ఆకర్షణీయంగా": 6861,
      "కేటాయించడం": 6862,
      "థింకింగ్": 6863,
      "భారీగా": 6864,
      "నిబంధన": 6865,
      "ప్రసిద్ది": 6866,
      "వ్యవహార": 6867,
      "వ్యవహరించడానికి": 6868,
      "ముగిసింది": 6869,
      "ప్రాసెసర్": 6870,
      "బాధపడ": 6871,
      "సమాధానాలు": 6872,
      "స్థితిపై": 6873,
      "ఉత్పత్తులకు": 6874,
      "ఆలోచించడం": 6875,
      "ఆలోచించండి": 6876,
      "చేస్తున్నప్పుడు": 6877,
      "చేస్తున్నారని": 6878,
      "చేస్తున్నారో": 6879,
      "ఫలితాల": 6880,
      "ఫలితాలు": 6881,
      "అడగండి": 6882,
      "అడగవచ్చా": 6883,
      "బ్రాండ్ను": 6884,
      "పెంపొందించు": 6885,
      "ఊహించండి": 6886,
      "గదిలో": 6887,
      "చదున": 6888,
      "హక్కుల": 6889,
      "స్పెయిన్": 6890,
      "పునర్వినియోగం": 6891,
      "లాభదాయ": 6892,
      "రాష్ట్రాల": 6893,
      "అభిప్రాయాన్ని": 6894,
      "కార్యక్రమాలను": 6895,
      "జ్ఞాపకాలను": 6896,
      "జ్ఞాపకశక్తి": 6897,
      "అలవాట్లను": 6898,
      "అల్గారిథమ్ను": 6899,
      "ధోరణులు": 6900,
      "అక్షరాలు": 6901,
      "అద్దం": 6902,
      "ఆశిస్తున్నాము": 6903,
      "ఎత్తును": 6904,
      "ఎత్తులో": 6905,
      "గంభీ": 6906,
      "గమనించడం": 6907,
      "నమ్ముతున్నాను": 6908,
      "బేబీ": 6909,
      "బేకింగ్": 6910,
      "క్విజ్": 6911,
      "కుక్కను": 6912,
      "కిరణాలను": 6913,
      "సాధ్యమే": 6914,
      "ఫిల్టర్లు": 6915,
      "పర్వతాల": 6916,
      "పర్వతాలు": 6917,
      "ఇంజనీర్": 6918,
      "పెట్టుబడులను": 6919,
      "బయలుదేరాడు": 6920,
      "నివసించే": 6921,
      "ఎదుర్కొనే": 6922,
      "ఎదుర్కొంటు": 6923,
      "శీర్షికను": 6924,
      "అల్గోరిథంలు": 6925,
      "కత్తిరించ": 6926,
      "దొడ్లు": 6927,
      "పంపిణీ": 6928,
      "పన్నుల": 6929,
      "పన్నులు": 6930,
      "పంపడానికి": 6931,
      "బహిష్": 6932,
      "వరుసలు": 6933,
      "హృదయాన్ని": 6934,
      "హ్యారీ": 6935,
      "ప్రయోగం": 6936,
      "త్వరలోనే": 6937,
      "మాన్యువల్": 6938,
      "పారిశు": 6939,
      "పారిశ్రామిక": 6940,
      "డాక్యుమెంటేషన్": 6941,
      "గ్రేడ్": 6942,
      "గ్రేడియం": 6943,
      "క్రిప్షన్": 6944,
      "దోషాలు": 6945,
      "దోషాన్ని": 6946,
      "బడ్జెట్లో": 6947,
      "నిర్ణయించుకున్నారు": 6948,
      "కథాంశం": 6949,
      "కనిపిస్తాయి": 6950,
      "స్థాపించడానికి": 6951,
      "నివసిస్తున్నా": 6952,
      "ప్రచారాలను": 6953,
      "అన్వేషించే": 6954,
      "పొడవుగా": 6955,
      "డయాక్సైడ్ను": 6956,
      "ఇటీవల": 6957,
      "గృహోపకరణ": 6958,
      "నిపుణులు": 6959,
      "నిపుణుల": 6960,
      "నిపుణులతో": 6961,
      "స్టిక్స్": 6962,
      "దిశగా": 6963,
      "దిశలో": 6964,
      "మాటలో": 6965,
      "సంరక్షించండి": 6966,
      "గుడ్లు": 6967,
      "క్షీర": 6968,
      "క్షీణత": 6969,
      "చికిత్సా": 6970,
      "మెటీరియల్స్": 6971,
      "చెట్టును": 6972,
      "కలిగించే": 6973,
      "చూపించాడు": 6974,
      "తీసుకోగల": 6975,
      "మూసివే": 6976,
      "తగ్గుతాయి": 6977,
      "సోదరి": 6978,
      "చెప్పాడా": 6979,
      "సంభాషించడానికి": 6980,
      "సంభాషించే": 6981,
      "పరిష్కారాల": 6982,
      "పరిష్కారాలను": 6983,
      "ఎదుగుదలకు": 6984,
      "అత్యవసరం": 6985,
      "పరిగణించబడే": 6986,
      "పునరుద్ధరించడానికి": 6987,
      "హైడ్రో": 6988,
      "పట్టణంలో": 6989,
      "ఉపరితలాలను": 6990,
      "ఆస్ట్రేలియాలో": 6991,
      "అక్కడికి": 6992,
      "ఇండోర్": 6993,
      "ఇచ్చారు": 6994,
      "ఇచ్చాను": 6995,
      "గరిష్ట": 6996,
      "గరిష్టంగా": 6997,
      "డైనమిక్": 6998,
      "నచ్చిన": 6999,
      "నిరుత్సాహ": 7000,
      "వివరాలు": 7001,
      "కోర్టు": 7002,
      "సిబ్బందికి": 7003,
      "పెయింటింగ్": 7004,
      "పరిధిని": 7005,
      "పోయాలి": 7006,
      "చెందాయి": 7007,
      "ఉపయోగించుకోండి": 7008,
      "కూడుకున్నది": 7009,
      "సెన్సార్లు": 7010,
      "సెన్సార్": 7011,
      "కెమెరాలు": 7012,
      "ఇంటర్వ్యూయర్": 7013,
      "కలపాలి": 7014,
      "హెల్త్కేర్": 7015,
      "గౌరవప్ర": 7016,
      "గడపాలని": 7017,
      "రహస్యాలను": 7018,
      "పారదర్శకంగా": 7019,
      "పూర్తయిందా": 7020,
      "భాగస్వామ్య": 7021,
      "సదుపాయాలు": 7022,
      "తరంగాలను": 7023,
      "తరంగదై": 7024,
      "ధరించాడు": 7025,
      "యంత్రాలను": 7026,
      "రక్తంలో": 7027,
      "నిలుపు": 7028,
      "ప్రవేశపెట్టడం": 7029,
      "విసిరే": 7030,
      "సందేశాలను": 7031,
      "చిక్కులను": 7032,
      "పెరిఫె": 7033,
      "పెన్సిల్": 7034,
      "వహిస్తారు": 7035,
      "వహిస్తాడు": 7036,
      "హార్మో": 7037,
      "నెలల": 7038,
      "ప్రత్యక్షంగా": 7039,
      "ప్రాజెక్టులు": 7040,
      "క్యారెట్లు": 7041,
      "కేంద్రీకృతమై": 7042,
      "చిరునామాను": 7043,
      "ఆహ్లాదకరంగా": 7044,
      "ధృవీకరించండి": 7045,
      "అసంపూర్": 7046,
      "అడిగాను": 7047,
      "పరాగసంపర్కం": 7048,
      "మరుగుదొడ్లు": 7049,
      "మయ్యాయి": 7050,
      "వయసులో": 7051,
      "రిఫ్రిజి": 7052,
      "రిఫ్లెక్టివ్": 7053,
      "విదేశాలకు": 7054,
      "చేరడానికి": 7055,
      "సంపాదన": 7056,
      "మిలియన్": 7057,
      "స్ట్రాబెర్రీ": 7058,
      "వెలికితీత": 7059,
      "ప్రతిపాదిత": 7060,
      "వైఖరి": 7061,
      "అభినందించ": 7062,
      "గ్రూపు": 7063,
      "బోధకులతో": 7064,
      "కార్మికులకు": 7065,
      "అనుభూతి": 7066,
      "ఫ్రీలా": 7067,
      "ఎంగేజ్": 7068,
      "పరిష్కరించడంలో": 7069,
      "కొనసాగుతున్న": 7070,
      "పాఠశాలకు": 7071,
      "బాధ్యతాయుతంగా": 7072,
      "క్లాస్‌మే": 7073,
      "సంప్రదించవచ్చు": 7074,
      "డెవలపర్లు": 7075,
      "డిస్కౌంట్లు": 7076,
      "విజువల్స్": 7077,
      "అధ్యయనం": 7078,
      "పోలీసులు": 7079,
      "ఆక్సిడెంట్": 7080,
      "ఇంగ్లాండు": 7081,
      "ఎండెడ్": 7082,
      "ఏకాభిప్రాయ": 7083,
      "దశాబ్ద": 7084,
      "ఫంక్షనల్": 7085,
      "సత్యమా": 7086,
      "స్పియర్": 7087,
      "కుండను": 7088,
      "ప్రీమియం": 7089,
      "చేపలను": 7090,
      "చేతివ్రాత": 7091,
      "తిరుగుతుంది": 7092,
      "దాడులు": 7093,
      "కాగితం": 7094,
      "పరిపూర్ణ": 7095,
      "భావిస్తారు": 7096,
      "కూర్చుని": 7097,
      "వర్గాలను": 7098,
      "చూపింది": 7099,
      "శాండ్‌విచ్": 7100,
      "సమాంతరంగా": 7101,
      "బోతున్నానని": 7102,
      "అంతులేని": 7103,
      "అంతుచిక్కని": 7104,
      "శిఖరం": 7105,
      "మార్గదర్శక": 7106,
      "ఇన్సులేషన్": 7107,
      "కంటైనర్లను": 7108,
      "శైలులు": 7109,
      "నాయకత్వం": 7110,
      "నాయకత్వ": 7111,
      "ఛార్జ్డ్": 7112,
      "క్లాసిక్": 7113,
      "తెలివైనది": 7114,
      "స్థితిస్థాపకత": 7115,
      "జీవనశైలికి": 7116,
      "ఆనందం": 7117,
      "వార్తాపత్రిక": 7118,
      "వార్తాపత్రికలు": 7119,
      "ప్రైవేట్": 7120,
      "ప్రైవేటు": 7121,
      "ఇబ్బందులు": 7122,
      "ఎన్నుకో": 7123,
      "కవరేజ్": 7124,
      "కరోనా": 7125,
      "డొమైన్": 7126,
      "తత్ఫలితంగా": 7127,
      "ద్రాక్ష": 7128,
      "షర్టు": 7129,
      "సన్నివేశ": 7130,
      "సంచులు": 7131,
      "నివేదించ": 7132,
      "రిజర్వ్": 7133,
      "స్కూల్": 7134,
      "స్పూన్": 7135,
      "స్క్రిప్ట్": 7136,
      "క్వాలిటీ": 7137,
      "డివిడె": 7138,
      "ప్రసరణ": 7139,
      "ప్రసంగ": 7140,
      "వాదిస్తున్నారు": 7141,
      "దురదృష్ట": 7142,
      "సంపదకు": 7143,
      "పెరిగింది": 7144,
      "పెంచింది": 7145,
      "పైథాన్": 7146,
      "వెళు": 7147,
      "వర్తింపజే": 7148,
      "బ్రిడ్జ్": 7149,
      "పనిప్రాంతంలో": 7150,
      "వంతెన": 7151,
      "పర్సనలైజేషన్": 7152,
      "మర్యాదగా": 7153,
      "అనిపించదు": 7154,
      "గోప్యంగా": 7155,
      "టోక్యోలో": 7156,
      "ప్రారంభిస్తారు": 7157,
      "దోషిగా": 7158,
      "కారణమవుతాయి": 7159,
      "బెదిరింపుల": 7160,
      "అమెరికాలో": 7161,
      "చిరునవ్వుతో": 7162,
      "సంప్రదింపులు": 7163,
      "శతాబ్దంలో": 7164,
      "ఫ్రేమ్వర్క్ను": 7165,
      "పెరిగేకొద్దీ": 7166,
      "క్యారెక్టర్": 7167,
      "ఆవశ్యకత": 7168,
      "గందరగోళాన్ని": 7169,
      "చతురస్రాకార": 7170,
      "అరటి": 7171,
      "అర్ధం": 7172,
      "ఆకుపచ్చ": 7173,
      "ఆసుపత్రి": 7174,
      "ఐటమ్": 7175,
      "ఒప్పుకున్నాడు": 7176,
      "గైడ్": 7177,
      "గాలులు": 7178,
      "చౌకగా": 7179,
      "మట్టాలు": 7180,
      "మాల్వేర్": 7181,
      "సన్నని": 7182,
      "సమ్మిళిత": 7183,
      "రివార్డు": 7184,
      "స్ఫూర్తి": 7185,
      "స్కేలబిలిటీ": 7186,
      "క్లీనర్": 7187,
      "విచారణ": 7188,
      "తిరోగమనం": 7189,
      "త్వాకర్షణ": 7190,
      "వాక్యాన్ని": 7191,
      "సంపన్నమైన": 7192,
      "గురుత్వాకర్షణ": 7193,
      "కాపాడుకోవడానికి": 7194,
      "మునిగి": 7195,
      "వేరబుల్": 7196,
      "మెలోడీ": 7197,
      "యాంటీఆక్సిడెంట్": 7198,
      "మిశ్రమాన్ని": 7199,
      "కొరత": 7200,
      "పిజ్జా": 7201,
      "సమన్వయం": 7202,
      "మార్పిడి": 7203,
      "అవతలి": 7204,
      "రోడ్డుపై": 7205,
      "రేఖీయ": 7206,
      "వీధిలో": 7207,
      "టర్బైన్": 7208,
      "అభిరుచులు": 7209,
      "అంగుళాలు": 7210,
      "అంగారక": 7211,
      "గణితం": 7212,
      "ఆర్ఎన్ఎన్": 7213,
      "సర్క్యూట్": 7214,
      "ప్రోత్సాహకాలను": 7215,
      "తప్పించుకోవడానికి": 7216,
      "సౌలభ్యం": 7217,
      "సీక్వెస్ట్రేషన్": 7218,
      "జీవనోపాధి": 7219,
      "తయారైన": 7220,
      "జనాభాలో": 7221,
      "స్థాపించబడిన": 7222,
      "పర్యవసానాల": 7223,
      "బర్న్అవుట్ను": 7224,
      "కాంపోనెంట్": 7225,
      "లెక్కించేటప్పుడు": 7226,
      "పడ్డారు": 7227,
      "సాధ్యమైనంత": 7228,
      "ఎడ్యుకేషన్": 7229,
      "పచ్చబొట్టు": 7230,
      "స్వచ్ఛందంగా": 7231,
      "దెయ్యం": 7232,
      "క్షీణతకు": 7233,
      "స్వయంచాలకంగా": 7234,
      "అంకితభావం": 7235,
      "ఆయుధాలు": 7236,
      "ప్రియమైనవారితో": 7237,
      "వెతుకుతున్నదాన్ని": 7238,
      "విమానాశ్రయంలో": 7239,
      "అబద్దం": 7240,
      "విమర్శనాత్మక": 7241,
      "వేడెక్కడానికి": 7242,
      "రేకెత్తిస్తుంది": 7243,
      "అపహరణకు": 7244,
      "అస్సలు": 7245,
      "అకడమిక్": 7246,
      "ఆనందాన్ని": 7247,
      "ఆండ్రాయిడ్": 7248,
      "ఆకస్మిక": 7249,
      "ఇదంతా": 7250,
      "ఇన్నోవేషన్": 7251,
      "ఉల్లం": 7252,
      "ఉల్లిపాయ": 7253,
      "ఊపిరితి": 7254,
      "ఎర్ర": 7255,
      "ఎఫిషియెన్సీ": 7256,
      "ఏడాది": 7257,
      "ఒక్కో": 7258,
      "ఓదార్పు": 7259,
      "కన్స్యూమర్": 7260,
      "కదలడానికి": 7261,
      "గడ్డి": 7262,
      "చక్రాన్ని": 7263,
      "జరప": 7264,
      "దట్టమైన": 7265,
      "దద్దుర్లు": 7266,
      "మదింపు": 7267,
      "మధ్యాహ్": 7268,
      "యానిమేషన్": 7269,
      "యవ్వనంగా": 7270,
      "వశ్యత": 7271,
      "సలాడ్": 7272,
      "సాల్వింగ్": 7273,
      "సరియైనదా": 7274,
      "సజీవంగా": 7275,
      "స్ప్రెడ్": 7276,
      "స్పర్శ": 7277,
      "న్షియల్": 7278,
      "డిన్నర్": 7279,
      "డిపాజిట్": 7280,
      "కిరాణా": 7281,
      "వింటున్నారా": 7282,
      "విహారయాత్ర": 7283,
      "లోమానుపాతంలో": 7284,
      "మీడియాలో": 7285,
      "నేచురల్": 7286,
      "కాంటాక్ట్": 7287,
      "సిరీస్": 7288,
      "ముఖాముఖి": 7289,
      "మినహాయింపులు": 7290,
      "చెల్లుబాటు": 7291,
      "ప్రావీణ్యం": 7292,
      "ప్రాబ్లమ్": 7293,
      "వైపరీత్య": 7294,
      "తీసుకెళ్ల": 7295,
      "రెగ్యులర్": 7296,
      "శాకాహారి": 7297,
      "సూక్ష్మ": 7298,
      "రోగనిరోధక": 7299,
      "తేనెటీ": 7300,
      "లైబ్రరీ": 7301,
      "ఉత్తీర్ణత": 7302,
      "అనివార్యం": 7303,
      "ఇన్ఫ్రాస్ట్రక్చర్": 7304,
      "భూగర్భ": 7305,
      "సీపీయూ": 7306,
      "స్వాధీనం": 7307,
      "తొమ్మిది": 7308,
      "మూల్యాంకనం": 7309,
      "వేరుశెనగ": 7310,
      "డైమెన్షనల్": 7311,
      "గంభీరమైన": 7312,
      "గ్రేడియంట్": 7313,
      "నిరుత్సాహపరిచింది": 7314,
      "తరంగదైర్ఘ": 7315,
      "రిఫ్రిజిరేటర్": 7316,
      "!\".": 7317,
      "%)": 7318,
      "%.": 7319,
      "'.": 7320,
      "(-": 7321,
      ",\"": 7322,
      "05": 7323,
      "100": 7324,
      "1000": 7325,
      "27": 7326,
      "35": 7327,
      "39": 7328,
      "300": 7329,
      "48": 7330,
      "61": 7331,
      "63": 7332,
      "75": 7333,
      "79": 7334,
      "84": 7335,
      "86": 7336,
      "92": 7337,
      "=\"": 7338,
      "],": 7339,
      "].": 7340,
      "an": 7341,
      "ex": 7342,
      "ect": 7343,
      "han": 7344,
      "pect": 7345,
      "than": 7346,
      "{.": 7347,
      "ంస": 7348,
      "ంతు": 7349,
      "ంపరి": 7350,
      "ంపి": 7351,
      "ంజ్": 7352,
      "ంజు": 7353,
      "ంకర్": 7354,
      "ంగత": 7355,
      "ంకాన్ని": 7356,
      "ంథి": 7357,
      "ఃఖ": 7358,
      "అణ": 7359,
      "అర్": 7360,
      "అక్": 7361,
      "అయు": 7362,
      "అలు": 7363,
      "అసా": 7364,
      "అపరి": 7365,
      "అరణ": 7366,
      "అంటు": 7367,
      "అప్ప": 7368,
      "అల్ల": 7369,
      "అరె": 7370,
      "అరే": 7371,
      "అమర్": 7372,
      "అలీ": 7373,
      "అన్నారు": 7374,
      "అసమర్థ": 7375,
      "అసహజ": 7376,
      "అపాయింట్": 7377,
      "అస్పష్టమైన": 7378,
      "అసౌకర్య": 7379,
      "అమ్ము": 7380,
      "అన్నీ": 7381,
      "అడ్డు": 7382,
      "అండర్": 7383,
      "అస్టు": 7384,
      "అంటారు": 7385,
      "అయ్యారు": 7386,
      "ఆధ": 7387,
      "ఆయ": 7388,
      "ఆర": 7389,
      "ఆడి": 7390,
      "ఆతి": 7391,
      "ఆస్తు": 7392,
      "ఆయా": 7393,
      "ఆంగ్": 7394,
      "ఆరా": 7395,
      "ఆబ్": 7396,
      "ఆవరణ": 7397,
      "ఆదేశ": 7398,
      "ఆమో": 7399,
      "ఆటం": 7400,
      "ఆదర్శ": 7401,
      "ఆకులు": 7402,
      "ఆకారం": 7403,
      "ఆవాస": 7404,
      "ఆఫర్": 7405,
      "ఆత్రు": 7406,
      "ఆఫీసు": 7407,
      "ఆథె": 7408,
      "ఆయిల్": 7409,
      "ఇర": 7410,
      "ఇక్క": 7411,
      "ఇస్తారు": 7412,
      "ఇమెయి": 7413,
      "ఇయర్": 7414,
      "ఇళ్లు": 7415,
      "ఇస్తే": 7416,
      "ఇరవ": 7417,
      "ఇళ్లలో": 7418,
      "ఇవన్నీ": 7419,
      "ఇయాన్": 7420,
      "ఇమ్మర్": 7421,
      "ఈఓ": 7422,
      "ఈదు": 7423,
      "ఈసారి": 7424,
      "ఉడ": 7425,
      "ఉండి": 7426,
      "ఉచ్చ": 7427,
      "ఉద్యా": 7428,
      "ఉద్దీ": 7429,
      "ఉచిత": 7430,
      "ఉప్పొ": 7431,
      "ఊబ": 7432,
      "ఋతు": 7433,
      "ఎది": 7434,
      "ఎరు": 7435,
      "ఎండి": 7436,
      "ఎకో": 7437,
      "ఎము": 7438,
      "ఎపి": 7439,
      "ఎబి": 7440,
      "ఎత్తి": 7441,
      "ఎమర్": 7442,
      "ఎప్పటి": 7443,
      "ఎనిమి": 7444,
      "ఎక్వి": 7445,
      "ఎంట్ర": 7446,
      "ఏం": 7447,
      "ఏదీ": 7448,
      "ఏమాత్ర": 7449,
      "ఏవిధంగా": 7450,
      "ఏమైంది": 7451,
      "ఐఒ": 7452,
      "ఐఓ": 7453,
      "ఐన్": 7454,
      "ఐరో": 7455,
      "ఐదే": 7456,
      "ఐడియా": 7457,
      "ఐకాని": 7458,
      "ఐచ్ఛిక": 7459,
      "ఐరన్": 7460,
      "ఒయా": 7461,
      "ఒడ్డున": 7462,
      "ఓడ": 7463,
      "ఓర్పు": 7464,
      "ఔట్": 7465,
      "కకు": 7466,
      "కవి": 7467,
      "కడు": 7468,
      "కసి": 7469,
      "కప్పుడు": 7470,
      "కరె": 7471,
      "కలతో": 7472,
      "కళ్ళ": 7473,
      "కమింగ్": 7474,
      "కరిగిన": 7475,
      "కణాలు": 7476,
      "కదులు": 7477,
      "కబెట్": 7478,
      "కళ్ళను": 7479,
      "కహాల్": 7480,
      "ఖై": 7481,
      "ఖలు": 7482,
      "ఖండి": 7483,
      "ఖిక": 7484,
      "ఖగోళ": 7485,
      "గరియ": 7486,
      "గటివ్": 7487,
      "గజై": 7488,
      "గడ్డ": 7489,
      "గదులను": 7490,
      "ఘ్ర": 7491,
      "ఘిక": 7492,
      "ఘెట్టి": 7493,
      "చై": 7494,
      "చో": 7495,
      "చట్": 7496,
      "చము": 7497,
      "చొక్క": 7498,
      "చాడు": 7499,
      "చందా": 7500,
      "చంద్ర": 7501,
      "చరల్": 7502,
      "ఛాల": 7503,
      "ఛాయ": 7504,
      "జప": 7505,
      "జవా": 7506,
      "జెక్": 7507,
      "జబె": 7508,
      "టంలో": 7509,
      "టవర్": 7510,
      "టకాలు": 7511,
      "టోగ్రా": 7512,
      "టరై": 7513,
      "టించాడు": 7514,
      "టరింగ్": 7515,
      "టబిలిటీ": 7516,
      "టౌన్": 7517,
      "డూ": 7518,
      "డౌ": 7519,
      "డెక్": 7520,
      "డగలు": 7521,
      "డబ్ల": 7522,
      "ఢీ": 7523,
      "తట": 7524,
      "తార": 7525,
      "తంట": 7526,
      "తతో": 7527,
      "తలకు": 7528,
      "తప్పుడు": 7529,
      "తలీ": 7530,
      "తలలో": 7531,
      "తలపై": 7532,
      "తత్వ": 7533,
      "తారో": 7534,
      "తకాలంలో": 7535,
      "థర్డ్": 7536,
      "దార": 7537,
      "దంత": 7538,
      "దమైన": 7539,
      "దక్ష": 7540,
      "దాలను": 7541,
      "దారీ": 7542,
      "ధరా": 7543,
      "ధించే": 7544,
      "ధరించి": 7545,
      "ధరకు": 7546,
      "ధులకు": 7547,
      "నస్": 7548,
      "నకు": 7549,
      "నక్ష": 7550,
      "నటు": 7551,
      "నవ్": 7552,
      "నాలా": 7553,
      "నైనా": 7554,
      "నట్లు": 7555,
      "నప్పటికీ": 7556,
      "నాలతో": 7557,
      "నచిత్ర": 7558,
      "నరికి": 7559,
      "నదాలు": 7560,
      "నాలిటీ": 7561,
      "నందున": 7562,
      "నవ్వులు": 7563,
      "నమ్మా": 7564,
      "నమస్": 7565,
      "పౌ": 7566,
      "పలు": 7567,
      "పల్": 7568,
      "పారా": 7569,
      "పించడానికి": 7570,
      "పాలకు": 7571,
      "పగడ": 7572,
      "పనలు": 7573,
      "పత్రాన్ని": 7574,
      "పశ్చి": 7575,
      "పించినట్లయితే": 7576,
      "ఫొ": 7577,
      "బస్": 7578,
      "బలో": 7579,
      "బాని": 7580,
      "బమ్": 7581,
      "బంగా": 7582,
      "బాలు": 7583,
      "బరచ": 7584,
      "బలైజేషన్": 7585,
      "బలాన్ని": 7586,
      "బ్యాల": 7587,
      "భం": 7588,
      "భై": 7589,
      "భరి": 7590,
      "భరించ": 7591,
      "మృ": 7592,
      "మలను": 7593,
      "మయం": 7594,
      "మతం": 7595,
      "మదర్": 7596,
      "మతుల": 7597,
      "మచ్చ": 7598,
      "మళ్ల": 7599,
      "మవారం": 7600,
      "మధు": 7601,
      "మ్యు": 7602,
      "మంతా": 7603,
      "మాలిటీ": 7604,
      "యజ": 7605,
      "యె": 7606,
      "యస్": 7607,
      "యానికి": 7608,
      "యంత": 7609,
      "యంతో": 7610,
      "యబడతాయి": 7611,
      "రత్": 7612,
      "రాయి": 7613,
      "రాలి": 7614,
      "రల్స్": 7615,
      "రకాలు": 7616,
      "రవడం": 7617,
      "రౌండ్": 7618,
      "రమణ": 7619,
      "రయ్యారు": 7620,
      "లయ": 7621,
      "లొ": 7622,
      "లాలను": 7623,
      "లండ": 7624,
      "లంలో": 7625,
      "లంబ": 7626,
      "లకలు": 7627,
      "లగడ": 7628,
      "ళా": 7629,
      "వస": 7630,
      "వో": 7631,
      "వండి": 7632,
      "వంద": 7633,
      "వరం": 7634,
      "వసర": 7635,
      "వతం": 7636,
      "వలె": 7637,
      "వచన": 7638,
      "వారని": 7639,
      "వస్త్ర": 7640,
      "వస్తాడు": 7641,
      "వడాన్ని": 7642,
      "వస్తే": 7643,
      "వద్దా": 7644,
      "వస్తారా": 7645,
      "వస్తాడని": 7646,
      "వస్తానని": 7647,
      "వత్రిక": 7648,
      "శర": 7649,
      "శూ": 7650,
      "శక్": 7651,
      "శరణ": 7652,
      "శ్యం": 7653,
      "శత్వం": 7654,
      "షర": 7655,
      "షాలు": 7656,
      "షర్ట్": 7657,
      "షుల": 7658,
      "సంది": 7659,
      "సల్": 7660,
      "సలకు": 7661,
      "సాలి": 7662,
      "సజా": 7663,
      "సకరమైన": 7664,
      "సారీ": 7665,
      "సబ్బు": 7666,
      "సస్పె": 7667,
      "సప్లై": 7668,
      "హణ": 7669,
      "హరి": 7670,
      "హరించ": 7671,
      "హించిన": 7672,
      "హత్య": 7673,
      "హించారు": 7674,
      "హేతు": 7675,
      "హాయ్": 7676,
      "ార్థ": 7677,
      "ాడో": 7678,
      "ిని": 7679,
      "ీకరించవచ్చు": 7680,
      "ుడు": 7681,
      "ుకునే": 7682,
      "ెగ్": 7683,
      "ెపురుగు": 7684,
      "ేకి": 7685,
      "ేలా": 7686,
      "ైక": 7687,
      "ైంది": 7688,
      "ైమా": 7689,
      "ైబ్": 7690,
      "ోక్": 7691,
      "ోత్త": 7692,
      "౦ది": 7693,
      "౦డి": 7694,
      "నిఘ": 7695,
      "నిద్": 7696,
      "నిచ్": 7697,
      "నిస్తుంది": 7698,
      "నిరం": 7699,
      "నిత్య": 7700,
      "నిదర్శ": 7701,
      "నివాస": 7702,
      "నిడివి": 7703,
      "నిక్షే": 7704,
      "నిధులను": 7705,
      "రివర్": 7706,
      "రియో": 7707,
      "రిగ్ర": 7708,
      "రిమై": 7709,
      "రికల్": 7710,
      "రిస్ట్": 7711,
      "రిమెంట్": 7712,
      "రిస్తున్నారు": 7713,
      "రివ్యూ": 7714,
      "రిఫికేషన్": 7715,
      "రిపబ్లిక్": 7716,
      "రిఫ్రెష్": 7717,
      "నుంది": 7718,
      "ర్ణ": 7719,
      "ర్దా": 7720,
      "ర్యాన్ని": 7721,
      "ర్నియా": 7722,
      "ర్లెట్": 7723,
      "స్ను": 7724,
      "స్యా": 7725,
      "స్మి": 7726,
      "స్కీ": 7727,
      "స్కె": 7728,
      "స్ప్రే": 7729,
      "స్కింగ్": 7730,
      "స్ప్రి": 7731,
      "స్కాన్": 7732,
      "స్విస్": 7733,
      "న్నే": 7734,
      "న్సి": 7735,
      "న్యం": 7736,
      "న్మెంట్": 7737,
      "న్సిస్": 7738,
      "్రో": 7739,
      "ంచె": 7740,
      "ంచాడు": 7741,
      "క్కి": 7742,
      "క్లై": 7743,
      "దిద్ద": 7744,
      "దిండు": 7745,
      "దిబ్బ": 7746,
      "కుతుంది": 7747,
      "కులలో": 7748,
      "కుమారు": 7749,
      "కుడిగా": 7750,
      "కుపోయిన": 7751,
      "కుశత్వం": 7752,
      "యువి": 7753,
      "యురే": 7754,
      "యుకె": 7755,
      "యువత": 7756,
      "యుక్త": 7757,
      "మరిన్ని": 7758,
      "మరికొందరు": 7759,
      "డిలో": 7760,
      "డికల్": 7761,
      "డిటెక్": 7762,
      "డియే": 7763,
      "డిస్ట్రి": 7764,
      "డింటిని": 7765,
      "ప్రె": 7766,
      "ప్రదర్": 7767,
      "ప్రోగ్ర": 7768,
      "ప్రెషన్": 7769,
      "ప్రగతి": 7770,
      "కిడ్": 7771,
      "కిచె": 7772,
      "తురు": 7773,
      "లులో": 7774,
      "లుడు": 7775,
      "లుయె": 7776,
      "ందిస్తుంది": 7777,
      "ట్లో": 7778,
      "ట్లకు": 7779,
      "ట్లలో": 7780,
      "ట్లపై": 7781,
      "ించమని": 7782,
      "ించాల్సిన": 7783,
      "ించలేని": 7784,
      "ించవచ్చా": 7785,
      "ించవద్దు": 7786,
      "ించడాన్ని": 7787,
      "ించకూడదు": 7788,
      "ించగలుగుతారు": 7789,
      "గాయం": 7790,
      "గాత్మక": 7791,
      "గాట్స్": 7792,
      "వియ": 7793,
      "విక్": 7794,
      "విజి": 7795,
      "విలియ": 7796,
      "వితక్కువ": 7797,
      "విజే": 7798,
      "వివాహ": 7799,
      "విరిగిన": 7800,
      "వికలా": 7801,
      "విన్నప్పుడు": 7802,
      "విచార": 7803,
      "వినాశనం": 7804,
      "విన్యా": 7805,
      "విడదీ": 7806,
      "వికసి": 7807,
      "విరమణ": 7808,
      "లోన": 7809,
      "లోహ": 7810,
      "లోన్": 7811,
      "లోకల్": 7812,
      "లోయర్": 7813,
      "లోగాన్": 7814,
      "ానిష్": 7815,
      "ానికులతో": 7816,
      "చేసా": 7817,
      "చేతులను": 7818,
      "చేరిక": 7819,
      "చేతిలో": 7820,
      "చేతుల్లో": 7821,
      "రుగ్": 7822,
      "రుతుంది": 7823,
      "రులకు": 7824,
      "రులలో": 7825,
      "రుణాన్ని": 7826,
      "రుణాలు": 7827,
      "రువెచ్చని": 7828,
      "తిండి": 7829,
      "తిప్ప": 7830,
      "తిన్నాను": 7831,
      "తిన్నారా": 7832,
      "తిప్పి": 7833,
      "తిపది": 7834,
      "తింటాడు": 7835,
      "నానా": 7836,
      "ంటలో": 7837,
      "త్తా": 7838,
      "త్తాను": 7839,
      "త్వంతో": 7840,
      "ల్టీ": 7841,
      "ల్లోకి": 7842,
      "ల్టెడ్": 7843,
      "ండిల్": 7844,
      "మీది": 7845,
      "మీలో": 7846,
      "మీదే": 7847,
      "మీడియం": 7848,
      "మాస్": 7849,
      "మాంద": 7850,
      "మానీ": 7851,
      "మాజీ": 7852,
      "మాధ్య": 7853,
      "మానాలు": 7854,
      "మాస్క్": 7855,
      "మామయ్య": 7856,
      "మాశ్రయ": 7857,
      "మావళి": 7858,
      "ప్టి": 7859,
      "ప్లూ": 7860,
      "మ్లను": 7861,
      "మ్మే": 7862,
      "మ్మీద": 7863,
      "మ్మింగ్": 7864,
      "వాం": 7865,
      "వాద": 7866,
      "వాయ": 7867,
      "వాన్": 7868,
      "వాట్": 7869,
      "వాపు": 7870,
      "వాస్తు": 7871,
      "వాళ్ళు": 7872,
      "వాక్యూ": 7873,
      "వాదులు": 7874,
      "వాక్యం": 7875,
      "వాషర్": 7876,
      "వాదించడం": 7877,
      "టాడే": 7878,
      "టార్చ్": 7879,
      "టాంపరి": 7880,
      "టాస్కింగ్": 7881,
      "నేట్": 7882,
      "నేవీ": 7883,
      "నేటర్": 7884,
      "నేచర్": 7885,
      "పురు": 7886,
      "పురో": 7887,
      "పులర్": 7888,
      "పుప్పొ": 7889,
      "పుంజు": 7890,
      "న్నింటి": 7891,
      "డంతో": 7892,
      "దుర్": 7893,
      "దువ్": 7894,
      "దుత్పత్తి": 7895,
      "దుఃఖ": 7896,
      "ద్వీ": 7897,
      "ద్వారం": 7898,
      "లేత": 7899,
      "లేమి": 7900,
      "లేరా": 7901,
      "లేడని": 7902,
      "లేనని": 7903,
      "లేవని": 7904,
      "ైనంత": 7905,
      "సంద": 7906,
      "సంస్": 7907,
      "సంగా": 7908,
      "సంకల్": 7909,
      "సంరక్షించడానికి": 7910,
      "సంకర్షణ": 7911,
      "టిన": 7912,
      "టిగా": 7913,
      "టిక్క": 7914,
      "టివారు": 7915,
      "టిఫై": 7916,
      "టిటిపి": 7917,
      "దాడి": 7918,
      "దాటి": 7919,
      "దాచి": 7920,
      "దాగి": 7921,
      "దాక్కు": 7922,
      "చేయరు": 7923,
      "చేయడు": 7924,
      "చేయాలనుకుంటున్నారా": 7925,
      "చేయగలను": 7926,
      "చేయలేదని": 7927,
      "చేయకపోతే": 7928,
      "చేయకూడదు": 7929,
      "చేయనవ": 7930,
      "చేయవచ్చో": 7931,
      "చేయబడిందని": 7932,
      "కోణ": 7933,
      "కోత": 7934,
      "కోటు": 7935,
      "కోగల": 7936,
      "కోలేదని": 7937,
      "కోగలవు": 7938,
      "కోపం": 7939,
      "కోవిడ్": 7940,
      "లిచే": 7941,
      "లికా": 7942,
      "లిష్": 7943,
      "లియం": 7944,
      "లివింగ్": 7945,
      "గ్ధ": 7946,
      "గ్స్": 7947,
      "గ్లై": 7948,
      "గ్రిని": 7949,
      "గ్మెంటేషన్": 7950,
      "ంతం": 7951,
      "ంతర": 7952,
      "ంతించకండి": 7953,
      "గుబ": 7954,
      "గురి": 7955,
      "గుసలు": 7956,
      "గురైన": 7957,
      "గురికా": 7958,
      "స్తుందో": 7959,
      "స్తుందనే": 7960,
      "స్తుండటంతో": 7961,
      "కాట": 7962,
      "కావడం": 7963,
      "లనున్నారు": 7964,
      "సును": 7965,
      "సుకు": 7966,
      "సులు": 7967,
      "సున్న": 7968,
      "సున్నా": 7969,
      "సుకొ": 7970,
      "సులకు": 7971,
      "సుకున్నాను": 7972,
      "సువాసన": 7973,
      "న్నత": 7974,
      "న్నారని": 7975,
      "న్నారో": 7976,
      "న్నమైంది": 7977,
      "ష్గార్డ్": 7978,
      "చుంకీ": 7979,
      "సిన్": 7980,
      "సిరా": 7981,
      "సిటీ": 7982,
      "సినిమ": 7983,
      "సిలిటీ": 7984,
      "సింగి": 7985,
      "సినాప్": 7986,
      "సియస్": 7987,
      "సాకర్": 7988,
      "సాధి": 7989,
      "సాంద్ర": 7990,
      "సాహాన్ని": 7991,
      "వ్యోమ": 7992,
      "క్షో": 7993,
      "క్షించవచ్చు": 7994,
      "లాస": 7995,
      "లాను": 7996,
      "లాక్": 7997,
      "లాది": 7998,
      "లాగ్": 7999,
      "లాస్ట్": 8000,
      "లాగడానికి": 8001,
      "లాటరీ": 8002,
      "ముద్": 8003,
      "ముప్పు": 8004,
      "ముక్కు": 8005,
      "ముట్ట": 8006,
      "రించబడింది": 8007,
      "స్తారని": 8008,
      "ఒకదాని": 8009,
      "ఒకదాన్ని": 8010,
      "ఒకరికి": 8011,
      "ఒకదానితో": 8012,
      "చివే": 8013,
      "చింగ్": 8014,
      "చిరస్": 8015,
      "చిచ్చు": 8016,
      "చిలగడ": 8017,
      "చింతించకండి": 8018,
      "తోడ్": 8019,
      "తోందని": 8020,
      "తోందో": 8021,
      "తోటివారు": 8022,
      "న్నాయో": 8023,
      "న్నామని": 8024,
      "న్నాడో": 8025,
      "వేలి": 8026,
      "వేవ్": 8027,
      "వేసే": 8028,
      "వేస్తారు": 8029,
      "వేశాన్ని": 8030,
      "వేశారు": 8031,
      "వేడిగా": 8032,
      "వేటాడే": 8033,
      "పాడి": 8034,
      "పాటర్": 8035,
      "పాకెట్": 8036,
      "పాక్ట్": 8037,
      "పాడై": 8038,
      "పాతుకు": 8039,
      "పానీయం": 8040,
      "పాంథి": 8041,
      "పాపులర్": 8042,
      "పెన": 8043,
      "పెరిగాయి": 8044,
      "పెప్టి": 8045,
      "మెల్": 8046,
      "మెక్సి": 8047,
      "యాన": 8048,
      "యాస": 8049,
      "యాడ్": 8050,
      "యాంశ": 8051,
      "యాడ్స్": 8052,
      "ొక్కడం": 8053,
      "మిం": 8054,
      "మియా": 8055,
      "మిషన్": 8056,
      "మిత్ర": 8057,
      "మిక్స్": 8058,
      "మినియం": 8059,
      "మిఫికేషన్": 8060,
      "మిల్లీ": 8061,
      "గిట్": 8062,
      "గిల్": 8063,
      "గితే": 8064,
      "గివింగ్": 8065,
      "గింజ": 8066,
      "కొట్టు": 8067,
      "కొవ్వు": 8068,
      "కొకరు": 8069,
      "కొట్టాడు": 8070,
      "ండే": 8071,
      "ండో": 8072,
      "ండాల్": 8073,
      "పరిప": 8074,
      "పరిసర": 8075,
      "పరిశ్ర": 8076,
      "పరిజ్ఞా": 8077,
      "పరిశీ": 8078,
      "పరిరక్షించడానికి": 8079,
      "పరిజ్ఞానాన్ని": 8080,
      "పరిభ్రమ": 8081,
      "ందరూ": 8082,
      "ంగ్స్": 8083,
      "సహాను": 8084,
      "సహకరించడానికి": 8085,
      "సహసంబంధాలను": 8086,
      "సహేతు": 8087,
      "మేమంతా": 8088,
      "తీగ": 8089,
      "వుకు": 8090,
      "వుగా": 8091,
      "రాక": 8092,
      "రాణ": 8093,
      "రాత": 8094,
      "రాకీ": 8095,
      "రాబడి": 8096,
      "రాజు": 8097,
      "రాశి": 8098,
      "రాళ్ల": 8099,
      "రాళ్ళు": 8100,
      "రాడో": 8101,
      "రాస్టర్": 8102,
      "రాగ్రాఫ్": 8103,
      "రాష్గార్డ్": 8104,
      "తాళ": 8105,
      "తాత్": 8106,
      "తాడని": 8107,
      "తాగడానికి": 8108,
      "అనుబంధ": 8109,
      "అనువాదం": 8110,
      "అనులోమానుపాతంలో": 8111,
      "ఉపశ": 8112,
      "ఉపసం": 8113,
      "ఉపన్యా": 8114,
      "పిచ్": 8115,
      "పిసి": 8116,
      "పిస్తాయి": 8117,
      "పిచ్చి": 8118,
      "పిటల్": 8119,
      "రీకి": 8120,
      "రీలో": 8121,
      "రీచ్": 8122,
      "రీఛార్": 8123,
      "రీమణ": 8124,
      "రీప్లేస్": 8125,
      "పోత": 8126,
      "పోసే": 8127,
      "పోతే": 8128,
      "పోతాయి": 8129,
      "పోస్టా": 8130,
      "పోస్టు": 8131,
      "చెన": 8132,
      "చెంది": 8133,
      "చెడు": 8134,
      "చెరకు": 8135,
      "చెలాయ": 8136,
      "స్థూ": 8137,
      "స్థానికులతో": 8138,
      "్యాము": 8139,
      "ందుల": 8140,
      "సమర్": 8141,
      "సమంత": 8142,
      "నీస్": 8143,
      "నీలం": 8144,
      "ప్పులు": 8145,
      "స్టె": 8146,
      "స్టే": 8147,
      "స్టడీ": 8148,
      "ంటిలో": 8149,
      "ంటిల్": 8150,
      "ంటికేషన్": 8151,
      "కేను": 8152,
      "వెత": 8153,
      "వెన": 8154,
      "వెండి": 8155,
      "వెలువ": 8156,
      "వెల్లు": 8157,
      "వెదురు": 8158,
      "వెర్రి": 8159,
      "వెరిఫికేషన్": 8160,
      "త్తే": 8161,
      "కూరు": 8162,
      "కూర్పు": 8163,
      "ప్రాపంచ": 8164,
      "ప్రాబల": 8165,
      "ప్రాణు": 8166,
      "ప్రాతిపది": 8167,
      "అవపాత": 8168,
      "అవశే": 8169,
      "అవలంబ": 8170,
      "రంధ్ర": 8171,
      "వర్క్స్": 8172,
      "బ్లో": 8173,
      "యంట్": 8174,
      "్రాత్మక": 8175,
      "్రాంగ": 8176,
      "ళ్లపై": 8177,
      "ళ్లుగా": 8178,
      "కోవద్దు": 8179,
      "కోవాలనుకుంటున్నారు": 8180,
      "ాలిక్": 8181,
      "ాలియన్": 8182,
      "పొట్ల": 8183,
      "పొదలు": 8184,
      "కలిసే": 8185,
      "రోగు": 8186,
      "రోల్స్": 8187,
      "రోప్లా": 8188,
      "డాము": 8189,
      "తెరుచు": 8190,
      "తెరుస్తుంది": 8191,
      "బాన్ని": 8192,
      "బాధా": 8193,
      "బాత్ర": 8194,
      "చూసిన": 8195,
      "దేమీ": 8196,
      "జీకి": 8197,
      "జీవులను": 8198,
      "జీర్ణ": 8199,
      "ఉండవు": 8200,
      "ఉండాలో": 8201,
      "ఉండాల్సిన": 8202,
      "ఉండాలనుకుంటున్నారా": 8203,
      "ఉండకండి": 8204,
      "ఉండలేను": 8205,
      "ఉండకూడదు": 8206,
      "కంగారు": 8207,
      "ప్రతిష్": 8208,
      "ప్రతిపాద": 8209,
      "ప్రతిఫల": 8210,
      "ప్రతిచర్యల": 8211,
      "ప్రతిభను": 8212,
      "ప్రతిసారీ": 8213,
      "కీవర్డ్": 8214,
      "కీర్తి": 8215,
      "కీటకాలు": 8216,
      "జాజ్": 8217,
      "జాగింగ్": 8218,
      "త్రో": 8219,
      "త్రాలను": 8220,
      "త్రైమా": 8221,
      "ధ్యాలను": 8222,
      "గలనని": 8223,
      "గలరని": 8224,
      "వైన్": 8225,
      "వైకల": 8226,
      "వైఫల": 8227,
      "్యూమినియం": 8228,
      "ల్లె": 8229,
      "ల్లెట్": 8230,
      "ందించగలవు": 8231,
      "ఉన్నాడా": 8232,
      "సేవా": 8233,
      "సేకరించ": 8234,
      "సేఫ్": 8235,
      "మొజి": 8236,
      "మొలకలు": 8237,
      "తనంలో": 8238,
      "పనిక": 8239,
      "పనిచేసిన": 8240,
      "పనిచేస్తారు": 8241,
      "పనిచేయగలవు": 8242,
      "కరించదగిన": 8243,
      "బిట్స్": 8244,
      "బిల్డ్": 8245,
      "బిలియన్": 8246,
      "ఉన్నందున": 8247,
      "ఉన్నట్లే": 8248,
      "డేటాతో": 8249,
      "భింప": 8250,
      "భివృద్ధికి": 8251,
      "మూవీ": 8252,
      "మూలిక": 8253,
      "మూలాన్ని": 8254,
      "మూడింటిని": 8255,
      "రెక్క": 8256,
      "రెడ్": 8257,
      "రెట్రో": 8258,
      "శాశ్": 8259,
      "శాతం": 8260,
      "శాంప్": 8261,
      "శాంతిని": 8262,
      "రేజీ": 8263,
      "రేటింగ్": 8264,
      "రేటివ్": 8265,
      "రేఖా": 8266,
      "రేడియో": 8267,
      "రేజీని": 8268,
      "రేడియే": 8269,
      "సమానం": 8270,
      "సమాఖ్య": 8271,
      "జ్వరం": 8272,
      "క్రూ": 8273,
      "క్రౌడ్": 8274,
      "కాలానికి": 8275,
      "కాలమ్": 8276,
      "దీపం": 8277,
      "వీరు": 8278,
      "వీక్షించవచ్చు": 8279,
      "సెక": 8280,
      "సెవె": 8281,
      "సెంట్": 8282,
      "సెకండ": 8283,
      "సెగ్మెంటేషన్": 8284,
      "వరూ": 8285,
      "వరల్డ్": 8286,
      "ట్టె": 8287,
      "తరబడి": 8288,
      "ఫ్లైట్": 8289,
      "ఫ్లూ": 8290,
      "ఫ్లుయె": 8291,
      "భావించవచ్చు": 8292,
      "టర్ను": 8293,
      "టర్మ్": 8294,
      "రించిపోతున్న": 8295,
      "రూటింగ్": 8296,
      "సూప్": 8297,
      "సూట్స్": 8298,
      "సూత్రాన్ని": 8299,
      "సూటిగా": 8300,
      "ండ్స్": 8301,
      "వ్యక్తిత్వాన్ని": 8302,
      "యోన్": 8303,
      "యోగా": 8304,
      "జిన్": 8305,
      "జిట్": 8306,
      "జిస్తుంది": 8307,
      "జిషన్": 8308,
      "జిఎం": 8309,
      "జిఎల": 8310,
      "బడిందా": 8311,
      "గొడుగు": 8312,
      "గొంతు": 8313,
      "బుర్రి": 8314,
      "బుడగలు": 8315,
      "బుదారీ": 8316,
      "శక్తికి": 8317,
      "షియం": 8318,
      "షితం": 8319,
      "ఎందుకో": 8320,
      "పరధ్యానం": 8321,
      "వ్యాపిస్తుంది": 8322,
      "వ్యాసాన్ని": 8323,
      "వ్యాధికార": 8324,
      "సృష్టించిన": 8325,
      "సృష్టించగల": 8326,
      "సృష్టించగలవు": 8327,
      "బంధువు": 8328,
      "పేతం": 8329,
      "పేస్ట్": 8330,
      "పేదలు": 8331,
      "పేరోల్": 8332,
      "పేరాగ్రాఫ్": 8333,
      "కుంటున్నాడు": 8334,
      "ఉత్సు": 8335,
      "ఉత్సాహాన్ని": 8336,
      "గ్రో": 8337,
      "గ్రహాన్ని": 8338,
      "ఫిషింగ్": 8339,
      "క్రిటిక్": 8340,
      "క్రిటికల్": 8341,
      "దృశ్యం": 8342,
      "బోల్డ్": 8343,
      "బోతున్నాడు": 8344,
      "కరగడం": 8345,
      "దారుడు": 8346,
      "దారులతో": 8347,
      "కార్న్": 8348,
      "కార్డ్": 8349,
      "కార్బ్": 8350,
      "కార్నివ": 8351,
      "కార్డ్స్": 8352,
      "కార్చిచ్చు": 8353,
      "మోర్": 8354,
      "మోల్": 8355,
      "మోటారు": 8356,
      "ఇవ్వబడిన": 8357,
      "ఇవ్వడంలో": 8358,
      "ఇవ్వగలరా": 8359,
      "పర్చ": 8360,
      "పర్వతం": 8361,
      "సైకి": 8362,
      "సైజ్": 8363,
      "సైనిక": 8364,
      "తెలుపు": 8365,
      "స్థితిలో": 8366,
      "వెళ్తాడు": 8367,
      "వెళ్లిన": 8368,
      "వెళ్లనున్నారు": 8369,
      "అంబర్": 8370,
      "అంశాన్ని": 8371,
      "చర్యతో": 8372,
      "చర్యలపై": 8373,
      "విధులను": 8374,
      "విధ్వం": 8375,
      "తగ్గించి": 8376,
      "మధ్యధరా": 8377,
      "కెనడ": 8378,
      "కెనడి": 8379,
      "కెండాల్": 8380,
      "శ్రయం": 8381,
      "శ్రవణ": 8382,
      "అనిప": 8383,
      "అనిశ్చి": 8384,
      "గోప్యత": 8385,
      "గోల్ఫ్": 8386,
      "గోరువెచ్చని": 8387,
      "శిస్తుంది": 8388,
      "శిశు": 8389,
      "ఉంటాము": 8390,
      "ఉంటాయని": 8391,
      "నిర్వహించవచ్చు": 8392,
      "నిర్వహించాలో": 8393,
      "ించినందుకు": 8394,
      "తెలుసుకున్నారు": 8395,
      "తెలుసుకున్నప్పుడు": 8396,
      "గేట్": 8397,
      "గేమిఫికేషన్": 8398,
      "మొత్తంగా": 8399,
      "మొత్తమ్మీద": 8400,
      "వ్యవస్థపై": 8401,
      "వ్యవస్థలకు": 8402,
      "వ్యవస్థీకృత": 8403,
      "వ్యవస్థాప": 8404,
      "త్రిత": 8405,
      "సంబంధాలకు": 8406,
      "ఉత్పత్తుల": 8407,
      "ఇంక్": 8408,
      "అందించాయి": 8409,
      "అందించిన": 8410,
      "అందించడంలో": 8411,
      "అందించింది": 8412,
      "లీన్": 8413,
      "లీష్": 8414,
      "అంతస్తు": 8415,
      "అంతరించిపోతున్న": 8416,
      "స్పందిస్త": 8417,
      "స్పందన": 8418,
      "స్పఘెట్టి": 8419,
      "స్పందించగలవు": 8420,
      "ంపుకు": 8421,
      "మనసు": 8422,
      "మనల్ని": 8423,
      "మనస్సులో": 8424,
      "మనందరికీ": 8425,
      "సాంఘిక": 8426,
      "ఖర్చుల": 8427,
      "టోబర్": 8428,
      "టోరల్": 8429,
      "టోస్టింగ్": 8430,
      "హాస": 8431,
      "వాతావరణానికి": 8432,
      "వాతావరణాలకు": 8433,
      "వాతావరణాలతో": 8434,
      "నెలకు": 8435,
      "నెలలో": 8436,
      "నెంబ": 8437,
      "నెగె": 8438,
      "నెగటివ్": 8439,
      "క్రమంగా": 8440,
      "ధనవంతు": 8441,
      "రక్షలు": 8442,
      "రక్షించడం": 8443,
      "రక్షించే": 8444,
      "మెరుగుపరిచే": 8445,
      "మెరుగుపరిచింది": 8446,
      "కస్టమర్లు": 8447,
      "కస్టమర్లను": 8448,
      "సోస్పియర్": 8449,
      "సోమవారం": 8450,
      "హిత": 8451,
      "హిస్టా": 8452,
      "హింస": 8453,
      "హిమానీ": 8454,
      "ఆధారాలను": 8455,
      "రోజులో": 8456,
      "దీనిపై": 8457,
      "ప్రారంభించడం": 8458,
      "ప్రారంభించే": 8459,
      "ప్రారంభించడంలో": 8460,
      "ప్రారంభించాలో": 8461,
      "కర్మా": 8462,
      "త్యంలో": 8463,
      "షణాల": 8464,
      "గుర్తించి": 8465,
      "గుర్తించిన": 8466,
      "గుర్తించదగిన": 8467,
      "గుర్తించాను": 8468,
      "గుర్తించాలో": 8469,
      "గతంలో": 8470,
      "పంచదార": 8471,
      "వివక్ష": 8472,
      "వివరిస్తూ": 8473,
      "చేసుకున్నాను": 8474,
      "చేసుకున్నారు": 8475,
      "చేసుకోవాలని": 8476,
      "చెప్పాలి": 8477,
      "చెప్పబడింది": 8478,
      "చెప్పాల్సిన": 8479,
      "చెప్పగలను": 8480,
      "చెప్పలేము": 8481,
      "లక్ష్యాలకు": 8482,
      "లెటర్": 8483,
      "లెన్స్": 8484,
      "లెదర్": 8485,
      "లెవల్": 8486,
      "తులైన": 8487,
      "తున్నప్పుడు": 8488,
      "తున్నారని": 8489,
      "మానవుల": 8490,
      "మానవులకు": 8491,
      "ఆహ్వ": 8492,
      "మైదా": 8493,
      "మైండ్": 8494,
      "మైటో": 8495,
      "మైళ్ల": 8496,
      "మార్గంగా": 8497,
      "మార్గాలలో": 8498,
      "చర్మం": 8499,
      "ప్రపంచీకరణ": 8500,
      "చెప్తాను": 8501,
      "రెండుసార్లు": 8502,
      "ఆర్మీ": 8503,
      "టెస్ట్": 8504,
      "టెండర్": 8505,
      "టెన్సర్": 8506,
      "నైరూప": 8507,
      "తీసుకున్న": 8508,
      "తీసుకున్నాను": 8509,
      "తీసుకున్నారు": 8510,
      "తీసుకుందాం": 8511,
      "తీసుకువచ్చాను": 8512,
      "తీసుకుంటాడు": 8513,
      "ఆరోగ్యంగా": 8514,
      "ఇన్ఫె": 8515,
      "ఇన్వెంట": 8516,
      "ఇన్ఫర్": 8517,
      "ఇన్కమింగ్": 8518,
      "విశ్వాస": 8519,
      "విశ్వాసం": 8520,
      "చిన్నవి": 8521,
      "చిన్నవారు": 8522,
      "చిన్నపిల్ల": 8523,
      "చిన్నదిగా": 8524,
      "చిన్నతనంలో": 8525,
      "భాగాలతో": 8526,
      "అవసరమో": 8527,
      "అవసరాలకు": 8528,
      "అవసరమని": 8529,
      "అవసరాలపై": 8530,
      "అవసరమయ్యే": 8531,
      "కల్చరల్": 8532,
      "జర్ను": 8533,
      "భుజ": 8534,
      "వివరించగలరా": 8535,
      "ఫ్రమ్": 8536,
      "స్ట్ల": 8537,
      "మార్పుకు": 8538,
      "అలాంటి": 8539,
      "డెమో": 8540,
      "డెన్స్": 8541,
      "డెనింగ్": 8542,
      "డెబిట్": 8543,
      "ఫీల్": 8544,
      "ఫీల్డ్": 8545,
      "ప్రయోగాన్ని": 8546,
      "ప్రయోగాత్మక": 8547,
      "కనుగొంది": 8548,
      "కనుగొన్నారు": 8549,
      "కనుగొన్నాడు": 8550,
      "కనుగొంటారు": 8551,
      "ఉదాహరణలలో": 8552,
      "చేస్తున్నాను": 8553,
      "రూపొందించి": 8554,
      "రూపొందించే": 8555,
      "రూపొందించిన": 8556,
      "రూపొందించుకునే": 8557,
      "ట్రాకర్": 8558,
      "ట్రాకింగ్": 8559,
      "బలంతో": 8560,
      "రియన్స్": 8561,
      "కరణలు": 8562,
      "చారిత": 8563,
      "చారిత్ర": 8564,
      "దోమల": 8565,
      "నిజమే": 8566,
      "ప్రభావానికి": 8567,
      "ప్రభావవంతంగా": 8568,
      "చ్చారు": 8569,
      "దనంతో": 8570,
      "వలసవా": 8571,
      "వలసలకు": 8572,
      "ప్రత్యర్థ": 8573,
      "ప్రత్యేకి": 8574,
      "మాట్లాడాడు": 8575,
      "నీటితో": 8576,
      "ఆర్థికశాస్త్రంలో": 8577,
      "ఫోర్స్": 8578,
      "ఫోకస్": 8579,
      "ఫోన్‌లో": 8580,
      "ఫోటోగ్రఫీ": 8581,
      "ఫోర్నియా": 8582,
      "ప్రోత్సహించవచ్చు": 8583,
      "ప్రోత్సహిస్తాయి": 8584,
      "తమకు": 8585,
      "ధికి": 8586,
      "ధిస్తుంది": 8587,
      "పద్ధతులకు": 8588,
      "నీయమైన": 8589,
      "చూడను": 8590,
      "చూడాలి": 8591,
      "చూడాలని": 8592,
      "చూడటానికి": 8593,
      "చూడాలనుకుంటున్నారా": 8594,
      "చూడగలనా": 8595,
      "విస్తరణ": 8596,
      "విస్తరించడం": 8597,
      "విస్తాము": 8598,
      "పొందాలి": 8599,
      "పొందాలని": 8600,
      "పరచండి": 8601,
      "ఎంజై": 8602,
      "జేన్": 8603,
      "ప్రయత్నాల": 8604,
      "సాధించిన": 8605,
      "సాధించగల": 8606,
      "పాత్రల": 8607,
      "పాత్రలో": 8608,
      "పాత్రలకు": 8609,
      "పెరుగుదలను": 8610,
      "జ్ఞుల": 8611,
      "విద్యతో": 8612,
      "ప్రాంతాల్లో": 8613,
      "కంప్యూటర్లో": 8614,
      "చేసినది": 8615,
      "పెంచే": 8616,
      "పెంచాలని": 8617,
      "క్లింక్": 8618,
      "చేసినా": 8619,
      "వేయాలి": 8620,
      "అందాలను": 8621,
      "అవునా": 8622,
      "బ్యాంక్": 8623,
      "బ్యాటరీ": 8624,
      "బ్యాక్లింక్": 8625,
      "నిర్ణయాల": 8626,
      "నిర్ణయించడం": 8627,
      "ప్రశ్నకు": 8628,
      "ప్రశ్నోత్త": 8629,
      "కలలు": 8630,
      "కలపై": 8631,
      "కలవర": 8632,
      "కలయిక": 8633,
      "దశను": 8634,
      "ఫాదర్": 8635,
      "సరిదిద్ద": 8636,
      "ఆదాయ": 8637,
      "ఇష్టమని": 8638,
      "ఇష్టపడ్": 8639,
      "భూభాగాన్ని": 8640,
      "మారుస్తుంది": 8641,
      "మారుతూ": 8642,
      "కార్యక్రమం": 8643,
      "పాదాలు": 8644,
      "పాదచారు": 8645,
      "పాదరక్షలు": 8646,
      "సమయంతో": 8647,
      "సమయాల్లో": 8648,
      "డ్రగ్స్": 8649,
      "నోట్": 8650,
      "నోవా": 8651,
      "హుక్": 8652,
      "చేస్తారా": 8653,
      "చేస్తాము": 8654,
      "చేస్తోంది": 8655,
      "వార్తల": 8656,
      "సిస్టం": 8657,
      "ఉద్రిక్": 8658,
      "కథనానికి": 8659,
      "పడిపోయిన": 8660,
      "చేయగలడు": 8661,
      "చేయగలరా": 8662,
      "ఉపయోగించేటప్పుడు": 8663,
      "సహాయపడవచ్చు": 8664,
      "స్థిరత్వాన్ని": 8665,
      "కారణాలలో": 8666,
      "కనుగొనలేదు": 8667,
      "కనుగొనడంలో": 8668,
      "సౌకర్": 8669,
      "కున్నట్లు": 8670,
      "ప్రమాణాల": 8671,
      "ప్రక్రియకు": 8672,
      "ప్రక్రియలు": 8673,
      "ప్రక్రియలను": 8674,
      "టివ్స్": 8675,
      "వెళ్ళను": 8676,
      "వెళ్ళారు": 8677,
      "వెళ్ళాలి": 8678,
      "వెళ్ళాలని": 8679,
      "వెళ్ళవచ్చా": 8680,
      "అందులో": 8681,
      "ఎవరికి": 8682,
      "సీమ్": 8683,
      "జీవించడానికి": 8684,
      "జీవవైవిధ్య": 8685,
      "జీవవైవిధ్యం": 8686,
      "కంపెనీలో": 8687,
      "ంబస్": 8688,
      "ఉత్తరం": 8689,
      "టైమర్": 8690,
      "టైటిల్": 8691,
      "టైన్మెంట్": 8692,
      "మంత్రి": 8693,
      "సానుభూతి": 8694,
      "కొనడానికి": 8695,
      "పరిగణించవచ్చు": 8696,
      "పరిగణించదగిన": 8697,
      "పరిగణించబడుతుంది": 8698,
      "అధికారం": 8699,
      "అనవసర": 8700,
      "మరలా": 8701,
      "పార్కులు": 8702,
      "ఆలోచనలతో": 8703,
      "ంపస్": 8704,
      "నాలెడ్": 8705,
      "ఫైయర్": 8706,
      "ఫైళ్లు": 8707,
      "బహుముఖ": 8708,
      "సంఖ్యలు": 8709,
      "సంఖ్యలను": 8710,
      "ఉపయోగిస్తున్న": 8711,
      "ఉపయోగిస్తాడు": 8712,
      "ఉపయోగిస్తున్నారు": 8713,
      "ఉపయోగిస్తున్నారని": 8714,
      "ఉపయోగిస్తుంటే": 8715,
      "ప్రయత్నిస్తుంది": 8716,
      "ప్రయత్నిస్తున్న": 8717,
      "ప్రయత్నిస్తాను": 8718,
      "ప్రయత్నిస్తున్నప్పుడు": 8719,
      "తయ్య": 8720,
      "శీఘ్ర": 8721,
      "శీతలీ": 8722,
      "సెట్లలో": 8723,
      "సెట్టింగు": 8724,
      "కమ్యూనికేషన్ల": 8725,
      "కమ్యూనికేషన్ను": 8726,
      "కమ్యూనికేషన్లో": 8727,
      "కమ్యూనికేషన్లను": 8728,
      "వ్యాపారవేత్త": 8729,
      "లెర్నింగ్ను": 8730,
      "దయను": 8731,
      "హెడో": 8732,
      "హెలికా": 8733,
      "నియమావళి": 8734,
      "స్టాప్": 8735,
      "స్టాష్": 8736,
      "నేర్చుకున్నాడు": 8737,
      "నేర్చుకున్నారు": 8738,
      "నేర్చుకుంటారు": 8739,
      "నేర్చుకుంటున్నాడు": 8740,
      "స్థాయిల": 8741,
      "అంతర్ముఖ": 8742,
      "అంతర్భాగం": 8743,
      "అంతర్భాగంగా": 8744,
      "అంతర్నిర్మి": 8745,
      "అప్లై": 8746,
      "అప్గ్రేడ్": 8747,
      "ఎంచుకోవ": 8748,
      "ఎంచుకోవడానికి": 8749,
      "ఎంచుకోవచ్చు": 8750,
      "ఎంచుకోవాలి": 8751,
      "ఎంచుకుంటుంది": 8752,
      "బెల్": 8753,
      "స్వభావం": 8754,
      "స్వల్ప": 8755,
      "కోరుకుంటారు": 8756,
      "కోరుకుంటాడు": 8757,
      "సూచిస్తారు": 8758,
      "సూచిస్తున్నాయి": 8759,
      "సంవత్సరానికి": 8760,
      "సంవత్సరాలుగా": 8761,
      "కాలినడ": 8762,
      "కాలిఫోర్నియా": 8763,
      "జైలులో": 8764,
      "పరిస్థితి": 8765,
      "పరిస్థితులను": 8766,
      "పరిస్థితులకు": 8767,
      "పరిస్థితుల్లో": 8768,
      "పరిస్థితికి": 8769,
      "అనుకోవచ్చు": 8770,
      "పిల్లవాడు": 8771,
      "ఆటను": 8772,
      "ఆటకు": 8773,
      "ఆటలు": 8774,
      "కనిష్ట": 8775,
      "కారులో": 8776,
      "కారుతోంది": 8777,
      "ట్రూ": 8778,
      "ట్రే": 8779,
      "పీడ": 8780,
      "పీస్": 8781,
      "పీల్": 8782,
      "పీచ్": 8783,
      "య్యో": 8784,
      "న్యూస్": 8785,
      "న్యూరా": 8786,
      "మీడియాను": 8787,
      "మీడియాతో": 8788,
      "పాఠాలను": 8789,
      "పాఠకుడిని": 8790,
      "పరిమితి": 8791,
      "పరిమితంగా": 8792,
      "తీవ్రతను": 8793,
      "రంగులతో": 8794,
      "రంగులలో": 8795,
      "రంగులోకి": 8796,
      "శాస్త్రంపై": 8797,
      "స్నేహితులను": 8798,
      ":**.": 8799,
      "ఎక్కడో": 8800,
      "దూక": 8801,
      "దూసుకొ": 8802,
      "మవుతుందని": 8803,
      "వద్దకు": 8804,
      "సామాగ్రిని": 8805,
      "చిత్రాలను": 8806,
      "చిత్రాలలో": 8807,
      "వచ్చారా": 8808,
      "ఉపయోగించాలి": 8809,
      "ఉపయోగించాడు": 8810,
      "ఉపయోగించాలో": 8811,
      "ఉపయోగించబడింది": 8812,
      "ఉపయోగించబడు": 8813,
      "అనుభవించే": 8814,
      "అనుభవపూర్వక": 8815,
      "అనుభవజ్ఞుల": 8816,
      "కల్పించండి": 8817,
      "మాట్లాడండి": 8818,
      "మాట్లాడవచ్చా": 8819,
      "మాట్లాడకండి": 8820,
      "మాట్లాడాలనుకుంటున్నాను": 8821,
      "సంభావ్యత": 8822,
      "రాయడం": 8823,
      "న్‌ను": 8824,
      "న్‌కు": 8825,
      "కుంటారా": 8826,
      "కుంటారని": 8827,
      "కుంటాడని": 8828,
      "ప్రొపల్": 8829,
      "విధానాలు": 8830,
      "స్తున్నావు": 8831,
      "కొంతకాలం": 8832,
      "స్థానాన్ని": 8833,
      "మార్కెట్లు": 8834,
      "మార్కెట్లోకి": 8835,
      "శోధనను": 8836,
      "విద్యార్థులను": 8837,
      "దారితీస్తాయి": 8838,
      "దారితీస్తుందని": 8839,
      "ఉంచవచ్చు": 8840,
      "రూపం": 8841,
      "రూపంగా": 8842,
      "నైపుణ్యాన్ని": 8843,
      "ఎన్వై": 8844,
      "ఎన్ఎల్": 8845,
      "ఎన్క్రిప్షన్": 8846,
      "జోక్యం": 8847,
      "జరుగుతున్న": 8848,
      "జరుగుతోందని": 8849,
      "హైబ్రిడ్": 8850,
      "హైస్కూల్": 8851,
      "మెరుపు": 8852,
      "వెళ్లడానికి": 8853,
      "వెళ్లడం": 8854,
      "వెళ్లారు": 8855,
      "ప్రయోజనాలలో": 8856,
      "అడవులు": 8857,
      "అడవుల": 8858,
      "అడవుల్లో": 8859,
      "ఖాత": 8860,
      "నమ్మక": 8861,
      "నమ్మకం": 8862,
      "నమ్మకాల": 8863,
      "నమ్మకంగా": 8864,
      "నమ్మవద్దు": 8865,
      "పట్టవచ్చు": 8866,
      "పట్టణం": 8867,
      "బయటి": 8868,
      "నివాసి": 8869,
      "నివారించడం": 8870,
      "డిజైన్ను": 8871,
      "వాహక": 8872,
      "వాహనాలను": 8873,
      "కొనుగోళ్ల": 8874,
      "స్ట్రోమ": 8875,
      "స్ట్రోక్": 8876,
      "పరీక్షల": 8877,
      "పరీక్షించాలి": 8878,
      "ప్రదేశాలలో": 8879,
      "తున్నానా": 8880,
      "నిర్మాణాలు": 8881,
      "నిర్మాణాత్మక": 8882,
      "చూపుతోంది": 8883,
      "చూపుతుందో": 8884,
      "విశ్లేషించగలవు": 8885,
      "విశ్లేషణాత్మక": 8886,
      "నిల్వను": 8887,
      "ఆసన్నమైంది": 8888,
      "ఎస్టిఎమ్": 8889,
      "ఎస్ఈఓ": 8890,
      "గెలిచ": 8891,
      "గెలిచే": 8892,
      "గ్రాన్యు": 8893,
      "బ్రెడ్": 8894,
      "బ్రౌన్": 8895,
      "బ్రెగ్": 8896,
      "రైనియర్": 8897,
      "రల్స్తో": 8898,
      "విభజిస్తుంది": 8899,
      "చేరుకుంటు": 8900,
      "ప్రియు": 8901,
      "ప్రింటింగ్": 8902,
      "లేకపోతున్నాను": 8903,
      "లేకపోయింది": 8904,
      "సంఘంలో": 8905,
      "సంస్థల": 8906,
      "సంస్థను": 8907,
      "సంస్థలు": 8908,
      "సంస్థల్లో": 8909,
      "సికన్": 8910,
      "సికంలో": 8911,
      "రాజ్యం": 8912,
      "వైద్యం": 8913,
      "మోడలింగ్": 8914,
      "ప్రేక్షకుల": 8915,
      "ఏర్పడతాయి": 8916,
      "ఏర్పడిన": 8917,
      "ఏర్పరుస్తుంది": 8918,
      "నడవడం": 8919,
      "పదాల": 8920,
      "పదాలను": 8921,
      "పదవీ": 8922,
      "పదబంధ": 8923,
      "పదమూడు": 8924,
      "బద్ధత": 8925,
      "భవనం": 8926,
      "భవనాలు": 8927,
      "భవించిన": 8928,
      "భవనాలను": 8929,
      "సమీకరణాన్ని": 8930,
      "తినండి": 8931,
      "స్తాడో": 8932,
      "పరికరాలకు": 8933,
      "పరికరాలతో": 8934,
      "గ్రీన్స్": 8935,
      "జంతువులను": 8936,
      "జంతువుకు": 8937,
      "జీవితకాల": 8938,
      "డిజైన్లను": 8939,
      "పాయింటర్": 8940,
      "షార్లెట్": 8941,
      "స్వీకరించడం": 8942,
      "క్లస్టర్": 8943,
      "స్తున్నట్లు": 8944,
      "మార్చగలదు": 8945,
      "సేవలకు": 8946,
      "వ్యాప్తిని": 8947,
      "వెబ్సైట్కు": 8948,
      "వెబ్సైట్లో": 8949,
      "విద్యుదుత్పత్తి": 8950,
      "రవాణాకు": 8951,
      "టెక్నాలజీలో": 8952,
      "ఆపడానికి": 8953,
      "ఆపాలని": 8954,
      "ఆపరేట్": 8955,
      "డోగ్లై": 8956,
      "పడుకో": 8957,
      "పడుతున్నారు": 8958,
      "వదిలే": 8959,
      "వాస్తవాలు": 8960,
      "టాప్లు": 8961,
      "దుస్తులకు": 8962,
      "పోయానని": 8963,
      "మూలాలను": 8964,
      "మూలధన": 8965,
      "కాల్లో": 8966,
      "కాల్పనిక": 8967,
      "దీర్ఘకాలంలో": 8968,
      "దీర్ఘకాలికంగా": 8969,
      "దీర్ఘచతురస్రాకార": 8970,
      "సూచించ": 8971,
      "పేరును": 8972,
      "ఆహారాలు": 8973,
      "కుటుంబంలో": 8974,
      "కుటుంబంలోని": 8975,
      "నైపుణ్యాలతో": 8976,
      "పదార్థాల": 8977,
      "పదార్థంతో": 8978,
      "శారీరకంగా": 8979,
      "కార్యకలాపాలపై": 8980,
      "అలసి": 8981,
      "అలర్ట్": 8982,
      "అల్యూమినియం": 8983,
      "ఐదుకు": 8984,
      "డర్లను": 8985,
      "దగ్గు": 8986,
      "దగ్గరి": 8987,
      "నష్టాల": 8988,
      "నగరాల": 8989,
      "నగరాలను": 8990,
      "నగరంలోని": 8991,
      "పట్టుకో": 8992,
      "పట్టుకోవడానికి": 8993,
      "పట్టుకోవడం": 8994,
      "పట్టుకుని": 8995,
      "సభ్యులను": 8996,
      "సభ్యురాలు": 8997,
      "రికింది": 8998,
      "విశ్రాంతిని": 8999,
      "నాణ్యమైన": 9000,
      "ప్లేయర్": 9001,
      "కోల్పోయిన": 9002,
      "సాహసాలకు": 9003,
      "కొలతను": 9004,
      "కొలమానాలు": 9005,
      "కొలరాడో": 9006,
      "కొలంబస్": 9007,
      "స్టోన్": 9008,
      "స్టోరీని": 9009,
      "క్రీస్తు": 9010,
      "యూజర్లకు": 9011,
      "కార్డును": 9012,
      "ప్రేమించడం": 9013,
      "ఆహారంపై": 9014,
      "పంచుకోండి": 9015,
      "పంచుకోవడం": 9016,
      "పంచుకున్న": 9017,
      "పంచుకునే": 9018,
      "పంచుకున్నాడు": 9019,
      "ఫెన్": 9020,
      "ఫెయిర్": 9021,
      "ఫెసిలిటీ": 9022,
      "సాగించడానికి": 9023,
      "స్తోందని": 9024,
      "పరిశ్రమలలో": 9025,
      "వ్యక్తిగతంగా": 9026,
      "ఇష్టపడడు": 9027,
      "ఇష్టపడతాను": 9028,
      "ఇష్టపడతారు": 9029,
      "ఇష్టపడతాడు": 9030,
      "ఇష్టపడలేదని": 9031,
      "భూమిని": 9032,
      "భూమిపై": 9033,
      "శుభ్రపరిచే": 9034,
      "కలుషితం": 9035,
      "తప్పును": 9036,
      "తప్పుగా": 9037,
      "నడిచే": 9038,
      "నడిపాడు": 9039,
      "నడిబొ": 9040,
      "నడిచాను": 9041,
      "బడులను": 9042,
      "యర్లో": 9043,
      "షెల్": 9044,
      "నిరాకరి": 9045,
      "నిద్రను": 9046,
      "నిద్రపోయాడు": 9047,
      "క్యాం": 9048,
      "క్యాన్": 9049,
      "క్యాచ్": 9050,
      "క్యాపిటల్": 9051,
      "క్యాంపస్": 9052,
      "క్యూబిట్": 9053,
      "క్యూబ్స్": 9054,
      "నాయకులు": 9055,
      "నాయకుడు": 9056,
      "నాయకుడిని": 9057,
      "పురోగతులు": 9058,
      "వ్యూహాలలో": 9059,
      "పోటీగా": 9060,
      "వర్గీకరించ": 9061,
      "వర్గీకరించడానికి": 9062,
      "వర్గీకరించండి": 9063,
      "వర్గీకరించడం": 9064,
      "వర్గీకరి": 9065,
      "వర్గీకరణను": 9066,
      "శ్వాసను": 9067,
      "శ్వాసక్రియ": 9068,
      "రెండరింగ్": 9069,
      "సమాజాలు": 9070,
      "సమాజాలకు": 9071,
      "మెరుగుపరుచు": 9072,
      "అవుట్పుట్": 9073,
      "మరొకరికి": 9074,
      "మోడల్ను": 9075,
      "మోడల్కు": 9076,
      "నిరోధించడం": 9077,
      "నిరోధించే": 9078,
      "ఇంట్లోనే": 9079,
      "అద్భుతం": 9080,
      "గాలిలోకి": 9081,
      "వంటకాల": 9082,
      "వంటకాల్లో": 9083,
      "లోపాలు": 9084,
      "కాంబాట్": 9085,
      "కాంప్లి": 9086,
      "కాంపాక్ట్": 9087,
      "నిర్వచించడానికి": 9088,
      "నిర్వచించే": 9089,
      "సమూహాలు": 9090,
      "సమూహాలను": 9091,
      "సమూహాలుగా": 9092,
      "సూచనల": 9093,
      "సూచనలపై": 9094,
      "పేజీకి": 9095,
      "పేజీలు": 9096,
      "లెక్కింపు": 9097,
      "లెక్కించబడుతుంది": 9098,
      "ప్రోగ్రామ్లను": 9099,
      "ఇంటెలిజెంట్": 9100,
      "197": 9101,
      "1950": 9102,
      "ఆస్వాదించ": 9103,
      "మౌఖిక": 9104,
[...]
