{
  "version": "1.0",
  "truncation": null,
  "padding": null,
  "added_tokens": [
    {
      "id": 0,
      "content": "[UNK]",
      "single_word": false,
      "lstrip": false,
      "rstrip": false,
      "normalized": false,
      "special": true
    },
    {
      "id": 1,
      "content": "[PAD]",
      "single_word": false,
      "lstrip": false,
      "rstrip": false,
      "normalized": false,
      "special": true
    },
    {
      "id": 2,
      "content": "[SOS]",
      "single_word": false,
      "lstrip": false,
      "rstrip": false,
      "normalized": false,
      "special": true
    },
    {
      "id": 3,
      "content": "[EOS]",
      "single_word": false,
      "lstrip": false,
      "rstrip": false,
      "normalized": false,
      "special": true
    }
  ],
  "normalizer": null,
  "pre_tokenizer": {
    "type": "Whitespace"
  },
  "post_processor": null,
  "decoder": null,
  "model": {
    "type": "BPE",
    "dropout": null,
    "unk_token": "[UNK]",
    "continuing_subword_prefix": null,
    "end_of_word_suffix": null,
    "fuse_unk": false,
    "byte_fallback": false,
    "ignore_merges": false,
    "vocab": {
      "[UNK]": 0,
      "[PAD]": 1,
      "[SOS]": 2,
      "[EOS]": 3,
      "!": 4,
      "\"": 5,
      "#": 6,
      "$": 7,
      "%": 8,
      "&": 9,
      "'": 10,
      "(": 11,
      ")": 12,
      "*": 13,
      "+": 14,
      ",": 15,
      "-": 16,
      ".": 17,
      "/": 18,
      "0": 19,
      "1": 20,
      "2": 21,
      "3": 22,
      "4": 23,
      "5": 24,
      "6": 25,
      "7": 26,
      "8": 27,
      "9": 28,
      ":": 29,
      ";": 30,
      "<": 31,
      "=": 32,
      ">": 33,
      "?": 34,
      "A": 35,
      "B": 36,
      "C": 37,
      "D": 38,
      "E": 39,
      "F": 40,
      "G": 41,
      "H": 42,
      "I": 43,
      "J": 44,
      "K": 45,
      "L": 46,
      "M": 47,
      "N": 48,
      "O": 49,
      "P": 50,
      "Q": 51,
      "R": 52,
      "S": 53,
      "T": 54,
      "U": 55,
      "V": 56,
      "W": 57,
      "X": 58,
      "Y": 59,
      "[": 60,
      "]": 61,
      "^": 62,
      "_": 63,
      "`": 64,
      "a": 65,
      "b": 66,
      "c": 67,
      "d": 68,
      "e": 69,
      "f": 70,
      "g": 71,
      "h": 72,
      "i": 73,
      "j": 74,
      "k": 75,
      "l": 76,
      "m": 77,
      "n": 78,
      "o": 79,
      "p": 80,
      "q": 81,
      "r": 82,
      "s": 83,
      "t": 84,
      "u": 85,
      "v": 86,
      "w": 87,
      "x": 88,
      "y": 89,
      "z": 90,
      "{": 91,
      "}": 92,
      "°": 93,
      "×": 94,
      "é": 95,
      "–": 96,
      "—": 97,
      "’": 98,
      "“": 99,
      "”": 100,
      "th": 101,
      "in": 102,
      "an": 103,
      "re": 104,
      "on": 105,
      "er": 106,
      "at": 107,
      "the": 108,
      "en": 109,
      "to": 110,
      "es": 111,
      "ou": 112,
      "ing": 113,
      "or": 114,
      "and": 115,
      "al": 116,
      "is": 117,
      "om": 118,
      "ar": 119,
      "ed": 120,
      "as": 121,
      "it": 122,
      "of": 123,
      "ion": 124,
      "le": 125,
      "ic": 126,
      "st": 127,
      "he": 128,
      "ch": 129,
      "ve": 130,
      "ent": 131,
      "you": 132,
      "ro": 133,
      "ct": 134,
      "se": 135,
      "il": 136,
      "im": 137,
      "ow": 138,
      "for": 139,
      "be": 140,
      "id": 141,
      "su": 142,
      "ation": 143,
      "ce": 144,
      "ol": 145,
      "ly": 146,
      "Tom": 147,
      "that": 148,
      "us": 149,
      "are": 150,
      "pro": 151,
      "et": 152,
      "ver": 153,
      "ir": 154,
      "te": 155,
      "de": 156,
      "ig": 157,
      "ab": 158,
      "if": 159,
      "con": 160,
      "can": 161,
      "ay": 162,
      "am": 163,
      "com": 164,
      "ad": 165,
      "ate": 166,
      "ag": 167,
      "un": 168,
      "wh": 169,
      "ke": 170,
      "mo": 171,
      "ith": 172,
      "ter": 173,
      "ne": 174,
      "we": 175,
      "lo": 176,
      "The": 177,
      "ul": 178,
      "ac": 179,
      "me": 180,
      "ess": 181,
      "ant": 182,
      "tr": 183,
      "ha": 184,
      "with": 185,
      "ers": 186,
      "your": 187,
      "pl": 188,
      "ex": 189,
      "ld": 190,
      "res": 191,
      "fe": 192,
      "ur": 193,
      "his": 194,
      "ment": 195,
      "ma": 196,
      "ot": 197,
      "iv": 198,
      "pe": 199,
      "all": 200,
      "ive": 201,
      "ut": 202,
      "op": 203,
      "fr": 204,
      "ity": 205,
      "?.": 206,
      "act": 207,
      "cl": 208,
      "ies": 209,
      "ain": 210,
      "ther": 211,
      "out": 212,
      "ill": 213,
      "ap": 214,
      "qu": 215,
      "wor": 216,
      "do": 217,
      "du": 218,
      "igh": 219,
      "ould": 220,
      "so": 221,
      "ll": 222,
      "est": 223,
      "oun": 224,
      "ome": 225,
      "ort": 226,
      "have": 227,
      "cre": 228,
      "our": 229,
      "sh": 230,
      "co": 231,
      "one": 232,
      "This": 233,
      "ci": 234,
      "li": 235,
      "iz": 236,
      "od": 237,
      "their": 238,
      "ge": 239,
      "per": 240,
      "em": 241,
      "go": 242,
      "port": 243,
      "ist": 244,
      "tim": 245,
      "by": 246,
      "any": 247,
      "po": 248,
      "pr": 249,
      "ine": 250,
      "ren": 251,
      "hel": 252,
      "age": 253,
      "Wh": 254,
      "was": 255,
      "end": 256,
      "art": 257,
      "ud": 258,
      "able": 259,
      "ions": 260,
      "from": 261,
      "has": 262,
      "help": 263,
      "dat": 264,
      "work": 265,
      "ight": 266,
      "gr": 267,
      "ide": 268,
      "comp": 269,
      "In": 270,
      "ary": 271,
      "now": 272,
      "ure": 273,
      "ind": 274,
      "ich": 275,
      "cess": 276,
      "gy": 277,
      "its": 278,
      "str": 279,
      "It": 280,
      "more": 281,
      "gh": 282,
      "ener": 283,
      "ks": 284,
      "um": 285,
      "data": 286,
      "use": 287,
      "here": 288,
      "up": 289,
      "ence": 290,
      "ef": 291,
      "this": 292,
      "ass": 293,
      "form": 294,
      "ough": 295,
      "ical": 296,
      "other": 297,
      "tor": 298,
      "low": 299,
      "ual": 300,
      "time": 301,
      "know": 302,
      "tom": 303,
      "ign": 304,
      "new": 305,
      "ces": 306,
      "fo": 307,
      "will": 308,
      "ach": 309,
      "bo": 310,
      "sp": 311,
      "which": 312,
      "ound": 313,
      "cus": 314,
      "king": 315,
      "cr": 316,
      "not": 317,
      "ard": 318,
      "comm": 319,
      "int": 320,
      "ear": 321,
      "pre": 322,
      "sit": 323,
      "tw": 324,
      "ase": 325,
      "ific": 326,
      "ake": 327,
      "ple": 328,
      "very": 329,
      "pt": 330,
      "sy": 331,
      "ations": 332,
      "ep": 333,
      "ib": 334,
      "such": 335,
      "dif": 336,
      "some": 337,
      "ous": 338,
      "ace": 339,
      "ire": 340,
      "way": 341,
      "thing": 342,
      "chn": 343,
      "prov": 344,
      "ial": 345,
      "about": 346,
      "der": 347,
      "incl": 348,
      "ans": 349,
      "ice": 350,
      "feren": 351,
      "like": 352,
      "they": 353,
      "eng": 354,
      "lear": 355,
      "techn": 356,
      "des": 357,
      "el": 358,
      "ie": 359,
      "spe": 360,
      "ated": 361,
      "av": 362,
      "could": 363,
      "ong": 364,
      "stem": 365,
      "chan": 366,
      "cial": 367,
      "ful": 368,
      "ph": 369,
      "ater": 370,
      "cont": 371,
      "system": 372,
      "He": 373,
      "did": 374,
      "ust": 375,
      "own": 376,
      "get": 377,
      "ning": 378,
      "ty": 379,
      "inter": 380,
      "olo": 381,
      "**": 382,
      "We": 383,
      "day": 384,
      "into": 385,
      "ast": 386,
      "ents": 387,
      "produ": 388,
      "ress": 389,
      "Mary": 390,
      "You": 391,
      "car": 392,
      "sa": 393,
      "ser": 394,
      "ting": 395,
      "want": 396,
      "ction": 397,
      "bet": 398,
      "sum": 399,
      "used": 400,
      "ile": 401,
      "ket": 402,
      "ob": 403,
      "them": 404,
      "also": 405,
      "ities": 406,
      "row": 407,
      "need": 408,
      "Th": 409,
      "__": 410,
      "col": 411,
      "don": 412,
      "over": 413,
      "ree": 414,
      "redu": 415,
      "ased": 416,
      "custom": 417,
      "br": 418,
      "mar": 419,
      "ts": 420,
      "ance": 421,
      "ame": 422,
      "cur": 423,
      "ience": 424,
      "no": 425,
      "thr": 426,
      "red": 427,
      "alth": 428,
      "ally": 429,
      "velo": 430,
      "ack": 431,
      "make": 432,
      "dr": 433,
      "differen": 434,
      "dis": 435,
      "ss": 436,
      "would": 437,
      "inv": 438,
      "fect": 439,
      "velop": 440,
      "bus": 441,
      "ect": 442,
      "fic": 443,
      "how": 444,
      "ip": 445,
      "man": 446,
      "sto": 447,
      "ink": 448,
      "ating": 449,
      "health": 450,
      "imp": 451,
      "import": 452,
      "ular": 453,
      "erson": 454,
      "energy": 455,
      "technolo": 456,
      "cal": 457,
      "gg": 458,
      "ok": 459,
      "ten": 460,
      "ates": 461,
      "stand": 462,
      "ild": 463,
      "allow": 464,
      "ople": 465,
      "What": 466,
      "through": 467,
      "ber": 468,
      "ck": 469,
      "ev": 470,
      "gu": 471,
      "my": 472,
      "incre": 473,
      "inform": 474,
      "reg": 475,
      "there": 476,
      "lect": 477,
      "sure": 478,
      "old": 479,
      "How": 480,
      "ms": 481,
      "pen": 482,
      "ys": 483,
      "rest": 484,
      "ices": 485,
      ":.": 486,
      "au": 487,
      "med": 488,
      "part": 489,
      "ite": 490,
      "ition": 491,
      "abil": 492,
      "ult": 493,
      "ivid": 494,
      "people": 495,
      "ize": 496,
      "ail": 497,
      "lif": 498,
      "iness": 499,
      "ments": 500,
      "commun": 501,
      "two": 502,
      "Do": 503,
      "ca": 504,
      "net": 505,
      "vir": 506,
      "ish": 507,
      "set": 508,
      "what": 509,
      "exper": 510,
      "includ": 511,
      "important": 512,
      "information": 513,
      "bu": 514,
      "care": 515,
      "eas": 516,
      "ject": 517,
      "les": 518,
      "light": 519,
      "ue": 520,
      "where": 521,
      "inte": 522,
      "ons": 523,
      "off": 524,
      "market": 525,
      "impact": 526,
      "technology": 527,
      "ak": 528,
      "air": 529,
      "bl": 530,
      "cy": 531,
      "home": 532,
      "ied": 533,
      "may": 534,
      "ost": 535,
      "person": 536,
      "take": 537,
      "vis": 538,
      "xt": 539,
      "year": 540,
      "ise": 541,
      "sup": 542,
      "process": 543,
      "who": 544,
      "web": 545,
      "hap": 546,
      "ives": 547,
      "ds": 548,
      "fol": 549,
      "gre": 550,
      "ia": 551,
      "ious": 552,
      "water": 553,
      "rel": 554,
      "ert": 555,
      "come": 556,
      "ween": 557,
      "They": 558,
      "ible": 559,
      "between": 560,
      "coun": 561,
      "grow": 562,
      "her": 563,
      "high": 564,
      "ures": 565,
      "ves": 566,
      "think": 567,
      "requ": 568,
      "top": 569,
      "als": 570,
      "arch": 571,
      "cho": 572,
      "vel": 573,
      "impro": 574,
      "ower": 575,
      "sur": 576,
      "del": 577,
      "develop": 578,
      "ify": 579,
      "when": 580,
      "plan": 581,
      "create": 582,
      "point": 583,
      "spec": 584,
      "product": 585,
      "follow": 586,
      "improve": 587,
      "En": 588,
      "fac": 589,
      "ns": 590,
      "sof": 591,
      "she": 592,
      "ential": 593,
      "been": 594,
      "adv": 595,
      "while": 596,
      "mem": 597,
      "exam": 598,
      "iven": 599,
      "does": 600,
      "cost": 601,
      "Why": 602,
      "Con": 603,
      "ather": 604,
      "cor": 605,
      "cent": 606,
      "cation": 607,
      "down": 608,
      "had": 609,
      "iend": 610,
      "lar": 611,
      "list": 612,
      "power": 613,
      "sm": 614,
      "tal": 615,
      "ication": 616,
      "stud": 617,
      "sel": 618,
      "search": 619,
      "vers": 620,
      "under": 621,
      "play": 622,
      "resp": 623,
      "should": 624,
      "ized": 625,
      "good": 626,
      "prom": 627,
      "tory": 628,
      "cri": 629,
      "tware": 630,
      "provide": 631,
      "learning": 632,
      "didn": 633,
      "business": 634,
      "ividual": 635,
      "If": 636,
      "bon": 637,
      "but": 638,
      "based": 639,
      "ever": 640,
      "ient": 641,
      "long": 642,
      "many": 643,
      "nat": 644,
      "num": 645,
      "tion": 646,
      "val": 647,
      "anal": 648,
      "read": 649,
      "using": 650,
      "cons": 651,
      "ural": 652,
      "friend": 653,
      "class": 654,
      "individual": 655,
      "stru": 656,
      "effect": 657,
      "serv": 658,
      "reduce": 659,
      "ability": 660,
      "life": 661,
      "websit": 662,
      "00": 663,
      "Ex": 664,
      "ben": 665,
      "fin": 666,
      "gener": 667,
      "line": 668,
      "oth": 669,
      "pa": 670,
      "par": 671,
      "pur": 672,
      "sign": 673,
      "atch": 674,
      "these": 675,
      "ings": 676,
      "edu": 677,
      "add": 678,
      "aging": 679,
      "key": 680,
      "There": 681,
      "access": 682,
      "trans": 683,
      "mail": 684,
      "ources": 685,
      "software": 686,
      "back": 687,
      "ced": 688,
      "email": 689,
      "fun": 690,
      "ho": 691,
      "hand": 692,
      "ose": 693,
      "pot": 694,
      "uch": 695,
      "ude": 696,
      "uter": 697,
      "var": 698,
      "than": 699,
      "atter": 700,
      "sever": 701,
      "consum": 702,
      "ages": 703,
      "social": 704,
      "ody": 705,
      "computer": 706,
      "ought": 707,
      "different": 708,
      "experience": 709,
      "including": 710,
      "personal": 711,
      "benef": 712,
      "AI": 713,
      "An": 714,
      "St": 715,
      "bre": 716,
      "ble": 717,
      "cap": 718,
      "fil": 719,
      "find": 720,
      "gan": 721,
      "put": 722,
      "pop": 723,
      "ran": 724,
      "sk": 725,
      "vie": 726,
      "wr": 727,
      "step": 728,
      "dec": 729,
      "model": 730,
      "quest": 731,
      "ption": 732,
      "ways": 733,
      "provid": 734,
      "design": 735,
      "change": 736,
      "said": 737,
      "____": 738,
      "support": 739,
      "website": 740,
      "several": 741,
      "aud": 742,
      "aking": 743,
      "io": 744,
      "just": 745,
      "pol": 746,
      "pres": 747,
      "pass": 748,
      "rele": 749,
      "ative": 750,
      "arm": 751,
      "ital": 752,
      "let": 753,
      "ict": 754,
      "ily": 755,
      "being": 756,
      "irst": 757,
      "pect": 758,
      "soci": 759,
      "ization": 760,
      "gether": 761,
      "going": 762,
      "include": 763,
      "example": 764,
      "self": 765,
      "understand": 766,
      "Ad": 767,
      "Can": 768,
      "Is": 769,
      "af": 770,
      "aw": 771,
      "bal": 772,
      "bot": 773,
      "body": 774,
      "che": 775,
      "every": 776,
      "gor": 777,
      "iqu": 778,
      "sol": 779,
      "tur": 780,
      "ang": 781,
      "together": 782,
      "ited": 783,
      "often": 784,
      "see": 785,
      "sul": 786,
      "why": 787,
      "well": 788,
      "exp": 789,
      "ution": 790,
      "comple": 791,
      "learn": 792,
      "systems": 793,
      "carbon": 794,
      "customer": 795,
      "network": 796,
      "viron": 797,
      "specific": 798,
      "Des": 799,
      "Some": 800,
      "cle": 801,
      "cam": 802,
      "clo": 803,
      "found": 804,
      "ix": 805,
      "jo": 806,
      "led": 807,
      "min": 808,
      "mon": 809,
      "ness": 810,
      "pu": 811,
      "sim": 812,
      "three": 813,
      "ins": 814,
      "ens": 815,
      "environ": 816,
      "ors": 817,
      "iss": 818,
      "ask": 819,
      "ick": 820,
      "prote": 821,
      "proble": 822,
      "try": 823,
      "hav": 824,
      "mach": 825,
      "aining": 826,
      "both": 827,
      "ificant": 828,
      "phys": 829,
      "interact": 830,
      "invol": 831,
      "ggest": 832,
      "increase": 833,
      "build": 834,
      "development": 835,
      "significant": 836,
      ").": 837,
      ":**": 838,
      "Com": 839,
      "On": 840,
      "det": 841,
      "elect": 842,
      "first": 843,
      "lan": 844,
      "oks": 845,
      "ps": 846,
      "only": 847,
      "ese": 848,
      "ality": 849,
      "ics": 850,
      "char": 851,
      "ident": 852,
      "cept": 853,
      "team": 854,
      "tell": 855,
      "again": 856,
      "most": 857,
      "were": 858,
      "look": 859,
      "place": 860,
      "feel": 861,
      "posit": 862,
      "gram": 863,
      "typ": 864,
      "customers": 865,
      "manage": 866,
      "cause": 867,
      "number": 868,
      "benefits": 869,
      "Add": 870,
      "physical": 871,
      "By": 872,
      "Bost": 873,
      "Pro": 874,
      "Un": 875,
      "aut": 876,
      "call": 877,
      "ding": 878,
      "econ": 879,
      "each": 880,
      "fam": 881,
      "gies": 882,
      "lu": 883,
      "less": 884,
      "must": 885,
      "sis": 886,
      "say": 887,
      "sci": 888,
      "ines": 889,
      "ature": 890,
      "organ": 891,
      "algor": 892,
      "around": 893,
      "itt": 894,
      "iting": 895,
      "sub": 896,
      "program": 897,
      "dev": 898,
      "meet": 899,
      "ants": 900,
      "made": 901,
      "ount": 902,
      "oney": 903,
      "known": 904,
      "ards": 905,
      "better": 906,
      "regular": 907,
      "happen": 908,
      "require": 909,
      "following": 910,
      "doesn": 911,
      "large": 912,
      "cribe": 913,
      "environment": 914,
      "protect": 915,
      "involves": 916,
      "Boston": 917,
      "econom": 918,
      "algorith": 919,
      "Be": 920,
      "Ch": 921,
      "De": 922,
      "Over": 923,
      "cing": 924,
      "cul": 925,
      "cour": 926,
      "ccess": 927,
      "fer": 928,
      "hy": 929,
      "him": 930,
      "lim": 931,
      "money": 932,
      "right": 933,
      "sing": 934,
      "tre": 935,
      "yes": 936,
      "thought": 937,
      "resul": 938,
      "told": 939,
      "ouse": 940,
      "lead": 941,
      "head": 942,
      "rol": 943,
      "users": 944,
      "dep": 945,
      "making": 946,
      "ills": 947,
      "appl": 948,
      "show": 949,
      "lie": 950,
      "effic": 951,
      "food": 952,
      "prev": 953,
      "ield": 954,
      "summ": 955,
      "curity": 956,
      "invest": 957,
      "media": 958,
      "marketing": 959,
      "great": 960,
      "struct": 961,
      "view": 962,
      "publ": 963,
      "electr": 964,
      "langu": 965,
      "As": 966,
      "Cre": 967,
      "Gener": 968,
      "One": 969,
      "Re": 970,
      "ave": 971,
      "flow": 972,
      "hum": 973,
      "hard": 974,
      "job": 975,
      "much": 976,
      "pay": 977,
      "patter": 978,
      "ry": 979,
      "sal": 980,
      "tual": 981,
      "ues": 982,
      "vo": 983,
      "ving": 984,
      "yz": 985,
      "ination": 986,
      "ref": 987,
      "reas": 988,
      "online": 989,
      "att": 990,
      "tool": 991,
      "oud": 992,
      "level": 993,
      "state": 994,
      "chall": 995,
      "imate": 996,
      "sun": 997,
      "user": 998,
      "project": 999,
      "ety": 1000,
      "vert": 1001,
      "text": 1002,
      "tra": 1003,
      "ivity": 1004,
      "poss": 1005,
      "ending": 1006,
      "grou": 1007,
      "fore": 1008,
      "content": 1009,
      "type": 1010,
      "These": 1011,
      "communication": 1012,
      "interest": 1013,
      "years": 1014,
      "growth": 1015,
      "natural": 1016,
      "others": 1017,
      "paign": 1018,
      "purch": 1019,
      "education": 1020,
      "potential": 1021,
      "decis": 1022,
      "audience": 1023,
      "charact": 1024,
      "positive": 1025,
      "devices": 1026,
      "Create": 1027,
      "patterns": 1028,
      "Al": 1029,
      "Are": 1030,
      "Don": 1031,
      "She": 1032,
      "To": 1033,
      "ax": 1034,
      "gl": 1035,
      "glo": 1036,
      "house": 1037,
      "ier": 1038,
      "ior": 1039,
      "kes": 1040,
      "sen": 1041,
      "sed": 1042,
      "stor": 1043,
      "test": 1044,
      "ven": 1045,
      "won": 1046,
      "ye": 1047,
      "indu": 1048,
      "another": 1049,
      "ances": 1050,
      "ret": 1051,
      "ensure": 1052,
      "too": 1053,
      "tow": 1054,
      "today": 1055,
      "always": 1056,
      "arr": 1057,
      "security": 1058,
      "suggest": 1059,
      "conf": 1060,
      "conne": 1061,
      "contr": 1062,
      "accur": 1063,
      "resources": 1064,
      "iving": 1065,
      "word": 1066,
      "world": 1067,
      "ship": 1068,
      "anything": 1069,
      "grap": 1070,
      "ically": 1071,
      "focus": 1072,
      "chang": 1073,
      "Here": 1074,
      "object": 1075,
      "That": 1076,
      "even": 1077,
      "ertain": 1078,
      "topic": 1079,
      "member": 1080,
      "costs": 1081,
      "small": 1082,
      "relev": 1083,
      "campaign": 1084,
      "identify": 1085,
      "algorithms": 1086,
      "Overall": 1087,
      "summary": 1088,
      "language": 1089,
      "Generate": 1090,
      "levels": 1091,
      "industr": 1092,
      "12": 1093,
      "Am": 1094,
      "Col": 1095,
      "Let": 1096,
      "Make": 1097,
      "No": 1098,
      "came": 1099,
      "dig": 1100,
      "eth": 1101,
      "eat": 1102,
      "field": 1103,
      "ger": 1104,
      "ien": 1105,
      "knew": 1106,
      "lab": 1107,
      "ner": 1108,
      "ore": 1109,
      "oking": 1110,
      "story": 1111,
      "tas": 1112,
      "taking": 1113,
      "uel": 1114,
      "ths": 1115,
      "anim": 1116,
      "reach": 1117,
      "ones": 1118,
      "ering": 1119,
      "then": 1120,
      "order": 1121,
      "asing": 1122,
      "associ": 1123,
      "stay": 1124,
      "still": 1125,
      "start": 1126,
      "stress": 1127,
      "child": 1128,
      "fort": 1129,
      "behav": 1130,
      "ides": 1131,
      "comb": 1132,
      "comes": 1133,
      "keep": 1134,
      "move": 1135,
      "ters": 1136,
      "next": 1137,
      "tract": 1138,
      "plain": 1139,
      "uring": 1140,
      "maint": 1141,
      "appro": 1142,
      "ource": 1143,
      "ists": 1144,
      "ground": 1145,
      "diffic": 1146,
      "engage": 1147,
      "contin": 1148,
      "allowing": 1149,
      "partic": 1150,
      "itionally": 1151,
      "setting": 1152,
      "easy": 1153,
      "talk": 1154,
      "respons": 1155,
      "various": 1156,
      "steps": 1157,
      "Additionally": 1158,
      "lieve": 1159,
      "challeng": 1160,
      "possible": 1161,
      "global": 1162,
      "relevant": 1163,
      "labor": 1164,
      "associated": 1165,
      "\".": 1166,
      "Every": 1167,
      "Fren": 1168,
      "Te": 1169,
      "aks": 1170,
      "blo": 1171,
      "cu": 1172,
      "cult": 1173,
      "dire": 1174,
      "fas": 1175,
      "face": 1176,
      "free": 1177,
      "got": 1178,
      "given": 1179,
      "hold": 1180,
      "ivers": 1181,
      "met": 1182,
      "might": 1183,
      "mind": 1184,
      "mater": 1185,
      "og": 1186,
      "plo": 1187,
      "pain": 1188,
      "ris": 1189,
      "source": 1190,
      "tic": 1191,
      "ucial": 1192,
      "went": 1193,
      "yle": 1194,
      "thor": 1195,
      "inst": 1196,
      "anced": 1197,
      "onents": 1198,
      "thesis": 1199,
      "ory": 1200,
      "argu": 1201,
      "ications": 1202,
      "role": 1203,
      "because": 1204,
      "beaut": 1205,
      "believe": 1206,
      "ider": 1207,
      "ational": 1208,
      "cell": 1209,
      "uses": 1210,
      "tem": 1211,
      "teach": 1212,
      "igence": 1213,
      "ately": 1214,
      "never": 1215,
      "ulation": 1216,
      "acks": 1217,
      "expect": 1218,
      "few": 1219,
      "ived": 1220,
      "oper": 1221,
      "open": 1222,
      "action": 1223,
      "words": 1224,
      "creating": 1225,
      "share": 1226,
      "cover": 1227,
      "prof": 1228,
      "rent": 1229,
      "helps": 1230,
      "assist": 1231,
      "book": 1232,
      "sphere": 1233,
      "crucial": 1234,
      "ification": 1235,
      "something": 1236,
      "techniqu": 1237,
      "pho": 1238,
      "control": 1239,
      "save": 1240,
      "overall": 1241,
      "reducing": 1242,
      "store": 1243,
      "allows": 1244,
      "autom": 1245,
      "author": 1246,
      "visual": 1247,
      "relation": 1248,
      "count": 1249,
      "students": 1250,
      "analyz": 1251,
      "individuals": 1252,
      "question": 1253,
      "iox": 1254,
      "turn": 1255,
      "joy": 1256,
      "problem": 1257,
      "machine": 1258,
      "called": 1259,
      "family": 1260,
      "scient": 1261,
      "Develop": 1262,
      "result": 1263,
      "efficient": 1264,
      "prevent": 1265,
      "human": 1266,
      "character": 1267,
      "tasks": 1268,
      "French": 1269,
      "material": 1270,
      ",.": 1271,
      "Br": 1272,
      "Tr": 1273,
      "Take": 1274,
      "cer": 1275,
      "dit": 1276,
      "date": 1277,
      "fix": 1278,
      "fuel": 1279,
      "gn": 1280,
      "gs": 1281,
      "gress": 1282,
      "lives": 1283,
      "litt": 1284,
      "nment": 1285,
      "name": 1286,
      "oc": 1287,
      "ping": 1288,
      "ped": 1289,
      "pare": 1290,
      "ses": 1291,
      "sle": 1292,
      "sources": 1293,
      "tar": 1294,
      "ute": 1295,
      "vol": 1296,
      "watch": 1297,
      "warm": 1298,
      "input": 1299,
      "rew": 1300,
      "reat": 1301,
      "renew": 1302,
      "recomm": 1303,
      "really": 1304,
      "recy": 1305,
      "research": 1306,
      "repres": 1307,
      "eric": 1308,
      "isn": 1309,
      "ases": 1310,
      "iter": 1311,
      "iles": 1312,
      "become": 1313,
      "success": 1314,
      "usion": 1315,
      "vernment": 1316,
      "def": 1317,
      "ables": 1318,
      "concept": 1319,
      "wee": 1320,
      "weather": 1321,
      "local": 1322,
      "acy": 1323,
      "account": 1324,
      "meas": 1325,
      "means": 1326,
      "mechan": 1327,
      "yourself": 1328,
      "plant": 1329,
      "expen": 1330,
      "opport": 1331,
      "climate": 1332,
      "quality": 1333,
      "cogn": 1334,
      "goals": 1335,
      "government": 1336,
      "times": 1337,
      "Who": 1338,
      "When": 1339,
      "wasn": 1340,
      "strate": 1341,
      "strong": 1342,
      "tors": 1343,
      "books": 1344,
      "early": 1345,
      "pred": 1346,
      "engine": 1347,
      "else": 1348,
      "aving": 1349,
      "difference": 1350,
      "stop": 1351,
      "healthcare": 1352,
      "calcul": 1353,
      "ysis": 1354,
      "abilities": 1355,
      "virtual": 1356,
      "corp": 1357,
      "businesses": 1358,
      "effective": 1359,
      "service": 1360,
      "services": 1361,
      "addition": 1362,
      "transform": 1363,
      "consumption": 1364,
      "questions": 1365,
      "________": 1366,
      "complex": 1367,
      "Describe": 1368,
      "United": 1369,
      "public": 1370,
      "tools": 1371,
      "connect": 1372,
      "Americ": 1373,
      "particular": 1374,
      "photo": 1375,
      "renewable": 1376,
      "opportun": 1377,
      "Ar": 1378,
      "Did": 1379,
      "Fin": 1380,
      "Give": 1381,
      "Jo": 1382,
      "My": 1383,
      "Ne": 1384,
      "Pr": 1385,
      "Person": 1386,
      "Wr": 1387,
      "aid": 1388,
      "bro": 1389,
      "big": 1390,
      "certain": 1391,
      "during": 1392,
      "ele": 1393,
      "fact": 1394,
      "fav": 1395,
      "gen": 1396,
      "hes": 1397,
      "ian": 1398,
      "land": 1399,
      "lay": 1400,
      "mor": 1401,
      "mess": 1402,
      "mult": 1403,
      "ng": 1404,
      "nu": 1405,
      "non": 1406,
      "ote": 1407,
      "run": 1408,
      "scal": 1409,
      "ted": 1410,
      "tag": 1411,
      "ved": 1412,
      "vide": 1413,
      "wa": 1414,
      "win": 1415,
      "thod": 1416,
      "aning": 1417,
      "reed": 1418,
      "report": 1419,
      "atmo": 1420,
      "attract": 1421,
      "enjoy": 1422,
      "orite": 1423,
      "ism": 1424,
      "ising": 1425,
      "issu": 1426,
      "ash": 1427,
      "least": 1428,
      "icate": 1429,
      "ility": 1430,
      "before": 1431,
      "proper": 1432,
      "advert": 1433,
      "method": 1434,
      "essential": 1435,
      "training": 1436,
      "within": 1437,
      "history": 1438,
      "uting": 1439,
      "uture": 1440,
      "optim": 1441,
      "option": 1442,
      "door": 1443,
      "shop": 1444,
      "short": 1445,
      "code": 1446,
      "pose": 1447,
      "print": 1448,
      "working": 1449,
      "knowled": 1450,
      "forest": 1451,
      "common": 1452,
      "plement": 1453,
      "special": 1454,
      "produce": 1455,
      "collect": 1456,
      "nothing": 1457,
      "differences": 1458,
      "busy": 1459,
      "healthy": 1460,
      "increasing": 1461,
      "includes": 1462,
      "integr": 1463,
      "akes": 1464,
      "choose": 1465,
      "planet": 1466,
      "products": 1467,
      "facil": 1468,
      "Cont": 1469,
      "listen": 1470,
      "study": 1471,
      "respon": 1472,
      "value": 1473,
      "analysis": 1474,
      "consider": 1475,
      "vari": 1476,
      "States": 1477,
      "popular": 1478,
      "range": 1479,
      "polic": 1480,
      "issions": 1481,
      "asked": 1482,
      "regularly": 1483,
      "groups": 1484,
      "purchase": 1485,
      "storage": 1486,
      "graph": 1487,
      "industry": 1488,
      "digital": 1489,
      "approach": 1490,
      "difficult": 1491,
      "relationship": 1492,
      "little": 1493,
      "target": 1494,
      "recommend": 1495,
      "favorite": 1496,
      "atmosphere": 1497,
      "19": 1498,
      "20": 1499,
      "Act": 1500,
      "Dis": 1501,
      "For": 1502,
      "Given": 1503,
      "Ke": 1504,
      "Le": 1505,
      "List": 1506,
      "May": 1507,
      "Use": 1508,
      "With": 1509,
      "Where": 1510,
      "bas": 1511,
      "bers": 1512,
      "cut": 1513,
      "city": 1514,
      "cure": 1515,
      "clear": 1516,
      "cities": 1517,
      "divid": 1518,
      "diox": 1519,
      "equ": 1520,
      "eyes": 1521,
      "far": 1522,
      "gative": 1523,
      "hn": 1524,
      "hab": 1525,
      "ires": 1526,
      "late": 1527,
      "mi": 1528,
      "mom": 1529,
      "mun": 1530,
      "mist": 1531,
      "oid": 1532,
      "sat": 1533,
      "sent": 1534,
      "sound": 1535,
      "til": 1536,
      "tren": 1537,
      "tree": 1538,
      "uit": 1539,
      "wit": 1540,
      "ware": 1541,
      "wide": 1542,
      "reli": 1543,
      "recent": 1544,
      "remember": 1545,
      "recogn": 1546,
      "ata": 1547,
      "atures": 1548,
      "touch": 1549,
      "isf": 1550,
      "ark": 1551,
      "aring": 1552,
      "item": 1553,
      "lection": 1554,
      "stain": 1555,
      "style": 1556,
      "ches": 1557,
      "ching": 1558,
      "veget": 1559,
      "young": 1560,
      "room": 1561,
      "roll": 1562,
      "immed": 1563,
      "idence": 1564,
      "super": 1565,
      "sustain": 1566,
      "olution": 1567,
      "progress": 1568,
      "ified": 1569,
      "concl": 1570,
      "amount": 1571,
      "comfort": 1572,
      "adap": 1573,
      "motion": 1574,
      "terday": 1575,
      "ternat": 1576,
      "nel": 1577,
      "negative": 1578,
      "loss": 1579,
      "tru": 1580,
      "makes": 1581,
      "ivities": 1582,
      "cloud": 1583,
      "ains": 1584,
      "illed": 1585,
      "app": 1586,
      "aper": 1587,
      "quant": 1588,
      "lligence": 1589,
      "emplo": 1590,
      "priv": 1591,
      "idea": 1592,
      "company": 1593,
      "components": 1594,
      "computing": 1595,
      "Inter": 1596,
      "lower": 1597,
      "ually": 1598,
      "news": 1599,
      "space": 1600,
      "earch": 1601,
      "preferen": 1602,
      "ificial": 1603,
      "syn": 1604,
      "ibility": 1605,
      "ired": 1606,
      "engaging": 1607,
      "avoid": 1608,
      "fully": 1609,
      "needs": 1610,
      "current": 1611,
      "ssil": 1612,
      "technologies": 1613,
      "increased": 1614,
      "However": 1615,
      "party": 1616,
      "ished": 1617,
      "easily": 1618,
      "intelligence": 1619,
      "offer": 1620,
      "vised": 1621,
      "faces": 1622,
      "advant": 1623,
      "larger": 1624,
      "smart": 1625,
      "friends": 1626,
      "effects": 1627,
      "000": 1628,
      "Explain": 1629,
      "population": 1630,
      "skills": 1631,
      "provides": 1632,
      "password": 1633,
      "aware": 1634,
      "check": 1635,
      "everyone": 1636,
      "complete": 1637,
      "problems": 1638,
      "interactive": 1639,
      "types": 1640,
      "typically": 1641,
      "management": 1642,
      "requirements": 1643,
      "economic": 1644,
      "limit": 1645,
      "statement": 1646,
      "decision": 1647,
      "venue": 1648,
      "town": 1649,
      "contrast": 1650,
      "changes": 1651,
      "ethical": 1652,
      "behavior": 1653,
      "challenges": 1654,
      "cultural": 1655,
      "temper": 1656,
      "materials": 1657,
      "fuels": 1658,
      "recycl": 1659,
      "successful": 1660,
      "predict": 1661,
      "opportunities": 1662,
      "John": 1663,
      "reedom": 1664,
      "advertising": 1665,
      "knowledge": 1666,
      "dioxide": 1667,
      "satisf": 1668,
      "immedi": 1669,
      "!.": 1670,
      "18": 1671,
      "30": 1672,
      "50": 1673,
      "Ap": 1674,
      "Au": 1675,
      "Bre": 1676,
      "Both": 1677,
      "Data": 1678,
      "Edu": 1679,
      "Fo": 1680,
      "Go": 1681,
      "Im": 1682,
      "Many": 1683,
      "So": 1684,
      "Su": 1685,
      "Will": 1686,
      "Water": 1687,
      "Your": 1688,
      "ath": 1689,
      "aim": 1690,
      "ban": 1691,
      "bar": 1692,
      "bed": 1693,
      "bir": 1694,
      "best": 1695,
      "cro": 1696,
      "cir": 1697,
      "cup": 1698,
      "di": 1699,
      "dou": 1700,
      "dro": 1701,
      "done": 1702,
      "dist": 1703,
      "egg": 1704,
      "fl": 1705,
      "ft": 1706,
      "fit": 1707,
      "fair": 1708,
      "future": 1709,
      "freedom": 1710,
      "gar": 1711,
      "gam": 1712,
      "give": 1713,
      "game": 1714,
      "giving": 1715,
      "harm": 1716,
      "iers": 1717,
      "kind": 1718,
      "la": 1719,
      "last": 1720,
      "lines": 1721,
      "mag": 1722,
      "mine": 1723,
      "pie": 1724,
      "pict": 1725,
      "ric": 1726,
      "rich": 1727,
      "rise": 1728,
      "sor": 1729,
      "sch": 1730,
      "smo": 1731,
      "same": 1732,
      "scho": 1733,
      "sides": 1734,
      "ton": 1735,
      "tions": 1736,
      "tax": 1737,
      "usu": 1738,
      "war": 1739,
      "wind": 1740,
      "thir": 1741,
      "those": 1742,
      "ining": 1743,
      "ince": 1744,
      "ancial": 1745,
      "remo": 1746,
      "onic": 1747,
      "ats": 1748,
      "ene": 1749,
      "ense": 1750,
      "outh": 1751,
      "ories": 1752,
      "orrow": 1753,
      "ands": 1754,
      "alle": 1755,
      "alternat": 1756,
      "ars": 1757,
      "offe": 1758,
      "leaks": 1759,
      "leaving": 1760,
      "icity": 1761,
      "ste": 1762,
      "ster": 1763,
      "ention": 1764,
      "entire": 1765,
      "seas": 1766,
      "sequ": 1767,
      "secure": 1768,
      "ilar": 1769,
      "implement": 1770,
      "became": 1771,
      "suf": 1772,
      "sugar": 1773,
      "area": 1774,
      "tered": 1775,
      "deli": 1776,
      "convers": 1777,
      "ampl": 1778,
      "coming": 1779,
      "until": 1780,
      "moder": 1781,
      "movie": 1782,
      "location": 1783,
      "looks": 1784,
      "meaning": 1785,
      "tri": 1786,
      "tries": 1787,
      "tried": 1788,
      "exc": 1789,
      "exist": 1790,
      "maj": 1791,
      "utions": 1792,
      "activities": 1793,
      "quick": 1794,
      "ours": 1795,
      "izing": 1796,
      "emissions": 1797,
      "waste": 1798,
      "ights": 1799,
      "grad": 1800,
      "compet": 1801,
      "fossil": 1802,
      "box": 1803,
      "cry": 1804,
      "prepar": 1805,
      "situ": 1806,
      "ously": 1807,
      "things": 1808,
      "proved": 1809,
      "desert": 1810,
      "speak": 1811,
      "avail": 1812,
      "channel": 1813,
      "collabor": 1814,
      "gging": 1815,
      "community": 1816,
      "easier": 1817,
      "lighting": 1818,
      "office": 1819,
      "happ": 1820,
      "country": 1821,
      "higher": 1822,
      "points": 1823,
      "promot": 1824,
      "prompt": 1825,
      "promote": 1826,
      "cription": 1827,
      "longer": 1828,
      "values": 1829,
      "ready": 1830,
      "classification": 1831,
      "generate": 1832,
      "purpose": 1833,
      "address": 1834,
      "Another": 1835,
      "capt": 1836,
      "writing": 1837,
      "providing": 1838,
      "poll": 1839,
      "society": 1840,
      "understanding": 1841,
      "ique": 1842,
      "clean": 1843,
      "simple": 1844,
      "insights": 1845,
      "building": 1846,
      "Once": 1847,
      "luck": 1848,
      "programs": 1849,
      "yesterday": 1850,
      "investment": 1851,
      "voice": 1852,
      "refers": 1853,
      "reason": 1854,
      "reasons": 1855,
      "decisions": 1856,
      "sense": 1857,
      "yees": 1858,
      "campaigns": 1859,
      "iency": 1860,
      "children": 1861,
      "engagement": 1862,
      "cellent": 1863,
      "techniques": 1864,
      "authorized": 1865,
      "analyzing": 1866,
      "ditions": 1867,
      "represent": 1868,
      "week": 1869,
      "measures": 1870,
      "expenses": 1871,
      "corpor": 1872,
      "Write": 1873,
      "morning": 1874,
      "multi": 1875,
      "listening": 1876,
      "relationships": 1877,
      "recommendations": 1878,
      "Keep": 1879,
      "basic": 1880,
      "sustainable": 1881,
      "motional": 1882,
      "employees": 1883,
      "preferences": 1884,
      "temperature": 1885,
      "recycling": 1886,
      "immediately": 1887,
      "school": 1888,
      "usually": 1889,
      "offee": 1890,
      "modern": 1891,
      "quickly": 1892,
      "):": 1893,
      "Access": 1894,
      "Cl": 1895,
      "Def": 1896,
      "Ear": 1897,
      "His": 1898,
      "ID": 1899,
      "Lo": 1900,
      "Po": 1901,
      "Res": 1902,
      "Sh": 1903,
      "Sp": 1904,
      "Search": 1905,
      "afr": 1906,
      "band": 1907,
      "ball": 1908,
      "bile": 1909,
      "cate": 1910,
      "cks": 1911,
      "ctor": 1912,
      "case": 1913,
      "cise": 1914,
      "coffee": 1915,
      "dom": 1916,
      "dam": 1917,
      "dail": 1918,
      "emotional": 1919,
      "five": 1920,
      "four": 1921,
      "father": 1922,
      "gin": 1923,
      "gard": 1924,
      "hon": 1925,
      "hing": 1926,
      "hom": 1927,
      "har": 1928,
      "hot": 1929,
      "hind": 1930,
      "hip": 1931,
      "hours": 1932,
      "ler": 1933,
      "live": 1934,
      "lone": 1935,
      "ming": 1936,
      "mal": 1937,
      "mill": 1938,
      "miss": 1939,
      "os": 1940,
      "ove": 1941,
      "pan": 1942,
      "pat": 1943,
      "pet": 1944,
      "past": 1945,
      "pair": 1946,
      "ru": 1947,
      "ral": 1948,
      "rap": 1949,
      "round": 1950,
      "sl": 1951,
      "sha": 1952,
      "scre": 1953,
      "sco": 1954,
      "send": 1955,
      "side": 1956,
      "table": 1957,
      "takes": 1958,
      "vit": 1959,
      "ward": 1960,
      "thin": 1961,
      "though": 1962,
      "income": 1963,
      "incorpor": 1964,
      "ane": 1965,
      "rece": 1966,
      "revenue": 1967,
      "erous": 1968,
      "atbot": 1969,
      "atory": 1970,
      "enough": 1971,
      "total": 1972,
      "leg": 1973,
      "leave": 1974,
      "left": 1975,
      "icle": 1976,
      "icine": 1977,
      "stret": 1978,
      "hear": 1979,
      "ently": 1980,
      "robot": 1981,
      "sea": 1982,
      "seen": 1983,
      "seem": 1984,
      "ilt": 1985,
      "iment": 1986,
      "imag": 1987,
      "impl": 1988,
      "images": 1989,
      "behind": 1990,
      "cean": 1991,
      "areas": 1992,
      "dem": 1993,
      "deep": 1994,
      "ift": 1995,
      "iful": 1996,
      "concer": 1997,
      "conditions": 1998,
      "cannot": 1999,
      "amoun": 2000,
      "adition": 2001,
      "aged": 2002,
      "unch": 2003,
      "univers": 2004,
      "unique": 2005,
      "unauthorized": 2006,
      "mobile": 2007,
      "term": 2008,
      "terms": 2009,
      "wel": 2010,
      "weight": 2011,
      "looking": 2012,
      "ulations": 2013,
      "aces": 2014,
      "ession": 2015,
      "train": 2016,
      "trib": 2017,
      "tradition": 2018,
      "plants": 2019,
      "excellent": 2020,
      "resolution": 2021,
      "ury": 2022,
      "urther": 2023,
      "mental": 2024,
      "main": 2025,
      "utes": 2026,
      "active": 2027,
      "appoint": 2028,
      "docu": 2029,
      "due": 2030,
      "cooking": 2031,
      "perform": 2032,
      "embr": 2033,
      "portation": 2034,
      "anyone": 2035,
      "posed": 2036,
      "pract": 2037,
      "Which": 2038,
      "helping": 2039,
      "idered": 2040,
      "strict": 2041,
      "forms": 2042,
      "tomorrow": 2043,
      "arding": 2044,
      "engths": 2045,
      "engaged": 2046,
      "speed": 2047,
      "aves": 2048,
      "full": 2049,
      "phones": 2050,
      "internet": 2051,
      "olog": 2052,
      "days": 2053,
      "ression": 2054,
      "carry": 2055,
      "saw": 2056,
      "safe": 2057,
      "serve": 2058,
      "series": 2059,
      "colle": 2060,
      "colors": 2061,
      "driven": 2062,
      "stood": 2063,
      "allowed": 2064,
      "events": 2065,
      "medicine": 2066,
      "communities": 2067,
      "caused": 2068,
      "buy": 2069,
      "green": 2070,
      "related": 2071,
      "countries": 2072,
      "requires": 2073,
      "choice": 2074,
      "suring": 2075,
      "planning": 2076,
      "Eng": 2077,
      "Engl": 2078,
      "advice": 2079,
      "advanced": 2080,
      "members": 2081,
      "cording": 2082,
      "center": 2083,
      "powerful": 2084,
      "respir": 2085,
      "considered": 2086,
      "classes": 2087,
      "Exper": 2088,
      "transportation": 2089,
      "function": 2090,
      "consumer": 2091,
      "consuming": 2092,
      "personalized": 2093,
      "Start": 2094,
      "brea": 2095,
      "break": 2096,
      "writ": 2097,
      "write": 2098,
      "decid": 2099,
      "passed": 2100,
      "release": 2101,
      "affect": 2102,
      "expand": 2103,
      "Design": 2104,
      "minutes": 2105,
      "similar": 2106,
      "ensive": 2107,
      "machines": 2108,
      "significantly": 2109,
      "deter": 2110,
      "against": 2111,
      "science": 2112,
      "itted": 2113,
      "subs": 2114,
      "economy": 2115,
      "trees": 2116,
      "application": 2117,
      "structure": 2118,
      "electricity": 2119,
      "hardware": 2120,
      "sales": 2121,
      "travel": 2122,
      "group": 2123,
      "testing": 2124,
      "accurate": 2125,
      "accuracy": 2126,
      "animal": 2127,
      "animals": 2128,
      "maintain": 2129,
      "continu": 2130,
      "direct": 2131,
      "direction": 2132,
      "faster": 2133,
      "risk": 2134,
      "ticket": 2135,
      "beauty": 2136,
      "beautiful": 2137,
      "teacher": 2138,
      "expected": 2139,
      "fixed": 2140,
      "define": 2141,
      "strategies": 2142,
      "America": 2143,
      "particularly": 2144,
      "photosyn": 2145,
      "scale": 2146,
      "issues": 2147,
      "facilit": 2148,
      "moment": 2149,
      "mistake": 2150,
      "vegetables": 2151,
      "conclusion": 2152,
      "adapt": 2153,
      "awareness": 2154,
      "Apple": 2155,
      "Education": 2156,
      "Suggest": 2157,
      "doub": 2158,
      "gaming": 2159,
      "picture": 2160,
      "major": 2161,
      "preparing": 2162,
      "channels": 2163,
      "multiple": 2164,
      "Earth": 2165,
      "afraid": 2166,
      "daily": 2167,
      "honest": 2168,
      "amounts": 2169,
      "traditional": 2170,
      "photosynthesis": 2171,
      "),": 2172,
      ",\"": 2173,
      "24": 2174,
      "37": 2175,
      "AM": 2176,
      "Bo": 2177,
      "But": 2178,
      "Based": 2179,
      "Cus": 2180,
      "Come": 2181,
      "Cho": 2182,
      "Ef": 2183,
      "Em": 2184,
      "Fr": 2185,
      "Get": 2186,
      "Her": 2187,
      "Have": 2188,
      "Id": 2189,
      "Just": 2190,
      "Mount": 2191,
      "Nor": 2192,
      "Name": 2193,
      "Op": 2194,
      "Pl": 2195,
      "Ple": 2196,
      "Rene": 2197,
      "SE": 2198,
      "Se": 2199,
      "TV": 2200,
      "Tim": 2201,
      "Using": 2202,
      "Vir": 2203,
      "Wor": 2204,
      "War": 2205,
      "Would": 2206,
      "Year": 2207,
      "aur": 2208,
      "away": 2209,
      "bur": 2210,
      "bud": 2211,
      "barr": 2212,
      "cas": 2213,
      "cop": 2214,
      "den": 2215,
      "eco": 2216,
      "fing": 2217,
      "fall": 2218,
      "fast": 2219,
      "fold": 2220,
      "fau": 2221,
      "fail": 2222,
      "ges": 2223,
      "ging": 2224,
      "ged": 2225,
      "gas": 2226,
      "hal": 2227,
      "host": 2228,
      "htag": 2229,
      "hensive": 2230,
      "iP": 2231,
      "itor": 2232,
      "kill": 2233,
      "lt": 2234,
      "lap": 2235,
      "lack": 2236,
      "link": 2237,
      "living": 2238,
      "men": 2239,
      "mas": 2240,
      "mid": 2241,
      "mir": 2242,
      "matter": 2243,
      "mount": 2244,
      "mouth": 2245,
      "nar": 2246,
      "ned": 2247,
      "nation": 2248,
      "ocean": 2249,
      "page": 2250,
      "press": 2251,
      "pack": 2252,
      "paper": 2253,
      "ron": 2254,
      "ror": 2255,
      "rain": 2256,
      "rather": 2257,
      "sw": 2258,
      "sand": 2259,
      "swe": 2260,
      "sive": 2261,
      "slow": 2262,
      "shap": 2263,
      "sampl": 2264,
      "tu": 2265,
      "tle": 2266,
      "tro": 2267,
      "tiv": 2268,
      "tage": 2269,
      "tificial": 2270,
      "ug": 2271,
      "uable": 2272,
      "vation": 2273,
      "vac": 2274,
      "wal": 2275,
      "wom": 2276,
      "wable": 2277,
      "wild": 2278,
      "wise": 2279,
      "threat": 2280,
      "inj": 2281,
      "inci": 2282,
      "inno": 2283,
      "instru": 2284,
      "instruct": 2285,
      "real": 2286,
      "rect": 2287,
      "rely": 2288,
      "ream": 2289,
      "rehensive": 2290,
      "onom": 2291,
      "ercise": 2292,
      "ativity": 2293,
      "thetic": 2294,
      "ences": 2295,
      "encour": 2296,
      "ensuring": 2297,
      "alse": 2298,
      "along": 2299,
      "isol": 2300,
      "omet": 2301,
      "edback": 2302,
      "aspect": 2303,
      "itive": 2304,
      "icial": 2305,
      "heart": 2306,
      "chain": 2307,
      "vey": 2308,
      "enty": 2309,
      "road": 2310,
      "ross": 2311,
      "roles": 2312,
      "ctions": 2313,
      "secon": 2314,
      "secre": 2315,
      "select": 2316,
      "imin": 2317,
      "imize": 2318,
      "improved": 2319,
      "force": 2320,
      "forget": 2321,
      "forward": 2322,
      "sus": 2323,
      "sume": 2324,
      "usic": 2325,
      "ared": 2326,
      "aren": 2327,
      "eter": 2328,
      "verse": 2329,
      "tel": 2330,
      "dead": 2331,
      "decl": 2332,
      "decre": 2333,
      "abl": 2334,
      "absor": 2335,
      "above": 2336,
      "conven": 2337,
      "among": 2338,
      "unk": 2339,
      "unit": 2340,
      "kept": 2341,
      "motiv": 2342,
      "ney": 2343,
      "necess": 2344,
      "wearing": 2345,
      "lot": 2346,
      "love": 2347,
      "ulty": 2348,
      "aced": 2349,
      "across": 2350,
      "mel": 2351,
      "meal": 2352,
      "tran": 2353,
      "tration": 2354,
      "trust": 2355,
      "trip": 2356,
      "traf": 2357,
      "without": 2358,
      "ership": 2359,
      "yours": 2360,
      "plat": 2361,
      "expl": 2362,
      "features": 2363,
      "felt": 2364,
      "feedback": 2365,
      "map": 2366,
      "peace": 2367,
      "options": 2368,
      "fru": 2369,
      "appe": 2370,
      "appre": 2371,
      "apps": 2372,
      "dog": 2373,
      "doing": 2374,
      "soon": 2375,
      "lls": 2376,
      "estive": 2377,
      "creased": 2378,
      "sho": 2379,
      "core": 2380,
      "cool": 2381,
      "ciate": 2382,
      "lip": 2383,
      "emer": 2384,
      "goal": 2385,
      "istic": 2386,
      "post": 2387,
      "pothesis": 2388,
      "prim": 2389,
      "price": 2390,
      "prices": 2391,
      "princi": 2392,
      "article": 2393,
      "hashtag": 2394,
      "datab": 2395,
      "ideas": 2396,
      "compan": 2397,
      "comprehensive": 2398,
      "Increased": 2399,
      "tomer": 2400,
      "foot": 2401,
      "achie": 2402,
      "board": 2403,
      "spir": 2404,
      "spam": 2405,
      "spend": 2406,
      "spital": 2407,
      "spending": 2408,
      "intro": 2409,
      "please": 2410,
      "differ": 2411,
      "likely": 2412,
      "technical": 2413,
      "describe": 2414,
      "desired": 2415,
      "elimin": 2416,
      "aved": 2417,
      "phone": 2418,
      "contact": 2419,
      "**:": 2420,
      "production": 2421,
      "color": 2422,
      "reduced": 2423,
      "bring": 2424,
      "bright": 2425,
      "brings": 2426,
      "draw": 2427,
      "discus": 2428,
      "ips": 2429,
      "ipment": 2430,
      "managing": 2431,
      "stock": 2432,
      "imply": 2433,
      "importance": 2434,
      "standing": 2435,
      "standards": 2436,
      "ckchain": 2437,
      "evidence": 2438,
      "region": 2439,
      "restaur": 2440,
      "augh": 2441,
      "experien": 2442,
      "offering": 2443,
      "impacted": 2444,
      "cyber": 2445,
      "visible": 2446,
      "iously": 2447,
      "chosen": 2448,
      "surance": 2449,
      "surfaces": 2450,
      "species": 2451,
      "selves": 2452,
      "plays": 2453,
      "playing": 2454,
      "goods": 2455,
      "numerous": 2456,
      "valuable": 2457,
      "reading": 2458,
      "financial": 2459,
      "general": 2460,
      "path": 2461,
      "edule": 2462,
      "adding": 2463,
      "accessible": 2464,
      "emails": 2465,
      "hood": 2466,
      "hospital": 2467,
      "computers": 2468,
      "Anal": 2469,
      "capabilities": 2470,
      "sky": 2471,
      "skin": 2472,
      "provided": 2473,
      "presents": 2474,
      "letter": 2475,
      "letters": 2476,
      "everything": 2477,
      "solution": 2478,
      "solving": 2479,
      "angle": 2480,
      "explo": 2481,
      "networks": 2482,
      "specifications": 2483,
      "close": 2484,
      "clothing": 2485,
      "month": 2486,
      "buildings": 2487,
      "Compare": 2488,
      "detect": 2489,
      "detail": 2490,
      "autonom": 2491,
      "happening": 2492,
      "course": 2493,
      "hydr": 2494,
      "hypothesis": 2495,
      "depend": 2496,
      "depending": 2497,
      "published": 2498,
      "traits": 2499,
      "interested": 2500,
      "arrive": 2501,
      "contrib": 2502,
      "changing": 2503,
      "objects": 2504,
      "objectives": 2505,
      "smaller": 2506,
      "Collabor": 2507,
      "fields": 2508,
      "combat": 2509,
      "combination": 2510,
      "movement": 2511,
      "maintaining": 2512,
      "talked": 2513,
      "responsibility": 2514,
      "challenging": 2515,
      "Tell": 2516,
      "holds": 2517,
      "painting": 2518,
      "argument": 2519,
      "profession": 2520,
      "assistant": 2521,
      "technique": 2522,
      "visualization": 2523,
      "analyze": 2524,
      "turned": 2525,
      "scientists": 2526,
      "preventing": 2527,
      "occur": 2528,
      "paren": 2529,
      "sleep": 2530,
      "watching": 2531,
      "warming": 2532,
      "mechanics": 2533,
      "effectively": 2534,
      "transformed": 2535,
      "________________": 2536,
      "American": 2537,
      "Artificial": 2538,
      "Finally": 2539,
      "broad": 2540,
      "video": 2541,
      "wait": 2542,
      "properly": 2543,
      "methods": 2544,
      "shopping": 2545,
      "Control": 2546,
      "respond": 2547,
      "equipment": 2548,
      "habits": 2549,
      "trends": 2550,
      "reliable": 2551,
      "items": 2552,
      "supervised": 2553,
      "advantages": 2554,
      "satisfied": 2555,
      "diet": 2556,
      "eggs": 2557,
      "labe": 2558,
      "magnet": 2559,
      "schedule": 2560,
      "alternatives": 2561,
      "season": 2562,
      "implementing": 2563,
      "suffer": 2564,
      "existing": 2565,
      "situation": 2566,
      "available": 2567,
      "happy": 2568,
      "capture": 2569,
      "pollution": 2570,
      "Define": 2571,
      "damage": 2572,
      "garden": 2573,
      "millions": 2574,
      "patient": 2575,
      "shape": 2576,
      "screen": 2577,
      "demand": 2578,
      "concerns": 2579,
      "documents": 2580,
      "Engine": 2581,
      "English": 2582,
      "respiratory": 2583,
      "written": 2584,
      "decided": 2585,
      "doubt": 2586,
      "Customer": 2587,
      "Choose": 2588,
      "Ident": 2589,
      "North": 2590,
      "Optim": 2591,
      "Please": 2592,
      "Renewable": 2593,
      "Virtual": 2594,
      "fauce": 2595,
      "narrow": 2596,
      "walk": 2597,
      "aspects": 2598,
      "necessary": 2599,
      "traffic": 2600,
      "principle": 2601,
      "experiences": 2602,
      "(\"": 2603,
      ",”": 2604,
      "10": 2605,
      "15": 2606,
      "40": 2607,
      "500": 2608,
      "Ac": 2609,
      "Af": 2610,
      "All": 2611,
      "Bu": 2612,
      "Bus": 2613,
      "Blo": 2614,
      "Car": 2615,
      "Che": 2616,
      "Cent": 2617,
      "Catch": 2618,
      "Dr": 2619,
      "Date": 2620,
      "Each": 2621,
      "Fi": 2622,
      "First": 2623,
      "Further": 2624,
      "Gam": 2625,
      "Io": 2626,
      "Mex": 2627,
      "Mach": 2628,
      "Max": 2629,
      "Now": 2630,
      "Not": 2631,
      "Or": 2632,
      "Our": 2633,
      "Pe": 2634,
      "Par": 2635,
      "Pres": 2636,
      "Plu": 2637,
      "Qu": 2638,
      "Ro": 2639,
      "Redu": 2640,
      "Sm": 2641,
      "Sol": 2642,
      "Str": 2643,
      "Sum": 2644,
      "Since": 2645,
      "TP": 2646,
      "Tex": 2647,
      "US": 2648,
      "Wi": 2649,
      "Wind": 2650,
      "bi": 2651,
      "bs": 2652,
      "bor": 2653,
      "bic": 2654,
      "bab": 2655,
      "bad": 2656,
      "bul": 2657,
      "bits": 2658,
      "brow": 2659,
      "bought": 2660,
      "backs": 2661,
      "bath": 2662,
      "cin": 2663,
      "cast": 2664,
      "cket": 2665,
      "catch": 2666,
      "dy": 2667,
      "ded": 2668,
      "ders": 2669,
      "dest": 2670,
      "died": 2671,
      "dang": 2672,
      "ease": 2673,
      "eye": 2674,
      "fed": 2675,
      "fly": 2676,
      "fare": 2677,
      "flo": 2678,
      "fres": 2679,
      "fire": 2680,
      "fish": 2681,
      "frequ": 2682,
      "flu": 2683,
      "filled": 2684,
      "gun": 2685,
      "gans": 2686,
      "gather": 2687,
      "hor": 2688,
      "hun": 2689,
      "hur": 2690,
      "hone": 2691,
      "ito": 2692,
      "iar": 2693,
      "iver": 2694,
      "ients": 2695,
      "iety": 2696,
      "jour": 2697,
      "jud": 2698,
      "kn": 2699,
      "kid": 2700,
      "kiss": 2701,
      "lat": 2702,
      "lic": 2703,
      "lived": 2704,
      "lengths": 2705,
      "mil": 2706,
      "mac": 2707,
      "mut": 2708,
      "mass": 2709,
      "match": 2710,
      "mix": 2711,
      "mature": 2712,
      "nis": 2713,
      "nam": 2714,
      "night": 2715,
      "ood": 2716,
      "ograph": 2717,
      "pto": 2718,
      "pand": 2719,
      "ply": 2720,
      "pers": 2721,
      "pip": 2722,
      "pages": 2723,
      "pick": 2724,
      "ponents": 2725,
      "ray": 2726,
      "rad": 2727,
      "rate": 2728,
      "rant": 2729,
      "rout": 2730,
      "rates": 2731,
      "sc": 2732,
      "son": 2733,
      "sion": 2734,
      "sil": 2735,
      "scan": 2736,
      "sort": 2737,
      "sport": 2738,
      "scr": 2739,
      "song": 2740,
      "size": 2741,
      "since": 2742,
      "tit": 2743,
      "ties": 2744,
      "tles": 2745,
      "task": 2746,
      "tips": 2747,
      "utr": 2748,
      "uge": 2749,
      "ubl": 2750,
      "ugs": 2751,
      "ufact": 2752,
      "vul": 2753,
      "vill": 2754,
      "vary": 2755,
      "vib": 2756,
      "vital": 2757,
      "wer": 2758,
      "wed": 2759,
      "wid": 2760,
      "wall": 2761,
      "wood": 2762,
      "xiety": 2763,
      "ying": 2764,
      "yet": 2765,
      "zz": 2766,
      "inion": 2767,
      "inent": 2768,
      "intr": 2769,
      "inks": 2770,
      "infect": 2771,
      "inner": 2772,
      "insurance": 2773,
      "anci": 2774,
      "ange": 2775,
      "anks": 2776,
      "anches": 2777,
      "anxiety": 2778,
      "repl": 2779,
      "reci": 2780,
      "rept": 2781,
      "referen": 2782,
      "reset": 2783,
      "review": 2784,
      "restrict": 2785,
      "resume": 2786,
      "ont": 2787,
      "ero": 2788,
      "error": 2789,
      "atives": 2790,
      "ency": 2791,
      "ensus": 2792,
      "estration": 2793,
      "oring": 2794,
      "orig": 2795,
      "orter": 2796,
      "organs": 2797,
      "alone": 2798,
      "already": 2799,
      "isk": 2800,
      "ison": 2801,
      "ision": 2802,
      "isms": 2803,
      "arian": 2804,
      "aset": 2805,
      "itation": 2806,
      "itical": 2807,
      "itect": 2808,
      "itish": 2809,
      "icles": 2810,
      "iction": 2811,
      "sty": 2812,
      "stat": 2813,
      "states": 2814,
      "heat": 2815,
      "ched": 2816,
      "chatbot": 2817,
      "rope": 2818,
      "section": 2819,
      "selection": 2820,
      "iliar": 2821,
      "imm": 2822,
      "iments": 2823,
      "imates": 2824,
      "owl": 2825,
      "forts": 2826,
      "beach": 2827,
      "begin": 2828,
      "suc": 2829,
      "ceived": 2830,
      "olve": 2831,
      "etic": 2832,
      "verage": 2833,
      "irt": 2834,
      "dex": 2835,
      "defin": 2836,
      "ife": 2837,
      "ifting": 2838,
      "conv": 2839,
      "context": 2840,
      "consequ": 2841,
      "convey": 2842,
      "amm": 2843,
      "amet": 2844,
      "adjust": 2845,
      "ager": 2846,
      "agues": 2847,
      "whis": 2848,
      "white": 2849,
      "keys": 2850,
      "mole": 2851,
      "mother": 2852,
      "mood": 2853,
      "moving": 2854,
      "tering": 2855,
      "near": 2856,
      "wered": 2857,
      "loc": 2858,
      "log": 2859,
      "lost": 2860,
      "loved": 2861,
      "ules": 2862,
      "ulate": 2863,
      "ulated": 2864,
      "acid": 2865,
      "according": 2866,
      "meat": 2867,
      "antly": 2868,
      "track": 2869,
      "true": 2870,
      "hair": 2871,
      "plans": 2872,
      "places": 2873,
      "plenty": 2874,
      "exact": 2875,
      "respect": 2876,
      "feature": 2877,
      "urban": 2878,
      "max": 2879,
      "ots": 2880,
      "oting": 2881,
      "opinion": 2882,
      "fraud": 2883,
      "fruit": 2884,
      "output": 2885,
      "outcomes": 2886,
      "apolog": 2887,
      "qual": 2888,
      "worth": 2889,
      "duct": 2890,
      "duction": 2891,
      "esting": 2892,
      "estyle": 2893,
      "establ": 2894,
      "cream": 2895,
      "creates": 2896,
      "credit": 2897,
      "shut": 2898,
      "shown": 2899,
      "shorter": 2900,
      "cook": 2901,
      "liz": 2902,
      "likes": 2903,
      "lihood": 2904,
      "izz": 2905,
      "izes": 2906,
      "izable": 2907,
      "perfect": 2908,
      "istant": 2909,
      "istics": 2910,
      "anymore": 2911,
      "pocket": 2912,
      "pri": 2913,
      "While": 2914,
      "ended": 2915,
      "artificial": 2916,
      "dataset": 2917,
      "workers": 2918,
      "workout": 2919,
      "compared": 2920,
      "Intell": 2921,
      "urer": 2922,
      "umns": 2923,
      "upper": 2924,
      "boy": 2925,
      "boost": 2926,
      "bohydr": 2927,
      "spin": 2928,
      "spread": 2929,
      "critical": 2930,
      "notes": 2931,
      "commonly": 2932,
      "commands": 2933,
      "committed": 2934,
      "ibly": 2935,
      "someone": 2936,
      "answer": 2937,
      "answered": 2938,
      "likelihood": 2939,
      "desk": 2940,
      "description": 2941,
      "ieve": 2942,
      "couldn": 2943,
      "phr": 2944,
      "contain": 2945,
      "Health": 2946,
      "interview": 2947,
      "ology": 2948,
      "wants": 2949,
      "wanted": 2950,
      "sumer": 2951,
      "themselves": 2952,
      "Thanks": 2953,
      "cold": 2954,
      "reduction": 2955,
      "brand": 2956,
      "brain": 2957,
      "branches": 2958,
      "marize": 2959,
      "ancements": 2960,
      "note": 2961,
      "noise": 2962,
      "novel": 2963,
      "drugs": 2964,
      "dish": 2965,
      "discover": 2966,
      "wouldn": 2967,
      "fective": 2968,
      "fiction": 2969,
      "manufact": 2970,
      "manager": 2971,
      "stores": 2972,
      "tennis": 2973,
      "throughout": 2974,
      "event": 2975,
      "guard": 2976,
      "informed": 2977,
      "regions": 2978,
      "lifestyle": 2979,
      "communications": 2980,
      "communicate": 2981,
      "causes": 2982,
      "built": 2983,
      "career": 2984,
      "carefully": 2985,
      "impacts": 2986,
      "airport": 2987,
      "blue": 2988,
      "vision": 2989,
      "supply": 2990,
      "processing": 2991,
      "haps": 2992,
      "relax": 2993,
      "counts": 2994,
      "growing": 2995,
      "highly": 2996,
      "surv": 2997,
      "ifying": 2998,
      "pointed": 2999,
      "productivity": 3000,
      "followed": 3001,
      "factor": 3002,
      "factors": 3003,
      "advent": 3004,
      "memory": 3005,
      "memories": 3006,
      "Conf": 3007,
      "Conserve": 3008,
      "Consumer": 3009,
      "correct": 3010,
      "central": 3011,
      "talent": 3012,
      "student": 3013,
      "searching": 3014,
      "searched": 3015,
      "players": 3016,
      "promise": 3017,
      "prominent": 3018,
      "cript": 3019,
      "butter": 3020,
      "consist": 3021,
      "friendly": 3022,
      "strugg": 3023,
      "websites": 3024,
      "finances": 3025,
      "paid": 3026,
      "paralle": 3027,
      "paramet": 3028,
      "signs": 3029,
      "background": 3030,
      "functions": 3031,
      "hope": 3032,
      "hotel": 3033,
      "hands": 3034,
      "personality": 3035,
      "beneficial": 3036,
      "capital": 3037,
      "film": 3038,
      "files": 3039,
      "filters": 3040,
      "finding": 3041,
      "populations": 3042,
      "rank": 3043,
      "providers": 3044,
      "designing": 3045,
      "designed": 3046,
      "supportive": 3047,
      "pressure": 3048,
      "aff": 3049,
      "after": 3050,
      "aws": 3051,
      "cheese": 3052,
      "solutions": 3053,
      "turb": 3054,
      "turns": 3055,
      "anges": 3056,
      "expression": 3057,
      "cleus": 3058,
      "camer": 3059,
      "closed": 3060,
      "join": 3061,
      "mining": 3062,
      "months": 3063,
      "nesses": 3064,
      "puzz": 3065,
      "ension": 3066,
      "icken": 3067,
      "trying": 3068,
      "haven": 3069,
      "having": 3070,
      "interaction": 3071,
      "Commun": 3072,
      "Only": 3073,
      "identity": 3074,
      "teams": 3075,
      "looked": 3076,
      "feeling": 3077,
      "feelings": 3078,
      "Process": 3079,
      "Provide": 3080,
      "lessons": 3081,
      "organized": 3082,
      "meets": 3083,
      "meetings": 3084,
      "happened": 3085,
      "required": 3086,
      "largely": 3087,
      "algorithm": 3088,
      "Below": 3089,
      "Deep": 3090,
      "limited": 3091,
      "treated": 3092,
      "depth": 3093,
      "apples": 3094,
      "applications": 3095,
      "showing": 3096,
      "efficiency": 3097,
      "structures": 3098,
      "electron": 3099,
      "Remember": 3100,
      "flower": 3101,
      "jobs": 3102,
      "reflect": 3103,
      "attit": 3104,
      "attend": 3105,
      "attention": 3106,
      "sunlight": 3107,
      "interests": 3108,
      "purchases": 3109,
      "characters": 3110,
      "Also": 3111,
      "glass": 3112,
      "storm": 3113,
      "towards": 3114,
      "suggestions": 3115,
      "connection": 3116,
      "graphy": 3117,
      "focused": 3118,
      "evening": 3119,
      "industries": 3120,
      "reaching": 3121,
      "difficulty": 3122,
      "responses": 3123,
      "Everyone": 3124,
      "Everybody": 3125,
      "Techn": 3126,
      "cuits": 3127,
      "cultures": 3128,
      "freeing": 3129,
      "holders": 3130,
      "iversity": 3131,
      "risks": 3132,
      "argue": 3133,
      "operating": 3134,
      "operational": 3135,
      "automat": 3136,
      "automation": 3137,
      "ioxid": 3138,
      "scientific": 3139,
      "British": 3140,
      "rewards": 3141,
      "represents": 3142,
      "weeks": 3143,
      "expensive": 3144,
      "strategy": 3145,
      "engineering": 3146,
      "corpus": 3147,
      "additional": 3148,
      "connected": 3149,
      "Prom": 3150,
      "Personal": 3151,
      "elements": 3152,
      "layer": 3153,
      "message": 3154,
      "nucleus": 3155,
      "running": 3156,
      "reports": 3157,
      "optimization": 3158,
      "forestation": 3159,
      "collected": 3160,
      "facilities": 3161,
      "studying": 3162,
      "response": 3163,
      "variety": 3164,
      "policy": 3165,
      "policies": 3166,
      "habit": 3167,
      "mium": 3168,
      "sentence": 3169,
      "sounds": 3170,
      "recognize": 3171,
      "comfortable": 3172,
      "quantum": 3173,
      "private": 3174,
      "privacy": 3175,
      "Interaction": 3176,
      "advantage": 3177,
      "limitations": 3178,
      "186": 3179,
      "Foot": 3180,
      "Social": 3181,
      "aims": 3182,
      "birth": 3183,
      "crop": 3184,
      "circuits": 3185,
      "distances": 3186,
      "fitness": 3187,
      "harmful": 3188,
      "piece": 3189,
      "smoking": 3190,
      "taxes": 3191,
      "window": 3192,
      "third": 3193,
      "remote": 3194,
      "stead": 3195,
      "deliver": 3196,
      "delivery": 3197,
      "conversation": 3198,
      "triangle": 3199,
      "excited": 3200,
      "crypto": 3201,
      "collaboration": 3202,
      "collaborate": 3203,
      "prompts": 3204,
      "lucky": 3205,
      "schools": 3206,
      "Cloud": 3207,
      "categor": 3208,
      "homes": 3209,
      "lonely": 3210,
      "vitam": 3211,
      "thinking": 3212,
      "incorporate": 3213,
      "receive": 3214,
      "seafood": 3215,
      "imental": 3216,
      "universal": 3217,
      "welfare": 3218,
      "trained": 3219,
      "tribute": 3220,
      "appointments": 3221,
      "performance": 3222,
      "embrace": 3223,
      "colleagues": 3224,
      "greenhouse": 3225,
      "affecting": 3226,
      "expanded": 3227,
      "determin": 3228,
      "continuously": 3229,
      "facilitate": 3230,
      "Time": 3231,
      "budget": 3232,
      "barriers": 3233,
      "ecosystem": 3234,
      "half": 3235,
      "iPhone": 3236,
      "laptop": 3237,
      "mountain": 3238,
      "samples": 3239,
      "wildlife": 3240,
      "injury": 3241,
      "innovation": 3242,
      "instructions": 3243,
      "encouraging": 3244,
      "isolation": 3245,
      "second": 3246,
      "secret": 3247,
      "deadlines": 3248,
      "decrease": 3249,
      "convenient": 3250,
      "melting": 3251,
      "trusted": 3252,
      "fruits": 3253,
      "appreciate": 3254,
      "primary": 3255,
      "database": 3256,
      "companies": 3257,
      "discussed": 3258,
      "restaurant": 3259,
      "monthly": 3260,
      "autonomy": 3261,
      "parents": 3262,
      "magnetic": 3263,
      "Identify": 3264,
      "Optimization": 3265,
      "faucets": 3266,
      "After": 3267,
      "Business": 3268,
      "IoT": 3269,
      "Mexic": 3270,
      "Machine": 3271,
      "People": 3272,
      "Present": 3273,
      "Summarize": 3274,
      "Texas": 3275,
      "fresh": 3276,
      "journey": 3277,
      "massive": 3278,
      "pipes": 3279,
      "rays": 3280,
      "scans": 3281,
      "ublic": 3282,
      "vulner": 3283,
      "vibrant": 3284,
      "ancient": 3285,
      "reptiles": 3286,
      "itecture": 3287,
      "consequences": 3288,
      "exactly": 3289,
      "establish": 3290,
      "Intelligence": 3291,
      "bohydrates": 3292,
      "manufacturer": 3293,
      "\").": 3294,
      "%)": 3295,
      "(-": 3296,
      "11": 3297,
      "14": 3298,
      "1000": 3299,
      "3D": 3300,
      "44": 3301,
      "77": 3302,
      "86": 3303,
      ";.": 3304,
      "=\"": 3305,
      "?\".": 3306,
      "AB": 3307,
      "Ay": 3308,
      "Aim": 3309,
      "Ass": 3310,
      "Ads": 3311,
      "Bl": 3312,
      "Bet": 3313,
      "CT": 3314,
      "Co": 3315,
      "Cor": 3316,
      "Cal": 3317,
      "Cle": 3318,
      "Cur": 3319,
      "Could": 3320,
      "Cost": 3321,
      "Certain": 3322,
      "Div": 3323,
      "During": 3324,
      "Deter": 3325,
      "EU": 3326,
      "Eu": 3327,
      "Eas": 3328,
      "Ext": 3329,
      "Face": 3330,
      "Fail": 3331,
      "Fix": 3332,
      "Flu": 3333,
      "Future": 3334,
      "False": 3335,
      "Frank": 3336,
      "GM": 3337,
      "GP": 3338,
      "Gre": 3339,
      "Ger": 3340,
      "Gold": 3341,
      "Great": 3342,
      "Gift": 3343,
      "HT": 3344,
      "Har": 3345,
      "Hed": 3346,
      "High": 3347,
      "Jacks": 3348,
      "King": 3349,
      "Li": 3350,
      "Last": 3351,
      "Mo": 3352,
      "Man": 3353,
      "Mon": 3354,
      "Mer": 3355,
      "Mar": 3356,
      "Med": 3357,
      "Main": 3358,
      "Muse": 3359,
      "Meas": 3360,
      "More": 3361,
      "Music": 3362,
      "NN": 3363,
      "Na": 3364,
      "National": 3365,
      "OK": 3366,
      "OS": 3367,
      "Ob": 3368,
      "Out": 3369,
      "Open": 3370,
      "Pan": 3371,
      "Per": 3372,
      "Put": 3373,
      "Pour": 3374,
      "Part": 3375,
      "Press": 3376,
      "Post": 3377,
      "Plan": 3378,
      "Play": 3379,
      "Park": 3380,
      "Public": 3381,
      "Red": 3382,
      "Rent": 3383,
      "Rain": 3384,
      "Rest": 3385,
      "Rome": 3386,
      "Rob": 3387,
      "Sc": 3388,
      "Sy": 3389,
      "Sof": 3390,
      "Spe": 3391,
      "Sort": 3392,
      "Sound": 3393,
      "Swit": 3394,
      "South": 3395,
      "Simply": 3396,
      "Ty": 3397,
      "Tod": 3398,
      "Try": 3399,
      "Treat": 3400,
      "UK": 3401,
      "Ul": 3402,
      "Vis": 3403,
      "WA": 3404,
      "Was": 3405,
      "Wear": 3406,
      "Wash": 3407,
      "Xero": 3408,
      "Yes": 3409,
      "aes": 3410,
      "ahead": 3411,
      "average": 3412,
      "bou": 3413,
      "bam": 3414,
      "bate": 3415,
      "bag": 3416,
      "bact": 3417,
      "bound": 3418,
      "bold": 3419,
      "bread": 3420,
      "bio": 3421,
      "cil": 3422,
      "cies": 3423,
      "cart": 3424,
      "cking": 3425,
      "card": 3426,
      "ctors": 3427,
      "caugh": 3428,
      "div": 3429,
      "dress": 3430,
      "dance": 3431,
      "dark": 3432,
      "dane": 3433,
      "dream": 3434,
      "diversity": 3435,
      "eith": 3436,
      "ecut": 3437,
      "fle": 3438,
      "fro": 3439,
      "fig": 3440,
      "fif": 3441,
      "fill": 3442,
      "figh": 3443,
      "fight": 3444,
      "fib": 3445,
      "fert": 3446,
      "fought": 3447,
      "fier": 3448,
      "fats": 3449,
      "further": 3450,
      "false": 3451,
      "flip": 3452,
      "ga": 3453,
      "gol": 3454,
      "gain": 3455,
      "god": 3456,
      "gend": 3457,
      "gold": 3458,
      "gave": 3459,
      "gths": 3460,
      "gatives": 3461,
      "hi": 3462,
      "hion": 3463,
      "hol": 3464,
      "hus": 3465,
      "hib": 3466,
      "hous": 3467,
      "hob": 3468,
      "hicles": 3469,
      "iod": 3470,
      "ians": 3471,
      "iors": 3472,
      "kg": 3473,
      "ker": 3474,
      "lun": 3475,
      "lies": 3476,
      "later": 3477,
      "liness": 3478,
      "liter": 3479,
      "lining": 3480,
      "laugh": 3481,
      "links": 3482,
      "mp": 3483,
      "mate": 3484,
      "mph": 3485,
      "mask": 3486,
      "mouse": 3487,
      "missions": 3488,
      "music": 3489,
      "ny": 3490,
      "nal": 3491,
      "noun": 3492,
      "nine": 3493,
      "oil": 3494,
      "osphere": 3495,
      "pin": 3496,
      "pon": 3497,
      "pal": 3498,
      "pad": 3499,
      "pul": 3500,
      "pha": 3501,
      "phis": 3502,
      "pest": 3503,
      "pany": 3504,
      "pound": 3505,
      "pite": 3506,
      "patch": 3507,
      "ra": 3508,
      "ration": 3509,
      "rist": 3510,
      "ride": 3511,
      "rum": 3512,
      "rup": 3513,
      "race": 3514,
      "rors": 3515,
      "sn": 3516,
      "sou": 3517,
      "sac": 3518,
      "sme": 3519,
      "sop": 3520,
      "squ": 3521,
      "shel": 3522,
      "scare": 3523,
      "slight": 3524,
      "six": 3525,
      "sens": 3526,
      "sending": 3527,
      "saving": 3528,
      "swit": 3529,
      "somet": 3530,
      "slip": 3531,
      "saved": 3532,
      "simply": 3533,
      "sizes": 3534,
      "ti": 3535,
      "tain": 3536,
      "tend": 3537,
      "tight": 3538,
      "tack": 3539,
      "tail": 3540,
      "tak": 3541,
      "tication": 3542,
      "tang": 3543,
      "tables": 3544,
      "tissues": 3545,
      "tioxid": 3546,
      "uf": 3547,
      "uate": 3548,
      "ugg": 3549,
      "viously": 3550,
      "whe": 3551,
      "wro": 3552,
      "west": 3553,
      "whel": 3554,
      "wich": 3555,
      "wire": 3556,
      "wish": 3557,
      "wave": 3558,
      "waves": 3559,
      "wife": 3560,
      "xit": 3561,
      "yt": 3562,
      "yal": 3563,
      "yment": 3564,
      "ycle": 3565,
      "yield": 3566,
      "thay": 3567,
      "thous": 3568,
      "threw": 3569,
      "ina": 3570,
      "inc": 3571,
      "ini": 3572,
      "iner": 3573,
      "ined": 3574,
      "infe": 3575,
      "inable": 3576,
      "inary": 3577,
      "inated": 3578,
      "incent": 3579,
      "inced": 3580,
      "insul": 3581,
      "incomes": 3582,
      "inches": 3583,
      "infl": 3584,
      "inspir": 3585,
      "independ": 3586,
      "influ": 3587,
      "announ": 3588,
      "reet": 3589,
      "reme": 3590,
      "retr": 3591,
      "refr": 3592,
      "recor": 3593,
      "refun": 3594,
      "replace": 3595,
      "remind": 3596,
      "revol": 3597,
      "repair": 3598,
      "recounts": 3599,
      "returns": 3600,
      "ony": 3601,
      "onts": 3602,
      "eration": 3603,
      "erce": 3604,
      "eries": 3605,
      "ergy": 3606,
      "erprint": 3607,
      "ato": 3608,
      "ator": 3609,
      "ators": 3610,
      "attered": 3611,
      "attribute": 3612,
      "thes": 3613,
      "theon": 3614,
      "enon": 3615,
      "enom": 3616,
      "enge": 3617,
      "enem": 3618,
      "enance": 3619,
      "entory": 3620,
      "enced": 3621,
      "tood": 3622,
      "toile": 3623,
      "took": 3624,
      "tooth": 3625,
      "esity": 3626,
      "esome": 3627,
      "outer": 3628,
      "ingred": 3629,
      "ington": 3630,
      "ord": 3631,
      "ork": 3632,
      "orient": 3633,
      "andom": 3634,
      "ale": 3635,
      "aling": 3636,
      "alco": 3637,
      "alia": 3638,
      "isis": 3639,
      "arms": 3640,
      "arrest": 3641,
      "eds": 3642,
      "eded": 3643,
      "edules": 3644,
      "aster": 3645,
      "aside": 3646,
      "itch": 3647,
      "itary": 3648,
      "itting": 3649,
      "itize": 3650,
      "itures": 3651,
      "itative": 3652,
      "itimate": 3653,
      "itarian": 3654,
      "ional": 3655,
      "leaking": 3656,
      "leaves": 3657,
      "icable": 3658,
      "icip": 3659,
      "icates": 3660,
      "icious": 3661,
      "star": 3662,
      "station": 3663,
      "stren": 3664,
      "stage": 3665,
      "stable": 3666,
      "stup": 3667,
      "stake": 3668,
      "stages": 3669,
      "stering": 3670,
      "staff": 3671,
      "street": 3672,
      "heard": 3673,
      "heel": 3674,
      "heav": 3675,
      "cher": 3676,
      "chills": 3677,
      "chicken": 3678,
      "vegan": 3679,
      "vehicles": 3680,
      "enter": 3681,
      "entertain": 3682,
      "rot": 3683,
      "rocks": 3684,
      "cture": 3685,
      "seve": 3686,
      "sect": 3687,
      "sell": 3688,
      "separ": 3689,
      "iled": 3690,
      "imes": 3691,
      "imal": 3692,
      "image": 3693,
      "imated": 3694,
      "impossible": 3695,
      "forgot": 3696,
      "behave": 3697,
      "beli": 3698,
      "below": 3699,
      "becoming": 3700,
      "iders": 3701,
      "idge": 3702,
      "idential": 3703,
      "idden": 3704,
      "susp": 3705,
      "celer": 3706,
      "lying": 3707,
      "ush": 3708,
      "usage": 3709,
      "ushing": 3710,
      "arest": 3711,
      "proactive": 3712,
      "probab": 3713,
      "proponents": 3714,
      "etal": 3715,
      "etary": 3716,
      "etti": 3717,
      "verting": 3718,
      "verware": 3719,
      "ird": 3720,
      "irl": 3721,
      "teen": 3722,
      "dear": 3723,
      "demo": 3724,
      "dered": 3725,
      "develo": 3726,
      "debu": 3727,
      "degre": 3728,
      "demon": 3729,
      "deposit": 3730,
      "degrad": 3731,
      "decentral": 3732,
      "absol": 3733,
      "absent": 3734,
      "iff": 3735,
      "ifies": 3736,
      "iface": 3737,
      "const": 3738,
      "confr": 3739,
      "concent": 3740,
      "constru": 3741,
      "conserv": 3742,
      "consul": 3743,
      "construct": 3744,
      "convert": 3745,
      "converting": 3746,
      "ayed": 3747,
      "complain": 3748,
      "composed": 3749,
      "ades": 3750,
      "advised": 3751,
      "admir": 3752,
      "atever": 3753,
      "ateful": 3754,
      "ago": 3755,
      "agon": 3756,
      "agree": 3757,
      "aggress": 3758,
      "agric": 3759,
      "agrap": 3760,
      "unte": 3761,
      "units": 3762,
      "unknown": 3763,
      "unnatural": 3764,
      "unclear": 3765,
      "unpredict": 3766,
      "unimag": 3767,
      "unexpected": 3768,
      "unsupervised": 3769,
      "unders": 3770,
      "unlucky": 3771,
      "whatever": 3772,
      "motor": 3773,
      "neur": 3774,
      "neutr": 3775,
      "wear": 3776,
      "weigh": 3777,
      "load": 3778,
      "lovers": 3779,
      "losing": 3780,
      "logging": 3781,
      "Their": 3782,
      "ull": 3783,
      "acer": 3784,
      "actor": 3785,
      "accept": 3786,
      "aciers": 3787,
      "essay": 3788,
      "essert": 3789,
      "antum": 3790,
      "anticip": 3791,
      "trition": 3792,
      "trail": 3793,
      "ples": 3794,
      "plate": 3795,
      "plies": 3796,
      "plast": 3797,
      "plates": 3798,
      "plify": 3799,
      "exot": 3800,
      "expe": 3801,
      "export": 3802,
      "excess": 3803,
      "exchange": 3804,
      "except": 3805,
      "extre": 3806,
      "explain": 3807,
      "exercise": 3808,
      "execut": 3809,
      "exacer": 3810,
      "resistant": 3811,
      "fees": 3812,
      "feet": 3813,
      "fever": 3814,
      "femal": 3815,
      "histor": 3816,
      "maid": 3817,
      "oted": 3818,
      "ival": 3819,
      "ivil": 3820,
      "pep": 3821,
      "aller": 3822,
      "ively": 3823,
      "uted": 3824,
      "utants": 3825,
      "utthay": 3826,
      "oping": 3827,
      "opping": 3828,
      "actions": 3829,
      "actually": 3830,
      "click": 3831,
      "climates": 3832,
      "outing": 3833,
      "outlining": 3834,
      "aps": 3835,
      "quid": 3836,
      "quet": 3837,
      "sole": 3838,
      "soil": 3839,
      "lla": 3840,
      "lling": 3841,
      "lled": 3842,
      "creative": 3843,
      "creatures": 3844,
      "creativity": 3845,
      "shower": 3846,
      "sharing": 3847,
      "shirt": 3848,
      "shifting": 3849,
      "covery": 3850,
      "covers": 3851,
      "coding": 3852,
      "cohes": 3853,
      "coord": 3854,
      "ciation": 3855,
      "liquid": 3856,
      "izations": 3857,
      "oding": 3858,
      "geother": 3859,
      "geograph": 3860,
      "perceived": 3861,
      "period": 3862,
      "permissions": 3863,
      "eman": 3864,
      "goes": 3865,
      "portion": 3866,
      "timately": 3867,
      "anywhere": 3868,
      "posal": 3869,
      "prise": 3870,
      "proud": 3871,
      "prior": 3872,
      "prison": 3873,
      "endpoint": 3874,
      "enditures": 3875,
      "artwork": 3876,
      "artists": 3877,
      "udes": 3878,
      "hasn": 3879,
      "helped": 3880,
      "dates": 3881,
      "works": 3882,
      "workplace": 3883,
      "grav": 3884,
      "grateful": 3885,
      "ideal": 3886,
      "compass": 3887,
      "Ind": 3888,
      "Inst": 3889,
      "Incl": 3890,
      "Inform": 3891,
      "Intro": 3892,
      "Index": 3893,
      "Instead": 3894,
      "ured": 3895,
      "stralia": 3896,
      "Ital": 3897,
      "umbre": 3898,
      "upon": 3899,
      "upset": 3900,
      "update": 3901,
      "efforts": 3902,
      "assess": 3903,
      "otherwise": 3904,
      "knows": 3905,
      "tomation": 3906,
      "fostering": 3907,
      "willing": 3908,
      "aches": 3909,
      "spent": 3910,
      "spot": 3911,
      "spaces": 3912,
      "sparen": 3913,
      "spiders": 3914,
      "cuss": 3915,
      "crisis": 3916,
      "intuit": 3917,
      "intense": 3918,
      "ears": 3919,
      "earning": 3920,
      "precon": 3921,
      "pread": 3922,
      "premium": 3923,
      "site": 3924,
      "sitive": 3925,
      "sitting": 3926,
      "sitives": 3927,
      "ifications": 3928,
      "irement": 3929,
      "engines": 3930,
      "desire": 3931,
      "descript": 3932,
      "elf": 3933,
      "speaking": 3934,
      "avings": 3935,
      "phenom": 3936,
      "contest": 3937,
      "contains": 3938,
      "ownership": 3939,
      "getting": 3940,
      "interv": 3941,
      "interval": 3942,
      "interface": 3943,
      "interfaces": 3944,
      "interrup": 3945,
      "asts": 3946,
      "produces": 3947,
      "cars": 3948,
      "serious": 3949,
      "servers": 3950,
      "summar": 3951,
      "ilem": 3952,
      "keting": 3953,
      "obody": 3954,
      "obesity": 3955,
      "themes": 3956,
      "needed": 3957,
      "Then": 3958,
      "Things": 3959,
      "Third": 3960,
      "colon": 3961,
      "collection": 3962,
      "overwhel": 3963,
      "customs": 3964,
      "customize": 3965,
      "customizable": 3966,
      "brisk": 3967,
      "marine": 3968,
      "thrive": 3969,
      "dry": 3970,
      "drive": 3971,
      "drink": 3972,
      "drives": 3973,
      "driving": 3974,
      "drivers": 3975,
      "driver": 3976,
      "diseas": 3977,
      "displace": 3978,
      "distract": 3979,
      "dishes": 3980,
      "dishonest": 3981,
      "disadvantages": 3982,
      "inviting": 3983,
      "inventory": 3984,
      "ficiency": 3985,
      "however": 3986,
      "manner": 3987,
      "stored": 3988,
      "stocks": 3989,
      "impress": 3990,
      "calories": 3991,
      "tenance": 3992,
      "stands": 3993,
      "cky": 3994,
      "eval": 3995,
      "evolve": 3996,
      "guide": 3997,
      "myster": 3998,
      "regret": 3999,
      "regulation": 4000,
      "regarding": 4001,
      "pencil": 4002,
      "medical": 4003,
      "parts": 4004,
      "parties": 4005,
      "itely": 4006,
      "ulture": 4007,
      "ultane": 4008,
      "lift": 4009,
      "cave": 4010,
      "expert": 4011,
      "careful": 4012,
      "jects": 4013,
      "lights": 4014,
      "lightweight": 4015,
      "offers": 4016,
      "markets": 4017,
      "black": 4018,
      "cycle": 4019,
      "xture": 4020,
      "supplies": 4021,
      "processes": 4022,
      "processed": 4023,
      "whole": 4024,
      "grew": 4025,
      "greater": 4026,
      "relations": 4027,
      "relative": 4028,
      "relativity": 4029,
      "grown": 4030,
      "highest": 4031,
      "highlight": 4032,
      "highlighting": 4033,
      "requesting": 4034,
      "architecture": 4035,
      "choices": 4036,
      "velengths": 4037,
      "surround": 4038,
      "surprise": 4039,
      "delicious": 4040,
      "developed": 4041,
      "specified": 4042,
      "productive": 4043,
      "follows": 4044,
      "improvements": 4045,
      "Ensure": 4046,
      "Encour": 4047,
      "Enjoy": 4048,
      "Energy": 4049,
      "factory": 4050,
      "shells": 4051,
      "advances": 4052,
      "advancements": 4053,
      "examination": 4054,
      "examples": 4055,
      "iveness": 4056,
      "Convert": 4057,
      "correlation": 4058,
      "century": 4059,
      "lists": 4060,
      "smile": 4061,
      "smiles": 4062,
      "studies": 4063,
      "version": 4064,
      "player": 4065,
      "played": 4066,
      "bones": 4067,
      "nature": 4068,
      "numbers": 4069,
      "valid": 4070,
      "analyt": 4071,
      "consensus": 4072,
      "classic": 4073,
      "classified": 4074,
      "effectiveness": 4075,
      "served": 4076,
      "Exercise": 4077,
      "Expand": 4078,
      "final": 4079,
      "finance": 4080,
      "finite": 4081,
      "finished": 4082,
      "generation": 4083,
      "generations": 4084,
      "generated": 4085,
      "generally": 4086,
      "generating": 4087,
      "park": 4088,
      "paragrap": 4089,
      "pursu": 4090,
      "keywords": 4091,
      "transfer": 4092,
      "translate": 4093,
      "funding": 4094,
      "handle": 4095,
      "thank": 4096,
      "consumers": 4097,
      "personalize": 4098,
      "benefit": 4099,
      "And": 4100,
      "Andro": 4101,
      "Antioxid": 4102,
      "Stay": 4103,
      "breaking": 4104,
      "breaks": 4105,
      "caps": 4106,
      "capable": 4107,
      "films": 4108,
      "filtering": 4109,
      "putting": 4110,
      "ranging": 4111,
      "wrong": 4112,
      "models": 4113,
      "supports": 4114,
      "supporting": 4115,
      "audio": 4116,
      "justice": 4117,
      "police": 4118,
      "present": 4119,
      "societal": 4120,
      "understands": 4121,
      "Canad": 4122,
      "balance": 4123,
      "balanced": 4124,
      "bottle": 4125,
      "bottles": 4126,
      "solar": 4127,
      "solve": 4128,
      "seeing": 4129,
      "express": 4130,
      "expenditures": 4131,
      "learned": 4132,
      "Something": 4133,
      "clothes": 4134,
      "foundation": 4135,
      "minimize": 4136,
      "monitor": 4137,
      "simplify": 4138,
      "simultane": 4139,
      "environments": 4140,
      "interactions": 4141,
      "Compan": 4142,
      "Company": 4143,
      "dete": 4144,
      "charged": 4145,
      "telling": 4146,
      "manageable": 4147,
      "Propose": 4148,
      "famous": 4149,
      "familiar": 4150,
      "sisters": 4151,
      "saying": 4152,
      "organic": 4153,
      "organize": 4154,
      "organisms": 4155,
      "subtle": 4156,
      "programming": 4157,
      "meeting": 4158,
      "happens": 4159,
      "protecting": 4160,
      "economics": 4161,
      "Chatbot": 4162,
      "Chunk": 4163,
      "Changes": 4164,
      "Christ": 4165,
      "cules": 4166,
      "court": 4167,
      "hydro": 4168,
      "himself": 4169,
      "rights": 4170,
      "single": 4171,
      "treat": 4172,
      "resulting": 4173,
      "results": 4174,
      "leader": 4175,
      "leading": 4176,
      "heads": 4177,
      "deplo": 4178,
      "applicable": 4179,
      "showed": 4180,
      "showers": 4181,
      "foods": 4182,
      "previous": 4183,
      "previously": 4184,
      "summer": 4185,
      "greatly": 4186,
      "electrical": 4187,
      "electrons": 4188,
      "languages": 4189,
      "Reg": 4190,
      "Remove": 4191,
      "Recurrent": 4192,
      "flows": 4193,
      "flowers": 4194,
      "humans": 4195,
      "pays": 4196,
      "payroll": 4197,
      "sale": 4198,
      "salt": 4199,
      "yze": 4200,
      "refuge": 4201,
      "attacks": 4202,
      "challenge": 4203,
      "projects": 4204,
      "trade": 4205,
      "foreign": 4206,
      "interesting": 4207,
      "educational": 4208,
      "potentially": 4209,
      "positively": 4210,
      "glad": 4211,
      "glaciers": 4212,
      "sensitive": 4213,
      "wondered": 4214,
      "retail": 4215,
      "arrived": 4216,
      "suggests": 4217,
      "confused": 4218,
      "confusion": 4219,
      "conflic": 4220,
      "confidential": 4221,
      "accurately": 4222,
      "identifying": 4223,
      "123": 4224,
      "Color": 4225,
      "Columns": 4226,
      "digestive": 4227,
      "thentication": 4228,
      "starts": 4229,
      "started": 4230,
      "behaved": 4231,
      "behaviors": 4232,
      "keeping": 4233,
      "maintenance": 4234,
      "appropri": 4235,
      "continue": 4236,
      "continues": 4237,
      "particles": 4238,
      "responsibly": 4239,
      "blog": 4240,
      "blockchain": 4241,
      "fascin": 4242,
      "fashion": 4243,
      "meta": 4244,
      "metal": 4245,
      "mindful": 4246,
      "ogle": 4247,
      "plot": 4248,
      "rising": 4249,
      "instit": 4250,
      "instant": 4251,
      "install": 4252,
      "instances": 4253,
      "arguing": 4254,
      "teaching": 4255,
      "teachers": 4256,
      "expectations": 4257,
      "fewer": 4258,
      "operate": 4259,
      "opened": 4260,
      "coverage": 4261,
      "profits": 4262,
      "assistance": 4263,
      "assistants": 4264,
      "automated": 4265,
      "authoritarian": 4266,
      "scientist": 4267,
      "Developing": 4268,
      "Development": 4269,
      "efficiently": 4270,
      "Bring": 4271,
      "Brain": 4272,
      "Train": 4273,
      "True": 4274,
      "occas": 4275,
      "pedals": 4276,
      "slee": 4277,
      "slept": 4278,
      "utely": 4279,
      "voltage": 4280,
      "volunte": 4281,
      "rewarding": 4282,
      "recycle": 4283,
      "concepts": 4284,
      "locals": 4285,
      "measure": 4286,
      "mechanism": 4287,
      "cognitive": 4288,
      "stopped": 4289,
      "calculate": 4290,
      "calculations": 4291,
      "calculated": 4292,
      "calculating": 4293,
      "virtually": 4294,
      "complexity": 4295,
      "opportunity": 4296,
      "Financial": 4297,
      "New": 4298,
      "Negatives": 4299,
      "brother": 4300,
      "element": 4301,
      "facts": 4302,
      "factual": 4303,
      "gency": 4304,
      "genetic": 4305,
      "hesit": 4306,
      "lands": 4307,
      "moral": 4308,
      "messaging": 4309,
      "multiface": 4310,
      "nutri": 4311,
      "nutrition": 4312,
      "scalability": 4313,
      "tags": 4314,
      "waiting": 4315,
      "wavelengths": 4316,
      "issue": 4317,
      "ashguard": 4318,
      "property": 4319,
      "properties": 4320,
      "optimal": 4321,
      "optimize": 4322,
      "collecting": 4323,
      "increasingly": 4324,
      "integral": 4325,
      "integrity": 4326,
      "integrating": 4327,
      "Contact": 4328,
      "variables": 4329,
      "policeman": 4330,
      "graphic": 4331,
      "graphics": 4332,
      "targeted": 4333,
      "Acts": 4334,
      "Discuss": 4335,
      "Lead": 4336,
      "Listen": 4337,
      "cutting": 4338,
      "dividing": 4339,
      "divided": 4340,
      "equal": 4341,
      "eyesight": 4342,
      "farms": 4343,
      "mixture": 4344,
      "mundane": 4345,
      "reliance": 4346,
      "recently": 4347,
      "recognition": 4348,
      "rolling": 4349,
      "rolled": 4350,
      "progresses": 4351,
      "progressive": 4352,
      "losses": 4353,
      "truth": 4354,
      "tructure": 4355,
      "apply": 4356,
      "quantity": 4357,
      "quantitative": 4358,
      "Internet": 4359,
      "avoiding": 4360,
      "smartphones": 4361,
      "completely": 4362,
      "predictions": 4363,
      "Australia": 4364,
      "Automation": 4365,
      "Break": 4366,
      "Brexit": 4367,
      "Focus": 4368,
      "Google": 4369,
      "Implement": 4370,
      "Improved": 4371,
      "banks": 4372,
      "cross": 4373,
      "circ": 4374,
      "gameplay": 4375,
      "kindly": 4376,
      "pieces": 4377,
      "sorry": 4378,
      "schedules": 4379,
      "warning": 4380,
      "thirteen": 4381,
      "removing": 4382,
      "alternative": 4383,
      "steam": 4384,
      "sequestration": 4385,
      "secured": 4386,
      "meaningful": 4387,
      "exciting": 4388,
      "grading": 4389,
      "competition": 4390,
      "competitive": 4391,
      "cryption": 4392,
      "situations": 4393,
      "speaker": 4394,
      "availability": 4395,
      "happiness": 4396,
      "promoting": 4397,
      "promotions": 4398,
      "pollutants": 4399,
      "representation": 4400,
      "representations": 4401,
      "Look": 4402,
      "Poor": 4403,
      "Positives": 4404,
      "Research": 4405,
      "Should": 4406,
      "Shopping": 4407,
      "Spam": 4408,
      "Spending": 4409,
      "domain": 4410,
      "harass": 4411,
      "loneliness": 4412,
      "ruins": 4413,
      "rapid": 4414,
      "thoughts": 4415,
      "legitimate": 4416,
      "stretching": 4417,
      "robots": 4418,
      "imagination": 4419,
      "implies": 4420,
      "implications": 4421,
      "university": 4422,
      "welcome": 4423,
      "tributed": 4424,
      "practical": 4425,
      "practices": 4426,
      "speeds": 4427,
      "college": 4428,
      "Experience": 4429,
      "Starting": 4430,
      "breathe": 4431,
      "breathing": 4432,
      "similarity": 4433,
      "subscribe": 4434,
      "subscription": 4435,
      "traveling": 4436,
      "continued": 4437,
      "directly": 4438,
      "adaptations": 4439,
      "Educational": 4440,
      "Effective": 4441,
      "Mountains": 4442,
      "Place": 4443,
      "SEO": 4444,
      "Security": 4445,
      "World": 4446,
      "Years": 4447,
      "casual": 4448,
      "fingerprint": 4449,
      "fallen": 4450,
      "failure": 4451,
      "linked": 4452,
      "master": 4453,
      "packed": 4454,
      "sandwich": 4455,
      "sweating": 4456,
      "shapes": 4457,
      "shaping": 4458,
      "tube": 4459,
      "vacation": 4460,
      "vacations": 4461,
      "woman": 4462,
      "women": 4463,
      "threats": 4464,
      "instruction": 4465,
      "realized": 4466,
      "decline": 4467,
      "motivation": 4468,
      "motivated": 4469,
      "transparen": 4470,
      "platform": 4471,
      "platforms": 4472,
      "exploring": 4473,
      "peaceful": 4474,
      "sooner": 4475,
      "hashtags": 4476,
      "achieved": 4477,
      "eliminates": 4478,
      "Analyze": 4479,
      "explores": 4480,
      "closely": 4481,
      "detailed": 4482,
      "contribute": 4483,
      "contributions": 4484,
      "professional": 4485,
      "professionals": 4486,
      "occurred": 4487,
      "label": 4488,
      "labeled": 4489,
      "suffering": 4490,
      "According": 4491,
      "Build": 4492,
      "Blockchain": 4493,
      "Carbohydrates": 4494,
      "Check": 4495,
      "Central": 4496,
      "Furthermore": 4497,
      "Gamification": 4498,
      "Organ": 4499,
      "Paralle": 4500,
      "Pluto": 4501,
      "Quantum": 4502,
      "Rocky": 4503,
      "TPS": 4504,
      "bicycle": 4505,
      "dedication": 4506,
      "destination": 4507,
      "flooding": 4508,
      "frequently": 4509,
      "latest": 4510,
      "military": 4511,
      "named": 4512,
      "routine": 4513,
      "scene": 4514,
      "silverware": 4515,
      "sorting": 4516,
      "sports": 4517,
      "scratch": 4518,
      "title": 4519,
      "village": 4520,
      "varying": 4521,
      "wedding": 4522,
      "intricate": 4523,
      "recipe": 4524,
      "reference": 4525,
      "restricted": 4526,
      "styles": 4527,
      "status": 4528,
      "ropean": 4529,
      "immers": 4530,
      "defined": 4531,
      "convinced": 4532,
      "ammation": 4533,
      "molecules": 4534,
      "located": 4535,
      "accordingly": 4536,
      "respective": 4537,
      "maximize": 4538,
      "apologize": 4539,
      "phrase": 4540,
      "container": 4541,
      "eventually": 4542,
      "relaxation": 4543,
      "factories": 4544,
      "adventure": 4545,
      "Confidence": 4546,
      "struggle": 4547,
      "parallel": 4548,
      "parameters": 4549,
      "turbine": 4550,
      "camera": 4551,
      "puzzle": 4552,
      "Communication": 4553,
      "attitudes": 4554,
      "Technology": 4555,
      "automatically": 4556,
      "Promoting": 4557,
      "Football": 4558,
      "birthday": 4559,
      "remotely": 4560,
      "cryptography": 4561,
      "vitamins": 4562,
      "determined": 4563,
      "Mexican": 4564,
      "vulnerable": 4565,
      "manufacturers": 4566,
      "ABC": 4567,
      "Ayutthay": 4568,
      "Clean": 4569,
      "Determine": 4570,
      "European": 4571,
      "Easy": 4572,
      "Extreme": 4573,
      "Facebook": 4574,
      "Failure": 4575,
      "Frankl": 4576,
      "GPT": 4577,
      "HTTPS": 4578,
      "Jackson": 4579,
      "Lastly": 4580,
      "Marketing": 4581,
      "Maintenance": 4582,
      "Museum": 4583,
      "Measure": 4584,
      "Pantheon": 4585,
      "Perhaps": 4586,
      "Rainier": 4587,
      "Software": 4588,
      "Speak": 4589,
      "Type": 4590,
      "Today": 4591,
      "Ultimately": 4592,
      "Visit": 4593,
      "Washington": 4594,
      "aesthetic": 4595,
      "bouquet": 4596,
      "bacter": 4597,
      "carts": 4598,
      "caught": 4599,
      "either": 4600,
      "flex": 4601,
      "fighter": 4602,
      "fiber": 4603,
      "fertil": 4604,
      "fierce": 4605,
      "golf": 4606,
      "gods": 4607,
      "gender": 4608,
      "husband": 4609,
      "houses": 4610,
      "lungs": 4611,
      "pinch": 4612,
      "phishing": 4613,
      "smell": 4614,
      "shelves": 4615,
      "scared": 4616,
      "slightly": 4617,
      "sensors": 4618,
      "sometimes": 4619,
      "tackle": 4620,
      "taken": 4621,
      "whether": 4622,
      "wrote": 4623,
      "yalty": 4624,
      "yields": 4625,
      "infection": 4626,
      "insulation": 4627,
      "inflammation": 4628,
      "inspiring": 4629,
      "announce": 4630,
      "retrieve": 4631,
      "records": 4632,
      "refund": 4633,
      "reminders": 4634,
      "revolution": 4635,
      "toilets": 4636,
      "ingredient": 4637,
      "alcohol": 4638,
      "strengths": 4639,
      "stupid": 4640,
      "stakeholders": 4641,
      "heavy": 4642,
      "entertainment": 4643,
      "separated": 4644,
      "suspension": 4645,
      "probably": 4646,
      "developer": 4647,
      "degrees": 4648,
      "degradation": 4649,
      "decentralized": 4650,
      "absolutely": 4651,
      "construction": 4652,
      "conservation": 4653,
      "consult": 4654,
      "agriculture": 4655,
      "unpredictable": 4656,
      "unimaginable": 4657,
      "understood": 4658,
      "anticipate": 4659,
      "plastic": 4660,
      "exotic": 4661,
      "extreme": 4662,
      "female": 4663,
      "showerheads": 4664,
      "geothermal": 4665,
      "geographical": 4666,
      "gravity": 4667,
      "umbrella": 4668,
      "intuitive": 4669,
      "phenomenon": 4670,
      "diseases": 4671,
      "mysterious": 4672,
      "paragraph": 4673,
      "Android": 4674,
      "simultaneously": 4675,
      "Companies": 4676,
      "Chunky": 4677,
      "appropriate": 4678,
      "authoritarianism": 4679,
      "multifaceted": 4680,
      "nutrients": 4681,
      "transparent": 4682,
      "Ayutthaya": 4683
    },
    "merges": [
      [
        "t",
        "h"
      ],
      [
        "i",
        "n"
      ],
      [
        "a",
        "n"
      ],
      [
        "r",
        "e"
      ],
      [
        "o",
        "n"
      ],
      [
        "e",
        "r"
      ],
      [
        "a",
        "t"
      ],
      [
        "th",
        "e"
      ],
      [
        "e",
        "n"
      ],
      [
        "t",
        "o"
      ],
      [
        "e",
        "s"
      ],
      [
        "o",
        "u"
      ],
      [
        "in",
        "g"
      ],
      [
        "o",
        "r"
      ],
      [
        "an",
        "d"
      ],
      [
        "a",
        "l"
      ],
      [
        "i",
        "s"
      ],
      [
        "o",
        "m"
      ],
      [
        "a",
        "r"
      ],
      [
        "e",
        "d"
      ],
      [
        "a",
        "s"
      ],
      [
        "i",
        "t"
      ],
      [
        "o",
        "f"
      ],
      [
        "i",
        "on"
      ],
      [
        "l",
        "e"
      ],
      [
        "i",
        "c"
      ],
      [
        "s",
        "t"
      ],
      [
        "h",
        "e"
      ],
      [
        "c",
        "h"
      ],
      [
        "v",
        "e"
      ],
      [
        "en",
        "t"
      ],
      [
        "y",
        "ou"
      ],
      [
        "r",
        "o"
      ],
      [
        "c",
        "t"
      ],
      [
        "s",
        "e"
      ],
      [
        "i",
        "l"
      ],
      [
        "i",
        "m"
      ],
      [
        "o",
        "w"
      ],
      [
        "f",
        "or"
      ],
      [
        "b",
        "e"
      ],
      [
        "i",
        "d"
      ],
      [
        "s",
        "u"
      ],
      [
        "at",
        "ion"
      ],
      [
        "c",
        "e"
      ],
      [
        "o",
        "l"
      ],
      [
        "l",
        "y"
      ],
      [
        "T",
        "om"
      ],
      [
        "th",
        "at"
      ],
      [
        "u",
        "s"
      ],
      [
        "a",
        "re"
      ],
      [
        "p",
        "ro"
      ],
      [
        "e",
        "t"
      ],
      [
        "v",
        "er"
      ],
      [
        "i",
        "r"
      ],
      [
        "t",
        "e"
      ],
      [
        "d",
        "e"
      ],
      [
        "i",
        "g"
      ],
      [
        "a",
        "b"
      ],
      [
        "i",
        "f"
      ],
      [
        "c",
        "on"
      ],
      [
        "c",
        "an"
      ],
      [
        "a",
        "y"
      ],
      [
        "a",
        "m"
      ],
      [
        "c",
        "om"
      ],
      [
        "a",
        "d"
      ],
      [
        "at",
        "e"
      ],
      [
        "a",
        "g"
      ],
      [
        "u",
        "n"
      ],
      [
        "w",
        "h"
      ],
      [
        "k",
        "e"
      ],
      [
        "m",
        "o"
      ],
      [
        "i",
        "th"
      ],
      [
        "t",
        "er"
      ],
      [
        "n",
        "e"
      ],
      [
        "w",
        "e"
      ],
      [
        "l",
        "o"
      ],
      [
        "T",
        "he"
      ],
      [
        "u",
        "l"
      ],
      [
        "a",
        "c"
      ],
      [
        "m",
        "e"
      ],
      [
        "es",
        "s"
      ],
      [
        "an",
        "t"
      ],
      [
        "t",
        "r"
      ],
      [
        "h",
        "a"
      ],
      [
        "w",
        "ith"
      ],
      [
        "er",
        "s"
      ],
      [
        "you",
        "r"
      ],
      [
        "p",
        "l"
      ],
      [
        "e",
        "x"
      ],
      [
        "l",
        "d"
      ],
      [
        "re",
        "s"
      ],
      [
        "f",
        "e"
      ],
      [
        "u",
        "r"
      ],
      [
        "h",
        "is"
      ],
      [
        "m",
        "ent"
      ],
      [
        "m",
        "a"
      ],
      [
        "o",
        "t"
      ],
      [
        "i",
        "v"
      ],
      [
        "p",
        "e"
      ],
      [
        "al",
        "l"
      ],
      [
        "i",
        "ve"
      ],
      [
        "u",
        "t"
      ],
      [
        "o",
        "p"
      ],
      [
        "f",
        "r"
      ],
      [
        "it",
        "y"
      ],
      [
        "?",
        "."
      ],
      [
        "a",
        "ct"
      ],
      [
        "c",
        "l"
      ],
      [
        "i",
        "es"
      ],
      [
        "a",
        "in"
      ],
      [
        "th",
        "er"
      ],
      [
        "ou",
        "t"
      ],
      [
        "il",
        "l"
      ],
      [
        "a",
        "p"
      ],
      [
        "q",
        "u"
      ],
      [
        "w",
        "or"
      ],
      [
        "d",
        "o"
      ],
      [
        "d",
        "u"
      ],
      [
        "ig",
        "h"
      ],
      [
        "ou",
        "ld"
      ],
      [
        "s",
        "o"
      ],
      [
        "l",
        "l"
      ],
      [
        "es",
        "t"
      ],
      [
        "ou",
        "n"
      ],
      [
        "om",
        "e"
      ],
      [
        "or",
        "t"
      ],
      [
        "ha",
        "ve"
      ],
      [
        "c",
        "re"
      ],
      [
        "ou",
        "r"
      ],
      [
        "s",
        "h"
      ],
      [
        "c",
        "o"
      ],
      [
        "on",
        "e"
      ],
      [
        "T",
        "his"
      ],
      [
        "c",
        "i"
      ],
      [
        "l",
        "i"
      ],
      [
        "i",
        "z"
      ],
      [
        "o",
        "d"
      ],
      [
        "the",
        "ir"
      ],
      [
        "g",
        "e"
      ],
      [
        "p",
        "er"
      ],
      [
        "e",
        "m"
      ],
      [
        "g",
        "o"
      ],
      [
        "p",
        "ort"
      ],
      [
        "is",
        "t"
      ],
      [
        "t",
        "im"
      ],
      [
        "b",
        "y"
      ],
      [
        "an",
        "y"
      ],
      [
        "p",
        "o"
      ],
      [
        "p",
        "r"
      ],
      [
        "in",
        "e"
      ],
      [
        "re",
        "n"
      ],
      [
        "he",
        "l"
      ],
      [
        "ag",
        "e"
      ],
      [
        "W",
        "h"
      ],
      [
        "w",
        "as"
      ],
      [
        "en",
        "d"
      ],
      [
        "ar",
        "t"
      ],
      [
        "u",
        "d"
      ],
      [
        "ab",
        "le"
      ],
      [
        "ion",
        "s"
      ],
      [
        "fr",
        "om"
      ],
      [
        "h",
        "as"
      ],
      [
        "hel",
        "p"
      ],
      [
        "d",
        "at"
      ],
      [
        "wor",
        "k"
      ],
      [
        "igh",
        "t"
      ],
      [
        "g",
        "r"
      ],
      [
        "id",
        "e"
      ],
      [
        "com",
        "p"
      ],
      [
        "I",
        "n"
      ],
      [
        "ar",
        "y"
      ],
      [
        "n",
        "ow"
      ],
      [
        "u",
        "re"
      ],
      [
        "in",
        "d"
      ],
      [
        "ic",
        "h"
      ],
      [
        "c",
        "ess"
      ],
      [
        "g",
        "y"
      ],
      [
        "it",
        "s"
      ],
      [
        "st",
        "r"
      ],
      [
        "I",
        "t"
      ],
      [
        "mo",
        "re"
      ],
      [
        "g",
        "h"
      ],
      [
        "en",
        "er"
      ],
      [
        "k",
        "s"
      ],
      [
        "u",
        "m"
      ],
      [
        "dat",
        "a"
      ],
      [
        "u",
        "se"
      ],
      [
        "he",
        "re"
      ],
      [
        "u",
        "p"
      ],
      [
        "en",
        "ce"
      ],
      [
        "e",
        "f"
      ],
      [
        "th",
        "is"
      ],
      [
        "as",
        "s"
      ],
      [
        "for",
        "m"
      ],
      [
        "ou",
        "gh"
      ],
      [
        "ic",
        "al"
      ],
      [
        "o",
        "ther"
      ],
      [
        "to",
        "r"
      ],
      [
        "l",
        "ow"
      ],
      [
        "u",
        "al"
      ],
      [
        "tim",
        "e"
      ],
      [
        "k",
        "now"
      ],
      [
        "to",
        "m"
      ],
      [
        "ig",
        "n"
      ],
      [
        "ne",
        "w"
      ],
      [
        "c",
        "es"
      ],
      [
        "f",
        "o"
      ],
      [
        "w",
        "ill"
      ],
      [
        "a",
        "ch"
      ],
      [
        "b",
        "o"
      ],
      [
        "s",
        "p"
      ],
      [
        "wh",
        "ich"
      ],
      [
        "oun",
        "d"
      ],
      [
        "c",
        "us"
      ],
      [
        "k",
        "ing"
      ],
      [
        "c",
        "r"
      ],
      [
        "n",
        "ot"
      ],
      [
        "ar",
        "d"
      ],
      [
        "com",
        "m"
      ],
      [
        "in",
        "t"
      ],
      [
        "e",
        "ar"
      ],
      [
        "p",
        "re"
      ],
      [
        "s",
        "it"
      ],
      [
        "t",
        "w"
      ],
      [
        "as",
        "e"
      ],
      [
        "if",
        "ic"
      ],
      [
        "a",
        "ke"
      ],
      [
        "p",
        "le"
      ],
      [
        "ver",
        "y"
      ],
      [
        "p",
        "t"
      ],
      [
        "s",
        "y"
      ],
      [
        "ation",
        "s"
      ],
      [
        "e",
        "p"
      ],
      [
        "i",
        "b"
      ],
      [
        "su",
        "ch"
      ],
      [
        "d",
        "if"
      ],
      [
        "s",
        "ome"
      ],
      [
        "ou",
        "s"
      ],
      [
        "a",
        "ce"
      ],
      [
        "i",
        "re"
      ],
      [
        "w",
        "ay"
      ],
      [
        "th",
        "ing"
      ],
      [
        "ch",
        "n"
      ],
      [
        "pro",
        "v"
      ],
      [
        "i",
        "al"
      ],
      [
        "ab",
        "out"
      ],
      [
        "d",
        "er"
      ],
      [
        "in",
        "cl"
      ],
      [
        "an",
        "s"
      ],
      [
        "ic",
        "e"
      ],
      [
        "fe",
        "ren"
      ],
      [
        "li",
        "ke"
      ],
      [
        "the",
        "y"
      ],
      [
        "en",
        "g"
      ],
      [
        "le",
        "ar"
      ],
      [
        "te",
        "chn"
      ],
      [
        "d",
        "es"
      ],
      [
        "e",
        "l"
      ],
      [
        "i",
        "e"
      ],
      [
        "s",
        "pe"
      ],
      [
        "at",
        "ed"
      ],
      [
        "a",
        "v"
      ],
      [
        "c",
        "ould"
      ],
      [
        "on",
        "g"
      ],
      [
        "st",
        "em"
      ],
      [
        "ch",
        "an"
      ],
      [
        "ci",
        "al"
      ],
      [
        "f",
        "ul"
      ],
      [
        "p",
        "h"
      ],
      [
        "at",
        "er"
      ],
      [
        "con",
        "t"
      ],
      [
        "sy",
        "stem"
      ],
      [
        "H",
        "e"
      ],
      [
        "d",
        "id"
      ],
      [
        "u",
        "st"
      ],
      [
        "ow",
        "n"
      ],
      [
        "g",
        "et"
      ],
      [
        "n",
        "ing"
      ],
      [
        "t",
        "y"
      ],
      [
        "in",
        "ter"
      ],
      [
        "ol",
        "o"
      ],
      [
        "*",
        "*"
      ],
      [
        "W",
        "e"
      ],
      [
        "d",
        "ay"
      ],
      [
        "in",
        "to"
      ],
      [
        "as",
        "t"
      ],
      [
        "ent",
        "s"
      ],
      [
        "pro",
        "du"
      ],
      [
        "res",
        "s"
      ],
      [
        "M",
        "ary"
      ],
      [
        "Y",
        "ou"
      ],
      [
        "c",
        "ar"
      ],
      [
        "s",
        "a"
      ],
      [
        "s",
        "er"
      ],
      [
        "t",
        "ing"
      ],
      [
        "w",
        "ant"
      ],
      [
        "ct",
        "ion"
      ],
      [
        "be",
        "t"
      ],
      [
        "su",
        "m"
      ],
      [
        "us",
        "ed"
      ],
      [
        "i",
        "le"
      ],
      [
        "k",
        "et"
      ],
      [
        "o",
        "b"
      ],
      [
        "the",
        "m"
      ],
      [
        "al",
        "so"
      ],
      [
        "it",
        "ies"
      ],
      [
        "ro",
        "w"
      ],
      [
        "ne",
        "ed"
      ],
      [
        "T",
        "h"
      ],
      [
        "_",
        "_"
      ],
      [
        "c",
        "ol"
      ],
      [
        "d",
        "on"
      ],
      [
        "o",
        "ver"
      ],
      [
        "re",
        "e"
      ],
      [
        "re",
        "du"
      ],
      [
        "as",
        "ed"
      ],
      [
        "cus",
        "tom"
      ],
      [
        "b",
        "r"
      ],
      [
        "m",
        "ar"
      ],
      [
        "t",
        "s"
      ],
      [
        "an",
        "ce"
      ],
      [
        "am",
        "e"
      ],
      [
        "c",
        "ur"
      ],
      [
        "i",
        "ence"
      ],
      [
        "n",
        "o"
      ],
      [
        "th",
        "r"
      ],
      [
        "re",
        "d"
      ],
      [
        "al",
        "th"
      ],
      [
        "al",
        "ly"
      ],
      [
        "ve",
        "lo"
      ],
      [
        "ac",
        "k"
      ],
      [
        "ma",
        "ke"
      ],
      [
        "d",
        "r"
      ],
      [
        "dif",
        "feren"
      ],
      [
        "d",
        "is"
      ],
      [
        "s",
        "s"
      ],
      [
        "w",
        "ould"
      ],
      [
        "in",
        "v"
      ],
      [
        "fe",
        "ct"
      ],
      [
        "velo",
        "p"
      ],
      [
        "b",
        "us"
      ],
      [
        "e",
        "ct"
      ],
      [
        "f",
        "ic"
      ],
      [
        "h",
        "ow"
      ],
      [
        "i",
        "p"
      ],
      [
        "m",
        "an"
      ],
      [
        "s",
        "to"
      ],
      [
        "in",
        "k"
      ],
      [
        "at",
        "ing"
      ],
      [
        "he",
        "alth"
      ],
      [
        "im",
        "p"
      ],
      [
        "im",
        "port"
      ],
      [
        "ul",
        "ar"
      ],
      [
        "ers",
        "on"
      ],
      [
        "ener",
        "gy"
      ],
      [
        "techn",
        "olo"
      ],
      [
        "c",
        "al"
      ],
      [
        "g",
        "g"
      ],
      [
        "o",
        "k"
      ],
      [
        "t",
        "en"
      ],
      [
        "at",
        "es"
      ],
      [
        "st",
        "and"
      ],
      [
        "il",
        "d"
      ],
      [
        "all",
        "ow"
      ],
      [
        "op",
        "le"
      ],
      [
        "Wh",
        "at"
      ],
      [
        "thr",
        "ough"
      ],
      [
        "b",
        "er"
      ],
      [
        "c",
        "k"
      ],
      [
        "e",
        "v"
      ],
      [
        "g",
        "u"
      ],
      [
        "m",
        "y"
      ],
      [
        "in",
        "cre"
      ],
      [
        "in",
        "form"
      ],
      [
        "re",
        "g"
      ],
      [
        "the",
        "re"
      ],
      [
        "le",
        "ct"
      ],
      [
        "su",
        "re"
      ],
      [
        "ol",
        "d"
      ],
      [
        "H",
        "ow"
      ],
      [
        "m",
        "s"
      ],
      [
        "p",
        "en"
      ],
      [
        "y",
        "s"
      ],
      [
        "re",
        "st"
      ],
      [
        "ic",
        "es"
      ],
      [
        ":",
        "."
      ],
      [
        "a",
        "u"
      ],
      [
        "m",
        "ed"
      ],
      [
        "p",
        "art"
      ],
      [
        "it",
        "e"
      ],
      [
        "it",
        "ion"
      ],
      [
        "ab",
        "il"
      ],
      [
        "ul",
        "t"
      ],
      [
        "iv",
        "id"
      ],
      [
        "pe",
        "ople"
      ],
      [
        "iz",
        "e"
      ],
      [
        "a",
        "il"
      ],
      [
        "l",
        "if"
      ],
      [
        "in",
        "ess"
      ],
      [
        "ment",
        "s"
      ],
      [
        "comm",
        "un"
      ],
      [
        "tw",
        "o"
      ],
      [
        "D",
        "o"
      ],
      [
        "c",
        "a"
      ],
      [
        "n",
        "et"
      ],
      [
        "v",
        "ir"
      ],
      [
        "is",
        "h"
      ],
      [
        "se",
        "t"
      ],
      [
        "wh",
        "at"
      ],
      [
        "ex",
        "per"
      ],
      [
        "incl",
        "ud"
      ],
      [
        "import",
        "ant"
      ],
      [
        "inform",
        "ation"
      ],
      [
        "b",
        "u"
      ],
      [
        "c",
        "are"
      ],
      [
        "e",
        "as"
      ],
      [
        "j",
        "ect"
      ],
      [
        "l",
        "es"
      ],
      [
        "l",
        "ight"
      ],
      [
        "u",
        "e"
      ],
      [
        "w",
        "here"
      ],
      [
        "in",
        "te"
      ],
      [
        "on",
        "s"
      ],
      [
        "of",
        "f"
      ],
      [
        "mar",
        "ket"
      ],
      [
        "imp",
        "act"
      ],
      [
        "technolo",
        "gy"
      ],
      [
        "a",
        "k"
      ],
      [
        "a",
        "ir"
      ],
      [
        "b",
        "l"
      ],
      [
        "c",
        "y"
      ],
      [
        "h",
        "ome"
      ],
      [
        "i",
        "ed"
      ],
      [
        "m",
        "ay"
      ],
      [
        "o",
        "st"
      ],
      [
        "p",
        "erson"
      ],
      [
        "t",
        "ake"
      ],
      [
        "v",
        "is"
      ],
      [
        "x",
        "t"
      ],
      [
        "y",
        "ear"
      ],
      [
        "is",
        "e"
      ],
      [
        "su",
        "p"
      ],
      [
        "pro",
        "cess"
      ],
      [
        "wh",
        "o"
      ],
      [
        "we",
        "b"
      ],
      [
        "ha",
        "p"
      ],
      [
        "iv",
        "es"
      ],
      [
        "d",
        "s"
      ],
      [
        "f",
        "ol"
      ],
      [
        "g",
        "re"
      ],
      [
        "i",
        "a"
      ],
      [
        "i",
        "ous"
      ],
      [
        "w",
        "ater"
      ],
      [
        "re",
        "l"
      ],
      [
        "er",
        "t"
      ],
      [
        "com",
        "e"
      ],
      [
        "we",
        "en"
      ],
      [
        "The",
        "y"
      ],
      [
        "ib",
        "le"
      ],
      [
        "bet",
        "ween"
      ],
      [
        "c",
        "oun"
      ],
      [
        "g",
        "row"
      ],
      [
        "h",
        "er"
      ],
      [
        "h",
        "igh"
      ],
      [
        "u",
        "res"
      ],
      [
        "v",
        "es"
      ],
      [
        "th",
        "ink"
      ],
      [
        "re",
        "qu"
      ],
      [
        "to",
        "p"
      ],
      [
        "al",
        "s"
      ],
      [
        "ar",
        "ch"
      ],
      [
        "ch",
        "o"
      ],
      [
        "ve",
        "l"
      ],
      [
        "im",
        "pro"
      ],
      [
        "ow",
        "er"
      ],
      [
        "su",
        "r"
      ],
      [
        "de",
        "l"
      ],
      [
        "de",
        "velop"
      ],
      [
        "if",
        "y"
      ],
      [
        "wh",
        "en"
      ],
      [
        "pl",
        "an"
      ],
      [
        "cre",
        "ate"
      ],
      [
        "po",
        "int"
      ],
      [
        "spe",
        "c"
      ],
      [
        "produ",
        "ct"
      ],
      [
        "fol",
        "low"
      ],
      [
        "impro",
        "ve"
      ],
      [
        "E",
        "n"
      ],
      [
        "f",
        "ac"
      ],
      [
        "n",
        "s"
      ],
      [
        "s",
        "of"
      ],
      [
        "s",
        "he"
      ],
      [
        "ent",
        "ial"
      ],
      [
        "be",
        "en"
      ],
      [
        "ad",
        "v"
      ],
      [
        "wh",
        "ile"
      ],
      [
        "me",
        "m"
      ],
      [
        "ex",
        "am"
      ],
      [
        "iv",
        "en"
      ],
      [
        "do",
        "es"
      ],
      [
        "co",
        "st"
      ],
      [
        "Wh",
        "y"
      ],
      [
        "C",
        "on"
      ],
      [
        "a",
        "ther"
      ],
      [
        "c",
        "or"
      ],
      [
        "c",
        "ent"
      ],
      [
        "c",
        "ation"
      ],
      [
        "d",
        "own"
      ],
      [
        "h",
        "ad"
      ],
      [
        "i",
        "end"
      ],
      [
        "l",
        "ar"
      ],
      [
        "l",
        "ist"
      ],
      [
        "p",
        "ower"
      ],
      [
        "s",
        "m"
      ],
      [
        "t",
        "al"
      ],
      [
        "ic",
        "ation"
      ],
      [
        "st",
        "ud"
      ],
      [
        "se",
        "l"
      ],
      [
        "se",
        "arch"
      ],
      [
        "ver",
        "s"
      ],
      [
        "un",
        "der"
      ],
      [
        "pl",
        "ay"
      ],
      [
        "res",
        "p"
      ],
      [
        "sh",
        "ould"
      ],
      [
        "iz",
        "ed"
      ],
      [
        "go",
        "od"
      ],
      [
        "pr",
        "om"
      ],
      [
        "tor",
        "y"
      ],
      [
        "cr",
        "i"
      ],
      [
        "tw",
        "are"
      ],
      [
        "prov",
        "ide"
      ],
      [
        "lear",
        "ning"
      ],
      [
        "did",
        "n"
      ],
      [
        "bus",
        "iness"
      ],
      [
        "ivid",
        "ual"
      ],
      [
        "I",
        "f"
      ],
      [
        "b",
        "on"
      ],
      [
        "b",
        "ut"
      ],
      [
        "b",
        "ased"
      ],
      [
        "e",
        "ver"
      ],
      [
        "i",
        "ent"
      ],
      [
        "l",
        "ong"
      ],
      [
        "m",
        "any"
      ],
      [
        "n",
        "at"
      ],
      [
        "n",
        "um"
      ],
      [
        "t",
        "ion"
      ],
      [
        "v",
        "al"
      ],
      [
        "an",
        "al"
      ],
      [
        "re",
        "ad"
      ],
      [
        "us",
        "ing"
      ],
      [
        "con",
        "s"
      ],
      [
        "ur",
        "al"
      ],
      [
        "fr",
        "iend"
      ],
      [
        "cl",
        "ass"
      ],
      [
        "ind",
        "ividual"
      ],
      [
        "str",
        "u"
      ],
      [
        "ef",
        "fect"
      ],
      [
        "ser",
        "v"
      ],
      [
        "redu",
        "ce"
      ],
      [
        "abil",
        "ity"
      ],
      [
        "lif",
        "e"
      ],
      [
        "web",
        "sit"
      ],
      [
        "0",
        "0"
      ],
      [
        "E",
        "x"
      ],
      [
        "b",
        "en"
      ],
      [
        "f",
        "in"
      ],
      [
        "g",
        "ener"
      ],
      [
        "l",
        "ine"
      ],
      [
        "o",
        "th"
      ],
      [
        "p",
        "a"
      ],
      [
        "p",
        "ar"
      ],
      [
        "p",
        "ur"
      ],
      [
        "s",
        "ign"
      ],
      [
        "at",
        "ch"
      ],
      [
        "the",
        "se"
      ],
      [
        "ing",
        "s"
      ],
      [
        "ed",
        "u"
      ],
      [
        "ad",
        "d"
      ],
      [
        "ag",
        "ing"
      ],
      [
        "ke",
        "y"
      ],
      [
        "The",
        "re"
      ],
      [
        "ac",
        "cess"
      ],
      [
        "tr",
        "ans"
      ],
      [
        "ma",
        "il"
      ],
      [
        "our",
        "ces"
      ],
      [
        "sof",
        "tware"
      ],
      [
        "b",
        "ack"
      ],
      [
        "c",
        "ed"
      ],
      [
        "e",
        "mail"
      ],
      [
        "f",
        "un"
      ],
      [
        "h",
        "o"
      ],
      [
        "h",
        "and"
      ],
      [
        "o",
        "se"
      ],
      [
        "p",
        "ot"
      ],
      [
        "u",
        "ch"
      ],
      [
        "u",
        "de"
      ],
      [
        "u",
        "ter"
      ],
      [
        "v",
        "ar"
      ],
      [
        "th",
        "an"
      ],
      [
        "at",
        "ter"
      ],
      [
        "se",
        "ver"
      ],
      [
        "con",
        "sum"
      ],
      [
        "ag",
        "es"
      ],
      [
        "so",
        "cial"
      ],
      [
        "od",
        "y"
      ],
      [
        "comp",
        "uter"
      ],
      [
        "ough",
        "t"
      ],
      [
        "differen",
        "t"
      ],
      [
        "exper",
        "ience"
      ],
      [
        "includ",
        "ing"
      ],
      [
        "person",
        "al"
      ],
      [
        "ben",
        "ef"
      ],
      [
        "A",
        "I"
      ],
      [
        "A",
        "n"
      ],
      [
        "S",
        "t"
      ],
      [
        "b",
        "re"
      ],
      [
        "b",
        "le"
      ],
      [
        "c",
        "ap"
      ],
      [
        "f",
        "il"
      ],
      [
        "f",
        "ind"
      ],
      [
        "g",
        "an"
      ],
      [
        "p",
        "ut"
      ],
      [
        "p",
        "op"
      ],
      [
        "r",
        "an"
      ],
      [
        "s",
        "k"
      ],
      [
        "v",
        "ie"
      ],
      [
        "w",
        "r"
      ],
      [
        "st",
        "ep"
      ],
      [
        "de",
        "c"
      ],
      [
        "mo",
        "del"
      ],
      [
        "qu",
        "est"
      ],
      [
        "pt",
        "ion"
      ],
      [
        "way",
        "s"
      ],
      [
        "prov",
        "id"
      ],
      [
        "des",
        "ign"
      ],
      [
        "chan",
        "ge"
      ],
      [
        "sa",
        "id"
      ],
      [
        "__",
        "__"
      ],
      [
        "sup",
        "port"
      ],
      [
        "websit",
        "e"
      ],
      [
        "sever",
        "al"
      ],
      [
        "a",
        "ud"
      ],
      [
        "a",
        "king"
      ],
      [
        "i",
        "o"
      ],
      [
        "j",
        "ust"
      ],
      [
        "p",
        "ol"
      ],
      [
        "p",
        "res"
      ],
      [
        "p",
        "ass"
      ],
      [
        "re",
        "le"
      ],
      [
        "at",
        "ive"
      ],
      [
        "ar",
        "m"
      ],
      [
        "it",
        "al"
      ],
      [
        "le",
        "t"
      ],
      [
        "ic",
        "t"
      ],
      [
        "il",
        "y"
      ],
      [
        "be",
        "ing"
      ],
      [
        "ir",
        "st"
      ],
      [
        "pe",
        "ct"
      ],
      [
        "so",
        "ci"
      ],
      [
        "iz",
        "ation"
      ],
      [
        "ge",
        "ther"
      ],
      [
        "go",
        "ing"
      ],
      [
        "incl",
        "ude"
      ],
      [
        "exam",
        "ple"
      ],
      [
        "sel",
        "f"
      ],
      [
        "under",
        "stand"
      ],
      [
        "A",
        "d"
      ],
      [
        "C",
        "an"
      ],
      [
        "I",
        "s"
      ],
      [
        "a",
        "f"
      ],
      [
        "a",
        "w"
      ],
      [
        "b",
        "al"
      ],
      [
        "b",
        "ot"
      ],
      [
        "b",
        "ody"
      ],
      [
        "c",
        "he"
      ],
      [
        "e",
        "very"
      ],
      [
        "g",
        "or"
      ],
      [
        "i",
        "qu"
      ],
      [
        "s",
        "ol"
      ],
      [
        "t",
        "ur"
      ],
      [
        "an",
        "g"
      ],
      [
        "to",
        "gether"
      ],
      [
        "it",
        "ed"
      ],
      [
        "of",
        "ten"
      ],
      [
        "se",
        "e"
      ],
      [
        "su",
        "l"
      ],
      [
        "wh",
        "y"
      ],
      [
        "we",
        "ll"
      ],
      [
        "ex",
        "p"
      ],
      [
        "ut",
        "ion"
      ],
      [
        "comp",
        "le"
      ],
      [
        "lear",
        "n"
      ],
      [
        "system",
        "s"
      ],
      [
        "car",
        "bon"
      ],
      [
        "custom",
        "er"
      ],
      [
        "net",
        "work"
      ],
      [
        "vir",
        "on"
      ],
      [
        "spec",
        "ific"
      ],
      [
        "D",
        "es"
      ],
      [
        "S",
        "ome"
      ],
      [
        "c",
        "le"
      ],
      [
        "c",
        "am"
      ],
      [
        "c",
        "lo"
      ],
      [
        "f",
        "ound"
      ],
      [
        "i",
        "x"
      ],
      [
        "j",
        "o"
      ],
      [
        "l",
        "ed"
      ],
      [
        "m",
        "in"
      ],
      [
        "m",
        "on"
      ],
      [
        "n",
        "ess"
      ],
      [
        "p",
        "u"
      ],
      [
        "s",
        "im"
      ],
      [
        "th",
        "ree"
      ],
      [
        "in",
        "s"
      ],
      [
        "en",
        "s"
      ],
      [
        "en",
        "viron"
      ],
      [
        "or",
        "s"
      ],
      [
        "is",
        "s"
      ],
      [
        "as",
        "k"
      ],
      [
        "ic",
        "k"
      ],
      [
        "pro",
        "te"
      ],
      [
        "pro",
        "ble"
      ],
      [
        "tr",
        "y"
      ],
      [
        "ha",
        "v"
      ],
      [
        "ma",
        "ch"
      ],
      [
        "ain",
        "ing"
      ],
      [
        "bo",
        "th"
      ],
      [
        "ific",
        "ant"
      ],
      [
        "ph",
        "ys"
      ],
      [
        "inter",
        "act"
      ],
      [
        "inv",
        "ol"
      ],
      [
        "gg",
        "est"
      ],
      [
        "incre",
        "ase"
      ],
      [
        "bu",
        "ild"
      ],
      [
        "develop",
        "ment"
      ],
      [
        "sign",
        "ificant"
      ],
      [
        ")",
        "."
      ],
      [
        ":",
        "**"
      ],
      [
        "C",
        "om"
      ],
      [
        "O",
        "n"
      ],
      [
        "d",
        "et"
      ],
      [
        "e",
        "lect"
      ],
      [
        "f",
        "irst"
      ],
      [
        "l",
        "an"
      ],
      [
        "o",
        "ks"
      ],
      [
        "p",
        "s"
      ],
      [
        "on",
        "ly"
      ],
      [
        "es",
        "e"
      ],
      [
        "al",
        "ity"
      ],
      [
        "ic",
        "s"
      ],
      [
        "ch",
        "ar"
      ],
      [
        "id",
        "ent"
      ],
      [
        "ce",
        "pt"
      ],
      [
        "te",
        "am"
      ],
      [
        "te",
        "ll"
      ],
      [
        "ag",
        "ain"
      ],
      [
        "mo",
        "st"
      ],
      [
        "we",
        "re"
      ],
      [
        "lo",
        "ok"
      ],
      [
        "pl",
        "ace"
      ],
      [
        "fe",
        "el"
      ],
      [
        "po",
        "sit"
      ],
      [
        "gr",
        "am"
      ],
      [
        "ty",
        "p"
      ],
      [
        "custom",
        "ers"
      ],
      [
        "man",
        "age"
      ],
      [
        "ca",
        "use"
      ],
      [
        "num",
        "ber"
      ],
      [
        "benef",
        "its"
      ],
      [
        "Ad",
        "d"
      ],
      [
        "phys",
        "ical"
      ],
      [
        "B",
        "y"
      ],
      [
        "B",
        "ost"
      ],
      [
        "P",
        "ro"
      ],
      [
        "U",
        "n"
      ],
      [
        "a",
        "ut"
      ],
      [
        "c",
        "all"
      ],
      [
        "d",
        "ing"
      ],
      [
        "e",
        "con"
      ],
      [
        "e",
        "ach"
      ],
      [
        "f",
        "am"
      ],
      [
        "g",
        "ies"
      ],
      [
        "l",
        "u"
      ],
      [
        "l",
        "ess"
      ],
      [
        "m",
        "ust"
      ],
      [
        "s",
        "is"
      ],
      [
        "s",
        "ay"
      ],
      [
        "s",
        "ci"
      ],
      [
        "in",
        "es"
      ],
      [
        "at",
        "ure"
      ],
      [
        "or",
        "gan"
      ],
      [
        "al",
        "gor"
      ],
      [
        "ar",
        "ound"
      ],
      [
        "it",
        "t"
      ],
      [
        "it",
        "ing"
      ],
      [
        "su",
        "b"
      ],
      [
        "pro",
        "gram"
      ],
      [
        "de",
        "v"
      ],
      [
        "me",
        "et"
      ],
      [
        "ant",
        "s"
      ],
      [
        "ma",
        "de"
      ],
      [
        "oun",
        "t"
      ],
      [
        "one",
        "y"
      ],
      [
        "know",
        "n"
      ],
      [
        "ard",
        "s"
      ],
      [
        "bet",
        "ter"
      ],
      [
        "reg",
        "ular"
      ],
      [
        "hap",
        "pen"
      ],
      [
        "requ",
        "ire"
      ],
      [
        "follow",
        "ing"
      ],
      [
        "does",
        "n"
      ],
      [
        "lar",
        "ge"
      ],
      [
        "cri",
        "be"
      ],
      [
        "environ",
        "ment"
      ],
      [
        "prote",
        "ct"
      ],
      [
        "invol",
        "ves"
      ],
      [
        "Bost",
        "on"
      ],
      [
        "econ",
        "om"
      ],
      [
        "algor",
        "ith"
      ],
      [
        "B",
        "e"
      ],
      [
        "C",
        "h"
      ],
      [
        "D",
        "e"
      ],
      [
        "O",
        "ver"
      ],
      [
        "c",
        "ing"
      ],
      [
        "c",
        "ul"
      ],
      [
        "c",
        "our"
      ],
      [
        "c",
        "cess"
      ],
      [
        "f",
        "er"
      ],
      [
        "h",
        "y"
      ],
      [
        "h",
        "im"
      ],
      [
        "l",
        "im"
      ],
      [
        "m",
        "oney"
      ],
      [
        "r",
        "ight"
      ],
      [
        "s",
        "ing"
      ],
      [
        "t",
        "re"
      ],
      [
        "y",
        "es"
      ],
      [
        "th",
        "ought"
      ],
      [
        "re",
        "sul"
      ],
      [
        "to",
        "ld"
      ],
      [
        "ou",
        "se"
      ],
      [
        "le",
        "ad"
      ],
      [
        "he",
        "ad"
      ],
      [
        "ro",
        "l"
      ],
      [
        "us",
        "ers"
      ],
      [
        "de",
        "p"
      ],
      [
        "ma",
        "king"
      ],
      [
        "ill",
        "s"
      ],
      [
        "ap",
        "pl"
      ],
      [
        "sh",
        "ow"
      ],
      [
        "li",
        "e"
      ],
      [
        "ef",
        "fic"
      ],
      [
        "fo",
        "od"
      ],
      [
        "pre",
        "v"
      ],
      [
        "ie",
        "ld"
      ],
      [
        "sum",
        "m"
      ],
      [
        "cur",
        "ity"
      ],
      [
        "inv",
        "est"
      ],
      [
        "med",
        "ia"
      ],
      [
        "market",
        "ing"
      ],
      [
        "gre",
        "at"
      ],
      [
        "stru",
        "ct"
      ],
      [
        "vie",
        "w"
      ],
      [
        "pu",
        "bl"
      ],
      [
        "elect",
        "r"
      ],
      [
        "lan",
        "gu"
      ],
      [
        "A",
        "s"
      ],
      [
        "C",
        "re"
      ],
      [
        "G",
        "ener"
      ],
      [
        "O",
        "ne"
      ],
      [
        "R",
        "e"
      ],
      [
        "a",
        "ve"
      ],
      [
        "f",
        "low"
      ],
      [
        "h",
        "um"
      ],
      [
        "h",
        "ard"
      ],
      [
        "j",
        "ob"
      ],
      [
        "m",
        "uch"
      ],
      [
        "p",
        "ay"
      ],
      [
        "p",
        "atter"
      ],
      [
        "r",
        "y"
      ],
      [
        "s",
        "al"
      ],
      [
        "t",
        "ual"
      ],
      [
        "u",
        "es"
      ],
      [
        "v",
        "o"
      ],
      [
        "v",
        "ing"
      ],
      [
        "y",
        "z"
      ],
      [
        "in",
        "ation"
      ],
      [
        "re",
        "f"
      ],
      [
        "re",
        "as"
      ],
      [
        "on",
        "line"
      ],
      [
        "at",
        "t"
      ],
      [
        "to",
        "ol"
      ],
      [
        "ou",
        "d"
      ],
      [
        "le",
        "vel"
      ],
      [
        "st",
        "ate"
      ],
      [
        "ch",
        "all"
      ],
      [
        "im",
        "ate"
      ],
      [
        "su",
        "n"
      ],
      [
        "us",
        "er"
      ],
      [
        "pro",
        "ject"
      ],
      [
        "et",
        "y"
      ],
      [
        "ver",
        "t"
      ],
      [
        "te",
        "xt"
      ],
      [
        "tr",
        "a"
      ],
      [
        "iv",
        "ity"
      ],
      [
        "po",
        "ss"
      ],
      [
        "end",
        "ing"
      ],
      [
        "gr",
        "ou"
      ],
      [
        "fo",
        "re"
      ],
      [
        "cont",
        "ent"
      ],
      [
        "ty",
        "pe"
      ],
      [
        "Th",
        "ese"
      ],
      [
        "commun",
        "ication"
      ],
      [
        "inte",
        "rest"
      ],
      [
        "year",
        "s"
      ],
      [
        "grow",
        "th"
      ],
      [
        "nat",
        "ural"
      ],
      [
        "oth",
        "ers"
      ],
      [
        "pa",
        "ign"
      ],
      [
        "pur",
        "ch"
      ],
      [
        "edu",
        "cation"
      ],
      [
        "pot",
        "ential"
      ],
      [
        "dec",
        "is"
      ],
      [
        "aud",
        "ience"
      ],
      [
        "char",
        "act"
      ],
      [
        "posit",
        "ive"
      ],
      [
        "dev",
        "ices"
      ],
      [
        "Cre",
        "ate"
      ],
      [
        "patter",
        "ns"
      ],
      [
        "A",
        "l"
      ],
      [
        "A",
        "re"
      ],
      [
        "D",
        "on"
      ],
      [
        "S",
        "he"
      ],
      [
        "T",
        "o"
      ],
      [
        "a",
        "x"
      ],
      [
        "g",
        "l"
      ],
      [
        "g",
        "lo"
      ],
      [
        "h",
        "ouse"
      ],
      [
        "i",
        "er"
      ],
      [
        "i",
        "or"
      ],
      [
        "k",
        "es"
      ],
      [
        "s",
        "en"
      ],
      [
        "s",
        "ed"
      ],
      [
        "s",
        "tor"
      ],
      [
        "t",
        "est"
      ],
      [
        "v",
        "en"
      ],
      [
        "w",
        "on"
      ],
      [
        "y",
        "e"
      ],
      [
        "in",
        "du"
      ],
      [
        "an",
        "other"
      ],
      [
        "an",
        "ces"
      ],
      [
        "re",
        "t"
      ],
      [
        "en",
        "sure"
      ],
      [
        "to",
        "o"
      ],
      [
        "to",
        "w"
      ],
      [
        "to",
        "day"
      ],
      [
        "al",
        "ways"
      ],
      [
        "ar",
        "r"
      ],
      [
        "se",
        "curity"
      ],
      [
        "su",
        "ggest"
      ],
      [
        "con",
        "f"
      ],
      [
        "con",
        "ne"
      ],
      [
        "con",
        "tr"
      ],
      [
        "ac",
        "cur"
      ],
      [
        "res",
        "ources"
      ],
      [
        "iv",
        "ing"
      ],
      [
        "wor",
        "d"
      ],
      [
        "wor",
        "ld"
      ],
      [
        "sh",
        "ip"
      ],
      [
        "any",
        "thing"
      ],
      [
        "gr",
        "ap"
      ],
      [
        "ical",
        "ly"
      ],
      [
        "fo",
        "cus"
      ],
      [
        "chan",
        "g"
      ],
      [
        "He",
        "re"
      ],
      [
        "ob",
        "ject"
      ],
      [
        "Th",
        "at"
      ],
      [
        "ev",
        "en"
      ],
      [
        "ert",
        "ain"
      ],
      [
        "top",
        "ic"
      ],
      [
        "mem",
        "ber"
      ],
      [
        "cost",
        "s"
      ],
      [
        "sm",
        "all"
      ],
      [
        "rele",
        "v"
      ],
      [
        "cam",
        "paign"
      ],
      [
        "ident",
        "ify"
      ],
      [
        "algorith",
        "ms"
      ],
      [
        "Over",
        "all"
      ],
      [
        "summ",
        "ary"
      ],
      [
        "langu",
        "age"
      ],
      [
        "Gener",
        "ate"
      ],
      [
        "level",
        "s"
      ],
      [
        "indu",
        "str"
      ],
      [
        "1",
        "2"
      ],
      [
        "A",
        "m"
      ],
      [
        "C",
        "ol"
      ],
      [
        "L",
        "et"
      ],
      [
        "M",
        "ake"
      ],
      [
        "N",
        "o"
      ],
      [
        "c",
        "ame"
      ],
      [
        "d",
        "ig"
      ],
      [
        "e",
        "th"
      ],
      [
        "e",
        "at"
      ],
      [
        "f",
        "ield"
      ],
      [
        "g",
        "er"
      ],
      [
        "i",
        "en"
      ],
      [
        "k",
        "new"
      ],
      [
        "l",
        "ab"
      ],
      [
        "n",
        "er"
      ],
      [
        "o",
        "re"
      ],
      [
        "o",
        "king"
      ],
      [
        "s",
        "tory"
      ],
      [
        "t",
        "as"
      ],
      [
        "t",
        "aking"
      ],
      [
        "u",
        "el"
      ],
      [
        "th",
        "s"
      ],
      [
        "an",
        "im"
      ],
      [
        "re",
        "ach"
      ],
      [
        "on",
        "es"
      ],
      [
        "er",
        "ing"
      ],
      [
        "the",
        "n"
      ],
      [
        "or",
        "der"
      ],
      [
        "as",
        "ing"
      ],
      [
        "as",
        "soci"
      ],
      [
        "st",
        "ay"
      ],
      [
        "st",
        "ill"
      ],
      [
        "st",
        "art"
      ],
      [
        "st",
        "ress"
      ],
      [
        "ch",
        "ild"
      ],
      [
        "for",
        "t"
      ],
      [
        "be",
        "hav"
      ],
      [
        "id",
        "es"
      ],
      [
        "com",
        "b"
      ],
      [
        "com",
        "es"
      ],
      [
        "ke",
        "ep"
      ],
      [
        "mo",
        "ve"
      ],
      [
        "ter",
        "s"
      ],
      [
        "ne",
        "xt"
      ],
      [
        "tr",
        "act"
      ],
      [
        "pl",
        "ain"
      ],
      [
        "ur",
        "ing"
      ],
      [
        "ma",
        "int"
      ],
      [
        "ap",
        "pro"
      ],
      [
        "our",
        "ce"
      ],
      [
        "ist",
        "s"
      ],
      [
        "gr",
        "ound"
      ],
      [
        "dif",
        "fic"
      ],
      [
        "eng",
        "age"
      ],
      [
        "cont",
        "in"
      ],
      [
        "allow",
        "ing"
      ],
      [
        "part",
        "ic"
      ],
      [
        "ition",
        "ally"
      ],
      [
        "set",
        "ting"
      ],
      [
        "eas",
        "y"
      ],
      [
        "tal",
        "k"
      ],
      [
        "resp",
        "ons"
      ],
      [
        "var",
        "ious"
      ],
      [
        "step",
        "s"
      ],
      [
        "Add",
        "itionally"
      ],
      [
        "lie",
        "ve"
      ],
      [
        "chall",
        "eng"
      ],
      [
        "poss",
        "ible"
      ],
      [
        "glo",
        "bal"
      ],
      [
        "relev",
        "ant"
      ],
      [
        "lab",
        "or"
      ],
      [
        "associ",
        "ated"
      ],
      [
        "\"",
        "."
      ],
      [
        "E",
        "very"
      ],
      [
        "F",
        "ren"
      ],
      [
        "T",
        "e"
      ],
      [
        "a",
        "ks"
      ],
      [
        "b",
        "lo"
      ],
      [
        "c",
        "u"
      ],
      [
        "c",
        "ult"
      ],
      [
        "d",
        "ire"
      ],
      [
        "f",
        "as"
      ],
      [
        "f",
        "ace"
      ],
      [
        "f",
        "ree"
      ],
      [
        "g",
        "ot"
      ],
      [
        "g",
        "iven"
      ],
      [
        "h",
        "old"
      ],
      [
        "i",
        "vers"
      ],
      [
        "m",
        "et"
      ],
      [
        "m",
        "ight"
      ],
      [
        "m",
        "ind"
      ],
      [
        "m",
        "ater"
      ],
      [
        "o",
        "g"
      ],
      [
        "p",
        "lo"
      ],
      [
        "p",
        "ain"
      ],
      [
        "r",
        "is"
      ],
      [
        "s",
        "ource"
      ],
      [
        "t",
        "ic"
      ],
      [
        "u",
        "cial"
      ],
      [
        "w",
        "ent"
      ],
      [
        "y",
        "le"
      ],
      [
        "th",
        "or"
      ],
      [
        "in",
        "st"
      ],
      [
        "an",
        "ced"
      ],
      [
        "on",
        "ents"
      ],
      [
        "the",
        "sis"
      ],
      [
        "or",
        "y"
      ],
      [
        "ar",
        "gu"
      ],
      [
        "ic",
        "ations"
      ],
      [
        "ro",
        "le"
      ],
      [
        "be",
        "cause"
      ],
      [
        "be",
        "aut"
      ],
      [
        "be",
        "lieve"
      ],
      [
        "id",
        "er"
      ],
      [
        "ation",
        "al"
      ],
      [
        "ce",
        "ll"
      ],
      [
        "us",
        "es"
      ],
      [
        "te",
        "m"
      ],
      [
        "te",
        "ach"
      ],
      [
        "ig",
        "ence"
      ],
      [
        "ate",
        "ly"
      ],
      [
        "ne",
        "ver"
      ],
      [
        "ul",
        "ation"
      ],
      [
        "ac",
        "ks"
      ],
      [
        "ex",
        "pect"
      ],
      [
        "fe",
        "w"
      ],
      [
        "iv",
        "ed"
      ],
      [
        "op",
        "er"
      ],
      [
        "op",
        "en"
      ],
      [
        "act",
        "ion"
      ],
      [
        "wor",
        "ds"
      ],
      [
        "cre",
        "ating"
      ],
      [
        "sh",
        "are"
      ],
      [
        "co",
        "ver"
      ],
      [
        "pr",
        "of"
      ],
      [
        "ren",
        "t"
      ],
      [
        "help",
        "s"
      ],
      [
        "ass",
        "ist"
      ],
      [
        "bo",
        "ok"
      ],
      [
        "sp",
        "here"
      ],
      [
        "cr",
        "ucial"
      ],
      [
        "ific",
        "ation"
      ],
      [
        "some",
        "thing"
      ],
      [
        "techn",
        "iqu"
      ],
      [
        "ph",
        "o"
      ],
      [
        "cont",
        "rol"
      ],
      [
        "sa",
        "ve"
      ],
      [
        "over",
        "all"
      ],
      [
        "redu",
        "cing"
      ],
      [
        "sto",
        "re"
      ],
      [
        "allow",
        "s"
      ],
      [
        "au",
        "tom"
      ],
      [
        "au",
        "thor"
      ],
      [
        "vis",
        "ual"
      ],
      [
        "rel",
        "ation"
      ],
      [
        "coun",
        "t"
      ],
      [
        "stud",
        "ents"
      ],
      [
        "anal",
        "yz"
      ],
      [
        "individual",
        "s"
      ],
      [
        "quest",
        "ion"
      ],
      [
        "io",
        "x"
      ],
      [
        "tur",
        "n"
      ],
      [
        "jo",
        "y"
      ],
      [
        "proble",
        "m"
      ],
      [
        "mach",
        "ine"
      ],
      [
        "call",
        "ed"
      ],
      [
        "fam",
        "ily"
      ],
      [
        "sci",
        "ent"
      ],
      [
        "De",
        "velop"
      ],
      [
        "resul",
        "t"
      ],
      [
        "effic",
        "ient"
      ],
      [
        "prev",
        "ent"
      ],
      [
        "hum",
        "an"
      ],
      [
        "charact",
        "er"
      ],
      [
        "tas",
        "ks"
      ],
      [
        "Fren",
        "ch"
      ],
      [
        "mater",
        "ial"
      ],
      [
        ",",
        "."
      ],
      [
        "B",
        "r"
      ],
      [
        "T",
        "r"
      ],
      [
        "T",
        "ake"
      ],
      [
        "c",
        "er"
      ],
      [
        "d",
        "it"
      ],
      [
        "d",
        "ate"
      ],
      [
        "f",
        "ix"
      ],
      [
        "f",
        "uel"
      ],
      [
        "g",
        "n"
      ],
      [
        "g",
        "s"
      ],
      [
        "g",
        "ress"
      ],
      [
        "l",
        "ives"
      ],
      [
        "l",
        "itt"
      ],
      [
        "n",
        "ment"
      ],
      [
        "n",
        "ame"
      ],
      [
        "o",
        "c"
      ],
      [
        "p",
        "ing"
      ],
      [
        "p",
        "ed"
      ],
      [
        "p",
        "are"
      ],
      [
        "s",
        "es"
      ],
      [
        "s",
        "le"
      ],
      [
        "s",
        "ources"
      ],
      [
        "t",
        "ar"
      ],
      [
        "u",
        "te"
      ],
      [
        "v",
        "ol"
      ],
      [
        "w",
        "atch"
      ],
      [
        "w",
        "arm"
      ],
      [
        "in",
        "put"
      ],
      [
        "re",
        "w"
      ],
      [
        "re",
        "at"
      ],
      [
        "re",
        "new"
      ],
      [
        "re",
        "comm"
      ],
      [
        "re",
        "ally"
      ],
      [
        "re",
        "cy"
      ],
      [
        "re",
        "search"
      ],
      [
        "re",
        "pres"
      ],
      [
        "er",
        "ic"
      ],
      [
        "is",
        "n"
      ],
      [
        "as",
        "es"
      ],
      [
        "it",
        "er"
      ],
      [
        "il",
        "es"
      ],
      [
        "be",
        "come"
      ],
      [
        "su",
        "ccess"
      ],
      [
        "us",
        "ion"
      ],
      [
        "ver",
        "nment"
      ],
      [
        "de",
        "f"
      ],
      [
        "ab",
        "les"
      ],
      [
        "con",
        "cept"
      ],
      [
        "we",
        "e"
      ],
      [
        "we",
        "ather"
      ],
      [
        "lo",
        "cal"
      ],
      [
        "ac",
        "y"
      ],
      [
        "ac",
        "count"
      ],
      [
        "me",
        "as"
      ],
      [
        "me",
        "ans"
      ],
      [
        "me",
        "chan"
      ],
      [
        "your",
        "self"
      ],
      [
        "pl",
        "ant"
      ],
      [
        "ex",
        "pen"
      ],
      [
        "op",
        "port"
      ],
      [
        "cl",
        "imate"
      ],
      [
        "qu",
        "ality"
      ],
      [
        "co",
        "gn"
      ],
      [
        "go",
        "als"
      ],
      [
        "go",
        "vernment"
      ],
      [
        "tim",
        "es"
      ],
      [
        "Wh",
        "o"
      ],
      [
        "Wh",
        "en"
      ],
      [
        "was",
        "n"
      ],
      [
        "str",
        "ate"
      ],
      [
        "str",
        "ong"
      ],
      [
        "tor",
        "s"
      ],
      [
        "bo",
        "oks"
      ],
      [
        "ear",
        "ly"
      ],
      [
        "pre",
        "d"
      ],
      [
        "eng",
        "ine"
      ],
      [
        "el",
        "se"
      ],
      [
        "av",
        "ing"
      ],
      [
        "differen",
        "ce"
      ],
      [
        "sto",
        "p"
      ],
      [
        "health",
        "care"
      ],
      [
        "cal",
        "cul"
      ],
      [
        "ys",
        "is"
      ],
      [
        "abil",
        "ities"
      ],
      [
        "vir",
        "tual"
      ],
      [
        "cor",
        "p"
      ],
      [
        "business",
        "es"
      ],
      [
        "effect",
        "ive"
      ],
      [
        "serv",
        "ice"
      ],
      [
        "serv",
        "ices"
      ],
      [
        "add",
        "ition"
      ],
      [
        "trans",
        "form"
      ],
      [
        "consum",
        "ption"
      ],
      [
        "quest",
        "ions"
      ],
      [
        "____",
        "____"
      ],
      [
        "comple",
        "x"
      ],
      [
        "Des",
        "cribe"
      ],
      [
        "Un",
        "ited"
      ],
      [
        "publ",
        "ic"
      ],
      [
        "tool",
        "s"
      ],
      [
        "conne",
        "ct"
      ],
      [
        "Am",
        "eric"
      ],
      [
        "partic",
        "ular"
      ],
      [
        "pho",
        "to"
      ],
      [
        "renew",
        "able"
      ],
      [
        "opport",
        "un"
      ],
      [
        "A",
        "r"
      ],
      [
        "D",
        "id"
      ],
      [
        "F",
        "in"
      ],
      [
        "G",
        "ive"
      ],
      [
        "J",
        "o"
      ],
      [
        "M",
        "y"
      ],
      [
        "N",
        "e"
      ],
      [
        "P",
        "r"
      ],
      [
        "P",
        "erson"
      ],
      [
        "W",
        "r"
      ],
      [
        "a",
        "id"
      ],
      [
        "b",
        "ro"
      ],
      [
        "b",
        "ig"
      ],
      [
        "c",
        "ertain"
      ],
      [
        "d",
        "uring"
      ],
      [
        "e",
        "le"
      ],
      [
        "f",
        "act"
      ],
      [
        "f",
        "av"
      ],
      [
        "g",
        "en"
      ],
      [
        "h",
        "es"
      ],
      [
        "i",
        "an"
      ],
      [
        "l",
        "and"
      ],
      [
        "l",
        "ay"
      ],
      [
        "m",
        "or"
      ],
      [
        "m",
        "ess"
      ],
      [
        "m",
        "ult"
      ],
      [
        "n",
        "g"
      ],
      [
        "n",
        "u"
      ],
      [
        "n",
        "on"
      ],
      [
        "o",
        "te"
      ],
      [
        "r",
        "un"
      ],
      [
        "s",
        "cal"
      ],
      [
        "t",
        "ed"
      ],
      [
        "t",
        "ag"
      ],
      [
        "v",
        "ed"
      ],
      [
        "v",
        "ide"
      ],
      [
        "w",
        "a"
      ],
      [
        "w",
        "in"
      ],
      [
        "th",
        "od"
      ],
      [
        "an",
        "ing"
      ],
      [
        "re",
        "ed"
      ],
      [
        "re",
        "port"
      ],
      [
        "at",
        "mo"
      ],
      [
        "at",
        "tract"
      ],
      [
        "en",
        "joy"
      ],
      [
        "or",
        "ite"
      ],
      [
        "is",
        "m"
      ],
      [
        "is",
        "ing"
      ],
      [
        "is",
        "su"
      ],
      [
        "as",
        "h"
      ],
      [
        "le",
        "ast"
      ],
      [
        "ic",
        "ate"
      ],
      [
        "il",
        "ity"
      ],
      [
        "be",
        "fore"
      ],
      [
        "pro",
        "per"
      ],
      [
        "ad",
        "vert"
      ],
      [
        "me",
        "thod"
      ],
      [
        "ess",
        "ential"
      ],
      [
        "tr",
        "aining"
      ],
      [
        "with",
        "in"
      ],
      [
        "his",
        "tory"
      ],
      [
        "ut",
        "ing"
      ],
      [
        "ut",
        "ure"
      ],
      [
        "op",
        "tim"
      ],
      [
        "op",
        "tion"
      ],
      [
        "do",
        "or"
      ],
      [
        "sh",
        "op"
      ],
      [
        "sh",
        "ort"
      ],
      [
        "co",
        "de"
      ],
      [
        "po",
        "se"
      ],
      [
        "pr",
        "int"
      ],
      [
        "work",
        "ing"
      ],
      [
        "know",
        "led"
      ],
      [
        "fo",
        "rest"
      ],
      [
        "comm",
        "on"
      ],
      [
        "ple",
        "ment"
      ],
      [
        "spe",
        "cial"
      ],
      [
        "produ",
        "ce"
      ],
      [
        "col",
        "lect"
      ],
      [
        "no",
        "thing"
      ],
      [
        "differen",
        "ces"
      ],
      [
        "bus",
        "y"
      ],
      [
        "health",
        "y"
      ],
      [
        "incre",
        "asing"
      ],
      [
        "includ",
        "es"
      ],
      [
        "inte",
        "gr"
      ],
      [
        "ak",
        "es"
      ],
      [
        "cho",
        "ose"
      ],
      [
        "plan",
        "et"
      ],
      [
        "product",
        "s"
      ],
      [
        "fac",
        "il"
      ],
      [
        "Con",
        "t"
      ],
      [
        "list",
        "en"
      ],
      [
        "stud",
        "y"
      ],
      [
        "resp",
        "on"
      ],
      [
        "val",
        "ue"
      ],
      [
        "anal",
        "ysis"
      ],
      [
        "cons",
        "ider"
      ],
      [
        "var",
        "i"
      ],
      [
        "St",
        "ates"
      ],
      [
        "pop",
        "ular"
      ],
      [
        "ran",
        "ge"
      ],
      [
        "pol",
        "ic"
      ],
      [
        "iss",
        "ions"
      ],
      [
        "ask",
        "ed"
      ],
      [
        "regular",
        "ly"
      ],
      [
        "grou",
        "ps"
      ],
      [
        "purch",
        "ase"
      ],
      [
        "stor",
        "age"
      ],
      [
        "grap",
        "h"
      ],
      [
        "industr",
        "y"
      ],
      [
        "dig",
        "ital"
      ],
      [
        "appro",
        "ach"
      ],
      [
        "diffic",
        "ult"
      ],
      [
        "relation",
        "ship"
      ],
      [
        "litt",
        "le"
      ],
      [
        "tar",
        "get"
      ],
      [
        "recomm",
        "end"
      ],
      [
        "fav",
        "orite"
      ],
      [
        "atmo",
        "sphere"
      ],
      [
        "1",
        "9"
      ],
      [
        "2",
        "0"
      ],
      [
        "A",
        "ct"
      ],
      [
        "D",
        "is"
      ],
      [
        "F",
        "or"
      ],
      [
        "G",
        "iven"
      ],
      [
        "K",
        "e"
      ],
      [
        "L",
        "e"
      ],
      [
        "L",
        "ist"
      ],
      [
        "M",
        "ay"
      ],
      [
        "U",
        "se"
      ],
      [
        "W",
        "ith"
      ],
      [
        "W",
        "here"
      ],
      [
        "b",
        "as"
      ],
      [
        "b",
        "ers"
      ],
      [
        "c",
        "ut"
      ],
      [
        "c",
        "ity"
      ],
      [
        "c",
        "ure"
      ],
      [
        "c",
        "lear"
      ],
      [
        "c",
        "ities"
      ],
      [
        "d",
        "ivid"
      ],
      [
        "d",
        "iox"
      ],
      [
        "e",
        "qu"
      ],
      [
        "e",
        "yes"
      ],
      [
        "f",
        "ar"
      ],
      [
        "g",
        "ative"
      ],
      [
        "h",
        "n"
      ],
      [
        "h",
        "ab"
      ],
      [
        "i",
        "res"
      ],
      [
        "l",
        "ate"
      ],
      [
        "m",
        "i"
      ],
      [
        "m",
        "om"
      ],
      [
        "m",
        "un"
      ],
      [
        "m",
        "ist"
      ],
      [
        "o",
        "id"
      ],
      [
        "s",
        "at"
      ],
      [
        "s",
        "ent"
      ],
      [
        "s",
        "ound"
      ],
      [
        "t",
        "il"
      ],
      [
        "t",
        "ren"
      ],
      [
        "t",
        "ree"
      ],
      [
        "u",
        "it"
      ],
      [
        "w",
        "it"
      ],
      [
        "w",
        "are"
      ],
      [
        "w",
        "ide"
      ],
      [
        "re",
        "li"
      ],
      [
        "re",
        "cent"
      ],
      [
        "re",
        "member"
      ],
      [
        "re",
        "cogn"
      ],
      [
        "at",
        "a"
      ],
      [
        "at",
        "ures"
      ],
      [
        "to",
        "uch"
      ],
      [
        "is",
        "f"
      ],
      [
        "ar",
        "k"
      ],
      [
        "ar",
        "ing"
      ],
      [
        "it",
        "em"
      ],
      [
        "le",
        "ction"
      ],
      [
        "st",
        "ain"
      ],
      [
        "st",
        "yle"
      ],
      [
        "ch",
        "es"
      ],
      [
        "ch",
        "ing"
      ],
      [
        "ve",
        "get"
      ],
      [
        "you",
        "ng"
      ],
      [
        "ro",
        "om"
      ],
      [
        "ro",
        "ll"
      ],
      [
        "im",
        "med"
      ],
      [
        "id",
        "ence"
      ],
      [
        "su",
        "per"
      ],
      [
        "su",
        "stain"
      ],
      [
        "ol",
        "ution"
      ],
      [
        "pro",
        "gress"
      ],
      [
        "if",
        "ied"
      ],
      [
        "con",
        "cl"
      ],
      [
        "am",
        "ount"
      ],
      [
        "com",
        "fort"
      ],
      [
        "ad",
        "ap"
      ],
      [
        "mo",
        "tion"
      ],
      [
        "ter",
        "day"
      ],
      [
        "ter",
        "nat"
      ],
      [
        "ne",
        "l"
      ],
      [
        "ne",
        "gative"
      ],
      [
        "lo",
        "ss"
      ],
      [
        "tr",
        "u"
      ],
      [
        "ma",
        "kes"
      ],
      [
        "iv",
        "ities"
      ],
      [
        "cl",
        "oud"
      ],
      [
        "ain",
        "s"
      ],
      [
        "ill",
        "ed"
      ],
      [
        "ap",
        "p"
      ],
      [
        "ap",
        "er"
      ],
      [
        "qu",
        "ant"
      ],
      [
        "ll",
        "igence"
      ],
      [
        "em",
        "plo"
      ],
      [
        "pr",
        "iv"
      ],
      [
        "ide",
        "a"
      ],
      [
        "comp",
        "any"
      ],
      [
        "comp",
        "onents"
      ],
      [
        "comp",
        "uting"
      ],
      [
        "In",
        "ter"
      ],
      [
        "low",
        "er"
      ],
      [
        "ual",
        "ly"
      ],
      [
        "new",
        "s"
      ],
      [
        "sp",
        "ace"
      ],
      [
        "ear",
        "ch"
      ],
      [
        "pre",
        "feren"
      ],
      [
        "ific",
        "ial"
      ],
      [
        "sy",
        "n"
      ],
      [
        "ib",
        "ility"
      ],
      [
        "ire",
        "d"
      ],
      [
        "eng",
        "aging"
      ],
      [
        "av",
        "oid"
      ],
      [
        "ful",
        "ly"
      ],
      [
        "need",
        "s"
      ],
      [
        "cur",
        "rent"
      ],
      [
        "ss",
        "il"
      ],
      [
        "technolo",
        "gies"
      ],
      [
        "incre",
        "ased"
      ],
      [
        "How",
        "ever"
      ],
      [
        "part",
        "y"
      ],
      [
        "ish",
        "ed"
      ],
      [
        "eas",
        "ily"
      ],
      [
        "inte",
        "lligence"
      ],
      [
        "off",
        "er"
      ],
      [
        "vis",
        "ed"
      ],
      [
        "fac",
        "es"
      ],
      [
        "adv",
        "ant"
      ],
      [
        "lar",
        "ger"
      ],
      [
        "sm",
        "art"
      ],
      [
        "friend",
        "s"
      ],
      [
        "effect",
        "s"
      ],
      [
        "00",
        "0"
      ],
      [
        "Ex",
        "plain"
      ],
      [
        "pop",
        "ulation"
      ],
      [
        "sk",
        "ills"
      ],
      [
        "provid",
        "es"
      ],
      [
        "pass",
        "word"
      ],
      [
        "aw",
        "are"
      ],
      [
        "che",
        "ck"
      ],
      [
        "every",
        "one"
      ],
      [
        "comple",
        "te"
      ],
      [
        "proble",
        "ms"
      ],
      [
        "interact",
        "ive"
      ],
      [
        "typ",
        "es"
      ],
      [
        "typ",
        "ically"
      ],
      [
        "manage",
        "ment"
      ],
      [
        "require",
        "ments"
      ],
      [
        "econom",
        "ic"
      ],
      [
        "lim",
        "it"
      ],
      [
        "state",
        "ment"
      ],
      [
        "decis",
        "ion"
      ],
      [
        "ven",
        "ue"
      ],
      [
        "tow",
        "n"
      ],
      [
        "contr",
        "ast"
      ],
      [
        "chang",
        "es"
      ],
      [
        "eth",
        "ical"
      ],
      [
        "behav",
        "ior"
      ],
      [
        "challeng",
        "es"
      ],
      [
        "cult",
        "ural"
      ],
      [
        "tem",
        "per"
      ],
      [
        "material",
        "s"
      ],
      [
        "fuel",
        "s"
      ],
      [
        "recy",
        "cl"
      ],
      [
        "success",
        "ful"
      ],
      [
        "pred",
        "ict"
      ],
      [
        "opportun",
        "ities"
      ],
      [
        "Jo",
        "hn"
      ],
      [
        "reed",
        "om"
      ],
      [
        "advert",
        "ising"
      ],
      [
        "knowled",
        "ge"
      ],
      [
        "diox",
        "ide"
      ],
      [
        "sat",
        "isf"
      ],
      [
        "immed",
        "i"
      ],
      [
        "!",
        "."
      ],
      [
        "1",
        "8"
      ],
      [
        "3",
        "0"
      ],
      [
        "5",
        "0"
      ],
      [
        "A",
        "p"
      ],
      [
        "A",
        "u"
      ],
      [
        "B",
        "re"
      ],
      [
        "B",
        "oth"
      ],
      [
        "D",
        "ata"
      ],
      [
        "E",
        "du"
      ],
      [
        "F",
        "o"
      ],
      [
        "G",
        "o"
      ],
      [
        "I",
        "m"
      ],
      [
        "M",
        "any"
      ],
      [
        "S",
        "o"
      ],
      [
        "S",
        "u"
      ],
      [
        "W",
        "ill"
      ],
      [
        "W",
        "ater"
      ],
      [
        "Y",
        "our"
      ],
      [
        "a",
        "th"
      ],
      [
        "a",
        "im"
      ],
      [
        "b",
        "an"
      ],
      [
        "b",
        "ar"
      ],
      [
        "b",
        "ed"
      ],
      [
        "b",
        "ir"
      ],
      [
        "b",
        "est"
      ],
      [
        "c",
        "ro"
      ],
      [
        "c",
        "ir"
      ],
      [
        "c",
        "up"
      ],
      [
        "d",
        "i"
      ],
      [
        "d",
        "ou"
      ],
      [
        "d",
        "ro"
      ],
      [
        "d",
        "one"
      ],
      [
        "d",
        "ist"
      ],
      [
        "e",
        "gg"
      ],
      [
        "f",
        "l"
      ],
      [
        "f",
        "t"
      ],
      [
        "f",
        "it"
      ],
      [
        "f",
        "air"
      ],
      [
        "f",
        "uture"
      ],
      [
        "f",
        "reedom"
      ],
      [
        "g",
        "ar"
      ],
      [
        "g",
        "am"
      ],
      [
        "g",
        "ive"
      ],
      [
        "g",
        "ame"
      ],
      [
        "g",
        "iving"
      ],
      [
        "h",
        "arm"
      ],
      [
        "i",
        "ers"
      ],
      [
        "k",
        "ind"
      ],
      [
        "l",
        "a"
      ],
      [
        "l",
        "ast"
      ],
      [
        "l",
        "ines"
      ],
      [
        "m",
        "ag"
      ],
      [
        "m",
        "ine"
      ],
      [
        "p",
        "ie"
      ],
      [
        "p",
        "ict"
      ],
      [
        "r",
        "ic"
      ],
      [
        "r",
        "ich"
      ],
      [
        "r",
        "ise"
      ],
      [
        "s",
        "or"
      ],
      [
        "s",
        "ch"
      ],
      [
        "s",
        "mo"
      ],
      [
        "s",
        "ame"
      ],
      [
        "s",
        "cho"
      ],
      [
        "s",
        "ides"
      ],
      [
        "t",
        "on"
      ],
      [
        "t",
        "ions"
      ],
      [
        "t",
        "ax"
      ],
      [
        "u",
        "su"
      ],
      [
        "w",
        "ar"
      ],
      [
        "w",
        "ind"
      ],
      [
        "th",
        "ir"
      ],
      [
        "th",
        "ose"
      ],
      [
        "in",
        "ing"
      ],
      [
        "in",
        "ce"
      ],
      [
        "an",
        "cial"
      ],
      [
        "re",
        "mo"
      ],
      [
        "on",
        "ic"
      ],
      [
        "at",
        "s"
      ],
      [
        "en",
        "e"
      ],
      [
        "en",
        "se"
      ],
      [
        "ou",
        "th"
      ],
      [
        "or",
        "ies"
      ],
      [
        "or",
        "row"
      ],
      [
        "and",
        "s"
      ],
      [
        "al",
        "le"
      ],
      [
        "al",
        "ternat"
      ],
      [
        "ar",
        "s"
      ],
      [
        "of",
        "fe"
      ],
      [
        "le",
        "aks"
      ],
      [
        "le",
        "aving"
      ],
      [
        "ic",
        "ity"
      ],
      [
        "st",
        "e"
      ],
      [
        "st",
        "er"
      ],
      [
        "ent",
        "ion"
      ],
      [
        "ent",
        "ire"
      ],
      [
        "se",
        "as"
      ],
      [
        "se",
        "qu"
      ],
      [
        "se",
        "cure"
      ],
      [
        "il",
        "ar"
      ],
      [
        "im",
        "plement"
      ],
      [
        "be",
        "came"
      ],
      [
        "su",
        "f"
      ],
      [
        "su",
        "gar"
      ],
      [
        "are",
        "a"
      ],
      [
        "te",
        "red"
      ],
      [
        "de",
        "li"
      ],
      [
        "con",
        "vers"
      ],
      [
        "am",
        "pl"
      ],
      [
        "com",
        "ing"
      ],
      [
        "un",
        "til"
      ],
      [
        "mo",
        "der"
      ],
      [
        "mo",
        "vie"
      ],
      [
        "lo",
        "cation"
      ],
      [
        "lo",
        "oks"
      ],
      [
        "me",
        "aning"
      ],
      [
        "tr",
        "i"
      ],
      [
        "tr",
        "ies"
      ],
      [
        "tr",
        "ied"
      ],
      [
        "ex",
        "c"
      ],
      [
        "ex",
        "ist"
      ],
      [
        "ma",
        "j"
      ],
      [
        "ut",
        "ions"
      ],
      [
        "act",
        "ivities"
      ],
      [
        "qu",
        "ick"
      ],
      [
        "our",
        "s"
      ],
      [
        "iz",
        "ing"
      ],
      [
        "em",
        "issions"
      ],
      [
        "was",
        "te"
      ],
      [
        "ight",
        "s"
      ],
      [
        "gr",
        "ad"
      ],
      [
        "comp",
        "et"
      ],
      [
        "fo",
        "ssil"
      ],
      [
        "bo",
        "x"
      ],
      [
        "cr",
        "y"
      ],
      [
        "pre",
        "par"
      ],
      [
        "sit",
        "u"
      ],
      [
        "ous",
        "ly"
      ],
      [
        "thing",
        "s"
      ],
      [
        "prov",
        "ed"
      ],
      [
        "des",
        "ert"
      ],
      [
        "spe",
        "ak"
      ],
      [
        "av",
        "ail"
      ],
      [
        "chan",
        "nel"
      ],
      [
        "col",
        "labor"
      ],
      [
        "gg",
        "ing"
      ],
      [
        "commun",
        "ity"
      ],
      [
        "eas",
        "ier"
      ],
      [
        "light",
        "ing"
      ],
      [
        "off",
        "ice"
      ],
      [
        "hap",
        "p"
      ],
      [
        "coun",
        "try"
      ],
      [
        "high",
        "er"
      ],
      [
        "point",
        "s"
      ],
      [
        "prom",
        "ot"
      ],
      [
        "prom",
        "pt"
      ],
      [
        "prom",
        "ote"
      ],
      [
        "cri",
        "ption"
      ],
      [
        "long",
        "er"
      ],
      [
        "val",
        "ues"
      ],
      [
        "read",
        "y"
      ],
      [
        "class",
        "ification"
      ],
      [
        "gener",
        "ate"
      ],
      [
        "pur",
        "pose"
      ],
      [
        "add",
        "ress"
      ],
      [
        "An",
        "other"
      ],
      [
        "cap",
        "t"
      ],
      [
        "wr",
        "iting"
      ],
      [
        "provid",
        "ing"
      ],
      [
        "pol",
        "l"
      ],
      [
        "soci",
        "ety"
      ],
      [
        "understand",
        "ing"
      ],
      [
        "iqu",
        "e"
      ],
      [
        "cle",
        "an"
      ],
      [
        "sim",
        "ple"
      ],
      [
        "ins",
        "ights"
      ],
      [
        "build",
        "ing"
      ],
      [
        "On",
        "ce"
      ],
      [
        "lu",
        "ck"
      ],
      [
        "program",
        "s"
      ],
      [
        "yes",
        "terday"
      ],
      [
        "invest",
        "ment"
      ],
      [
        "vo",
        "ice"
      ],
      [
        "ref",
        "ers"
      ],
      [
        "reas",
        "on"
      ],
      [
        "reas",
        "ons"
      ],
      [
        "decis",
        "ions"
      ],
      [
        "sen",
        "se"
      ],
      [
        "ye",
        "es"
      ],
      [
        "campaign",
        "s"
      ],
      [
        "ien",
        "cy"
      ],
      [
        "child",
        "ren"
      ],
      [
        "engage",
        "ment"
      ],
      [
        "cell",
        "ent"
      ],
      [
        "techniqu",
        "es"
      ],
      [
        "author",
        "ized"
      ],
      [
        "analyz",
        "ing"
      ],
      [
        "dit",
        "ions"
      ],
      [
        "repres",
        "ent"
      ],
      [
        "wee",
        "k"
      ],
      [
        "meas",
        "ures"
      ],
      [
        "expen",
        "ses"
      ],
      [
        "corp",
        "or"
      ],
      [
        "Wr",
        "ite"
      ],
      [
        "mor",
        "ning"
      ],
      [
        "mult",
        "i"
      ],
      [
        "listen",
        "ing"
      ],
      [
        "relationship",
        "s"
      ],
      [
        "recommend",
        "ations"
      ],
      [
        "Ke",
        "ep"
      ],
      [
        "bas",
        "ic"
      ],
      [
        "sustain",
        "able"
      ],
      [
        "motion",
        "al"
      ],
      [
        "emplo",
        "yees"
      ],
      [
        "preferen",
        "ces"
      ],
      [
        "temper",
        "ature"
      ],
      [
        "recycl",
        "ing"
      ],
      [
        "immedi",
        "ately"
      ],
      [
        "scho",
        "ol"
      ],
      [
        "usu",
        "ally"
      ],
      [
        "offe",
        "e"
      ],
      [
        "moder",
        "n"
      ],
      [
        "quick",
        "ly"
      ],
      [
        ")",
        ":"
      ],
      [
        "A",
        "ccess"
      ],
      [
        "C",
        "l"
      ],
      [
        "D",
        "ef"
      ],
      [
        "E",
        "ar"
      ],
      [
        "H",
        "is"
      ],
      [
        "I",
        "D"
      ],
      [
        "L",
        "o"
      ],
      [
        "P",
        "o"
      ],
      [
        "R",
        "es"
      ],
      [
        "S",
        "h"
      ],
      [
        "S",
        "p"
      ],
      [
        "S",
        "earch"
      ],
      [
        "a",
        "fr"
      ],
      [
        "b",
        "and"
      ],
      [
        "b",
        "all"
      ],
      [
        "b",
        "ile"
      ],
      [
        "c",
        "ate"
      ],
      [
        "c",
        "ks"
      ],
      [
        "c",
        "tor"
      ],
      [
        "c",
        "ase"
      ],
      [
        "c",
        "ise"
      ],
      [
        "c",
        "offee"
      ],
      [
        "d",
        "om"
      ],
      [
        "d",
        "am"
      ],
      [
        "d",
        "ail"
      ],
      [
        "e",
        "motional"
      ],
      [
        "f",
        "ive"
      ],
      [
        "f",
        "our"
      ],
      [
        "f",
        "ather"
      ],
      [
        "g",
        "in"
      ],
      [
        "g",
        "ard"
      ],
      [
        "h",
        "on"
      ],
      [
        "h",
        "ing"
      ],
      [
        "h",
        "om"
      ],
      [
        "h",
        "ar"
      ],
      [
        "h",
        "ot"
      ],
      [
        "h",
        "ind"
      ],
      [
        "h",
        "ip"
      ],
      [
        "h",
        "ours"
      ],
      [
        "l",
        "er"
      ],
      [
        "l",
        "ive"
      ],
      [
        "l",
        "one"
      ],
      [
        "m",
        "ing"
      ],
      [
        "m",
        "al"
      ],
      [
        "m",
        "ill"
      ],
      [
        "m",
        "iss"
      ],
      [
        "o",
        "s"
      ],
      [
        "o",
        "ve"
      ],
      [
        "p",
        "an"
      ],
      [
        "p",
        "at"
      ],
      [
        "p",
        "et"
      ],
      [
        "p",
        "ast"
      ],
      [
        "p",
        "air"
      ],
      [
        "r",
        "u"
      ],
      [
        "r",
        "al"
      ],
      [
        "r",
        "ap"
      ],
      [
        "r",
        "ound"
      ],
      [
        "s",
        "l"
      ],
      [
        "s",
        "ha"
      ],
      [
        "s",
        "cre"
      ],
      [
        "s",
        "co"
      ],
      [
        "s",
        "end"
      ],
      [
        "s",
        "ide"
      ],
      [
        "t",
        "able"
      ],
      [
        "t",
        "akes"
      ],
      [
        "v",
        "it"
      ],
      [
        "w",
        "ard"
      ],
      [
        "th",
        "in"
      ],
      [
        "th",
        "ough"
      ],
      [
        "in",
        "come"
      ],
      [
        "in",
        "corpor"
      ],
      [
        "an",
        "e"
      ],
      [
        "re",
        "ce"
      ],
      [
        "re",
        "venue"
      ],
      [
        "er",
        "ous"
      ],
      [
        "at",
        "bot"
      ],
      [
        "at",
        "ory"
      ],
      [
        "en",
        "ough"
      ],
      [
        "to",
        "tal"
      ],
      [
        "le",
        "g"
      ],
      [
        "le",
        "ave"
      ],
      [
        "le",
        "ft"
      ],
      [
        "ic",
        "le"
      ],
      [
        "ic",
        "ine"
      ],
      [
        "st",
        "ret"
      ],
      [
        "he",
        "ar"
      ],
      [
        "ent",
        "ly"
      ],
      [
        "ro",
        "bot"
      ],
      [
        "se",
        "a"
      ],
      [
        "se",
        "en"
      ],
      [
        "se",
        "em"
      ],
      [
        "il",
        "t"
      ],
      [
        "im",
        "ent"
      ],
      [
        "im",
        "ag"
      ],
      [
        "im",
        "pl"
      ],
      [
        "im",
        "ages"
      ],
      [
        "be",
        "hind"
      ],
      [
        "ce",
        "an"
      ],
      [
        "are",
        "as"
      ],
      [
        "de",
        "m"
      ],
      [
        "de",
        "ep"
      ],
      [
        "if",
        "t"
      ],
      [
        "if",
        "ul"
      ],
      [
        "con",
        "cer"
      ],
      [
        "con",
        "ditions"
      ],
      [
        "can",
        "not"
      ],
      [
        "am",
        "oun"
      ],
      [
        "ad",
        "ition"
      ],
      [
        "ag",
        "ed"
      ],
      [
        "un",
        "ch"
      ],
      [
        "un",
        "ivers"
      ],
      [
        "un",
        "ique"
      ],
      [
        "un",
        "authorized"
      ],
      [
        "mo",
        "bile"
      ],
      [
        "ter",
        "m"
      ],
      [
        "ter",
        "ms"
      ],
      [
        "we",
        "l"
      ],
      [
        "we",
        "ight"
      ],
      [
        "lo",
        "oking"
      ],
      [
        "ul",
        "ations"
      ],
      [
        "ac",
        "es"
      ],
      [
        "ess",
        "ion"
      ],
      [
        "tr",
        "ain"
      ],
      [
        "tr",
        "ib"
      ],
      [
        "tr",
        "adition"
      ],
      [
        "pl",
        "ants"
      ],
      [
        "ex",
        "cellent"
      ],
      [
        "res",
        "olution"
      ],
      [
        "ur",
        "y"
      ],
      [
        "ur",
        "ther"
      ],
      [
        "ment",
        "al"
      ],
      [
        "ma",
        "in"
      ],
      [
        "ut",
        "es"
      ],
      [
        "act",
        "ive"
      ],
      [
        "ap",
        "point"
      ],
      [
        "do",
        "cu"
      ],
      [
        "du",
        "e"
      ],
      [
        "co",
        "oking"
      ],
      [
        "per",
        "form"
      ],
      [
        "em",
        "br"
      ],
      [
        "port",
        "ation"
      ],
      [
        "any",
        "one"
      ],
      [
        "po",
        "sed"
      ],
      [
        "pr",
        "act"
      ],
      [
        "Wh",
        "ich"
      ],
      [
        "help",
        "ing"
      ],
      [
        "ide",
        "red"
      ],
      [
        "str",
        "ict"
      ],
      [
        "form",
        "s"
      ],
      [
        "tom",
        "orrow"
      ],
      [
        "ard",
        "ing"
      ],
      [
        "eng",
        "ths"
      ],
      [
        "eng",
        "aged"
      ],
      [
        "spe",
        "ed"
      ],
      [
        "av",
        "es"
      ],
      [
        "ful",
        "l"
      ],
      [
        "ph",
        "ones"
      ],
      [
        "inter",
        "net"
      ],
      [
        "olo",
        "g"
      ],
      [
        "day",
        "s"
      ],
      [
        "ress",
        "ion"
      ],
      [
        "car",
        "ry"
      ],
      [
        "sa",
        "w"
      ],
      [
        "sa",
        "fe"
      ],
      [
        "ser",
        "ve"
      ],
      [
        "ser",
        "ies"
      ],
      [
        "col",
        "le"
      ],
      [
        "col",
        "ors"
      ],
      [
        "dr",
        "iven"
      ],
      [
        "sto",
        "od"
      ],
      [
        "allow",
        "ed"
      ],
      [
        "ev",
        "ents"
      ],
      [
        "med",
        "icine"
      ],
      [
        "commun",
        "ities"
      ],
      [
        "ca",
        "used"
      ],
      [
        "bu",
        "y"
      ],
      [
        "gre",
        "en"
      ],
      [
        "rel",
        "ated"
      ],
      [
        "coun",
        "tries"
      ],
      [
        "requ",
        "ires"
      ],
      [
        "cho",
        "ice"
      ],
      [
        "sur",
        "ing"
      ],
      [
        "plan",
        "ning"
      ],
      [
        "En",
        "g"
      ],
      [
        "En",
        "gl"
      ],
      [
        "adv",
        "ice"
      ],
      [
        "adv",
        "anced"
      ],
      [
        "mem",
        "bers"
      ],
      [
        "cor",
        "ding"
      ],
      [
        "cent",
        "er"
      ],
      [
        "power",
        "ful"
      ],
      [
        "resp",
        "ir"
      ],
      [
        "cons",
        "idered"
      ],
      [
        "class",
        "es"
      ],
      [
        "Ex",
        "per"
      ],
      [
        "trans",
        "portation"
      ],
      [
        "fun",
        "ction"
      ],
      [
        "consum",
        "er"
      ],
      [
        "consum",
        "ing"
      ],
      [
        "personal",
        "ized"
      ],
      [
        "St",
        "art"
      ],
      [
        "bre",
        "a"
      ],
      [
        "bre",
        "ak"
      ],
      [
        "wr",
        "it"
      ],
      [
        "wr",
        "ite"
      ],
      [
        "dec",
        "id"
      ],
      [
        "pass",
        "ed"
      ],
      [
        "rele",
        "ase"
      ],
      [
        "af",
        "fect"
      ],
      [
        "exp",
        "and"
      ],
      [
        "Des",
        "ign"
      ],
      [
        "min",
        "utes"
      ],
      [
        "sim",
        "ilar"
      ],
      [
        "ens",
        "ive"
      ],
      [
        "mach",
        "ines"
      ],
      [
        "significant",
        "ly"
      ],
      [
        "det",
        "er"
      ],
      [
        "again",
        "st"
      ],
      [
        "sci",
        "ence"
      ],
      [
        "itt",
        "ed"
      ],
      [
        "sub",
        "s"
      ],
      [
        "econom",
        "y"
      ],
      [
        "tre",
        "es"
      ],
      [
        "appl",
        "ication"
      ],
      [
        "struct",
        "ure"
      ],
      [
        "electr",
        "icity"
      ],
      [
        "hard",
        "ware"
      ],
      [
        "sal",
        "es"
      ],
      [
        "tra",
        "vel"
      ],
      [
        "grou",
        "p"
      ],
      [
        "test",
        "ing"
      ],
      [
        "accur",
        "ate"
      ],
      [
        "accur",
        "acy"
      ],
      [
        "anim",
        "al"
      ],
      [
        "anim",
        "als"
      ],
      [
        "maint",
        "ain"
      ],
      [
        "contin",
        "u"
      ],
      [
        "dire",
        "ct"
      ],
      [
        "dire",
        "ction"
      ],
      [
        "fas",
        "ter"
      ],
      [
        "ris",
        "k"
      ],
      [
        "tic",
        "ket"
      ],
      [
        "beaut",
        "y"
      ],
      [
        "beaut",
        "iful"
      ],
      [
        "teach",
        "er"
      ],
      [
        "expect",
        "ed"
      ],
      [
        "fix",
        "ed"
      ],
      [
        "def",
        "ine"
      ],
      [
        "strate",
        "gies"
      ],
      [
        "Americ",
        "a"
      ],
      [
        "particular",
        "ly"
      ],
      [
        "photo",
        "syn"
      ],
      [
        "scal",
        "e"
      ],
      [
        "issu",
        "es"
      ],
      [
        "facil",
        "it"
      ],
      [
        "mom",
        "ent"
      ],
      [
        "mist",
        "ake"
      ],
      [
        "veget",
        "ables"
      ],
      [
        "concl",
        "usion"
      ],
      [
        "adap",
        "t"
      ],
      [
        "aware",
        "ness"
      ],
      [
        "Ap",
        "ple"
      ],
      [
        "Edu",
        "cation"
      ],
      [
        "Su",
        "ggest"
      ],
      [
        "dou",
        "b"
      ],
      [
        "gam",
        "ing"
      ],
      [
        "pict",
        "ure"
      ],
      [
        "maj",
        "or"
      ],
      [
        "prepar",
        "ing"
      ],
      [
        "channel",
        "s"
      ],
      [
        "multi",
        "ple"
      ],
      [
        "Ear",
        "th"
      ],
      [
        "afr",
        "aid"
      ],
      [
        "dail",
        "y"
      ],
      [
        "hon",
        "est"
      ],
      [
        "amoun",
        "ts"
      ],
      [
        "tradition",
        "al"
      ],
      [
        "photosyn",
        "thesis"
      ],
      [
        ")",
        ","
      ],
      [
        ",",
        "\""
      ],
      [
        "2",
        "4"
      ],
      [
        "3",
        "7"
      ],
      [
        "A",
        "M"
      ],
      [
        "B",
        "o"
      ],
      [
        "B",
        "ut"
      ],
      [
        "B",
        "ased"
      ],
      [
        "C",
        "us"
      ],
      [
        "C",
        "ome"
      ],
      [
        "C",
        "ho"
      ],
      [
        "E",
        "f"
      ],
      [
        "E",
        "m"
      ],
      [
        "F",
        "r"
      ],
      [
        "G",
        "et"
      ],
      [
        "H",
        "er"
      ],
      [
        "H",
        "ave"
      ],
      [
        "I",
        "d"
      ],
      [
        "J",
        "ust"
      ],
      [
        "M",
        "ount"
      ],
      [
        "N",
        "or"
      ],
      [
        "N",
        "ame"
      ],
      [
        "O",
        "p"
      ],
      [
        "P",
        "l"
      ],
      [
        "P",
        "le"
      ],
      [
        "R",
        "ene"
      ],
      [
        "S",
        "E"
      ],
      [
        "S",
        "e"
      ],
      [
        "T",
        "V"
      ],
      [
        "T",
        "im"
      ],
      [
        "U",
        "sing"
      ],
      [
        "V",
        "ir"
      ],
      [
        "W",
        "or"
      ],
      [
        "W",
        "ar"
      ],
      [
        "W",
        "ould"
      ],
      [
        "Y",
        "ear"
      ],
      [
        "a",
        "ur"
      ],
      [
        "a",
        "way"
      ],
      [
        "b",
        "ur"
      ],
      [
        "b",
        "ud"
      ],
      [
        "b",
        "arr"
      ],
      [
        "c",
        "as"
      ],
      [
        "c",
        "op"
      ],
      [
        "d",
        "en"
      ],
      [
        "e",
        "co"
      ],
      [
        "f",
        "ing"
      ],
      [
        "f",
        "all"
      ],
      [
        "f",
        "ast"
      ],
      [
        "f",
        "old"
      ],
      [
        "f",
        "au"
      ],
      [
        "f",
        "ail"
      ],
      [
        "g",
        "es"
      ],
      [
        "g",
        "ing"
      ],
      [
        "g",
        "ed"
      ],
      [
        "g",
        "as"
      ],
      [
        "h",
        "al"
      ],
      [
        "h",
        "ost"
      ],
      [
        "h",
        "tag"
      ],
      [
        "h",
        "ensive"
      ],
      [
        "i",
        "P"
      ],
      [
        "i",
        "tor"
      ],
      [
        "k",
        "ill"
      ],
      [
        "l",
        "t"
      ],
      [
        "l",
        "ap"
      ],
      [
        "l",
        "ack"
      ],
      [
        "l",
        "ink"
      ],
      [
        "l",
        "iving"
      ],
      [
        "m",
        "en"
      ],
      [
        "m",
        "as"
      ],
      [
        "m",
        "id"
      ],
      [
        "m",
        "ir"
      ],
      [
        "m",
        "atter"
      ],
      [
        "m",
        "ount"
      ],
      [
        "m",
        "outh"
      ],
      [
        "n",
        "ar"
      ],
      [
        "n",
        "ed"
      ],
      [
        "n",
        "ation"
      ],
      [
        "o",
        "cean"
      ],
      [
        "p",
        "age"
      ],
      [
        "p",
        "ress"
      ],
      [
        "p",
        "ack"
      ],
      [
        "p",
        "aper"
      ],
      [
        "r",
        "on"
      ],
      [
        "r",
        "or"
      ],
      [
        "r",
        "ain"
      ],
      [
        "r",
        "ather"
      ],
      [
        "s",
        "w"
      ],
      [
        "s",
        "and"
      ],
      [
        "s",
        "we"
      ],
      [
        "s",
        "ive"
      ],
      [
        "s",
        "low"
      ],
      [
        "s",
        "hap"
      ],
      [
        "s",
        "ampl"
      ],
      [
        "t",
        "u"
      ],
      [
        "t",
        "le"
      ],
      [
        "t",
        "ro"
      ],
      [
        "t",
        "iv"
      ],
      [
        "t",
        "age"
      ],
      [
        "t",
        "ificial"
      ],
      [
        "u",
        "g"
      ],
      [
        "u",
        "able"
      ],
      [
        "v",
        "ation"
      ],
      [
        "v",
        "ac"
      ],
      [
        "w",
        "al"
      ],
      [
        "w",
        "om"
      ],
      [
        "w",
        "able"
      ],
      [
        "w",
        "ild"
      ],
      [
        "w",
        "ise"
      ],
      [
        "th",
        "reat"
      ],
      [
        "in",
        "j"
      ],
      [
        "in",
        "ci"
      ],
      [
        "in",
        "no"
      ],
      [
        "in",
        "stru"
      ],
      [
        "in",
        "struct"
      ],
      [
        "re",
        "al"
      ],
      [
        "re",
        "ct"
      ],
      [
        "re",
        "ly"
      ],
      [
        "re",
        "am"
      ],
      [
        "re",
        "hensive"
      ],
      [
        "on",
        "om"
      ],
      [
        "er",
        "cise"
      ],
      [
        "at",
        "ivity"
      ],
      [
        "the",
        "tic"
      ],
      [
        "en",
        "ces"
      ],
      [
        "en",
        "cour"
      ],
      [
        "en",
        "suring"
      ],
      [
        "al",
        "se"
      ],
      [
        "al",
        "ong"
      ],
      [
        "is",
        "ol"
      ],
      [
        "om",
        "et"
      ],
      [
        "ed",
        "back"
      ],
      [
        "as",
        "pect"
      ],
      [
        "it",
        "ive"
      ],
      [
        "ic",
        "ial"
      ],
      [
        "he",
        "art"
      ],
      [
        "ch",
        "ain"
      ],
      [
        "ve",
        "y"
      ],
      [
        "ent",
        "y"
      ],
      [
        "ro",
        "ad"
      ],
      [
        "ro",
        "ss"
      ],
      [
        "ro",
        "les"
      ],
      [
        "ct",
        "ions"
      ],
      [
        "se",
        "con"
      ],
      [
        "se",
        "cre"
      ],
      [
        "se",
        "lect"
      ],
      [
        "im",
        "in"
      ],
      [
        "im",
        "ize"
      ],
      [
        "im",
        "proved"
      ],
      [
        "for",
        "ce"
      ],
      [
        "for",
        "get"
      ],
      [
        "for",
        "ward"
      ],
      [
        "su",
        "s"
      ],
      [
        "su",
        "me"
      ],
      [
        "us",
        "ic"
      ],
      [
        "are",
        "d"
      ],
      [
        "are",
        "n"
      ],
      [
        "et",
        "er"
      ],
      [
        "ver",
        "se"
      ],
      [
        "te",
        "l"
      ],
      [
        "de",
        "ad"
      ],
      [
        "de",
        "cl"
      ],
      [
        "de",
        "cre"
      ],
      [
        "ab",
        "l"
      ],
      [
        "ab",
        "sor"
      ],
      [
        "ab",
        "ove"
      ],
      [
        "con",
        "ven"
      ],
      [
        "am",
        "ong"
      ],
      [
        "un",
        "k"
      ],
      [
        "un",
        "it"
      ],
      [
        "ke",
        "pt"
      ],
      [
        "mo",
        "tiv"
      ],
      [
[...]
