{
  "version": "1.0",
  "truncation": null,
  "padding": null,
  "added_tokens": [
    {
      "id": 0,
      "content": "[UNK]",
      "single_word": false,
      "lstrip": false,
      "rstrip": false,
      "normalized": false,
      "special": true
    },
    {
      "id": 1,
      "content": "[PAD]",
      "single_word": false,
      "lstrip": false,
      "rstrip": false,
      "normalized": false,
      "special": true
    },
    {
      "id": 2,
      "content": "[SOS]",
      "single_word": false,
      "lstrip": false,
      "rstrip": false,
      "normalized": false,
      "special": true
    },
    {
      "id": 3,
      "content": "[EOS]",
      "single_word": false,
      "lstrip": false,
      "rstrip": false,
      "normalized": false,
      "special": true
    }
  ],
  "normalizer": null,
  "pre_tokenizer": {
    "type": "Whitespace"
  },
  "post_processor": null,
  "decoder": null,
  "model": {
    "type": "BPE",
    "dropout": null,
    "unk_token": "[UNK]",
    "continuing_subword_prefix": null,
    "end_of_word_suffix": null,
    "fuse_unk": false,
    "byte_fallback": false,
    "ignore_merges": false,
    "vocab": {
      "[UNK]": 0,
      "[PAD]": 1,
      "[SOS]": 2,
      "[EOS]": 3,
      "!": 4,
      "\"": 5,
      "#": 6,
      "$": 7,
      "%": 8,
      "'": 9,
      "(": 10,
      ")": 11,
      "*": 12,
      "+": 13,
      ",": 14,
      "-": 15,
      ".": 16,
      "/": 17,
      "0": 18,
      "1": 19,
      "2": 20,
      "3": 21,
      "4": 22,
      "5": 23,
      "6": 24,
      "7": 25,
      "8": 26,
      "9": 27,
      ":": 28,
      ";": 29,
      "<": 30,
      "=": 31,
      ">": 32,
      "?": 33,
      "[": 34,
      "]": 35,
      "^": 36,
      "_": 37,
      "a": 38,
      "c": 39,
      "d": 40,
      "e": 41,
      "f": 42,
      "h": 43,
      "i": 44,
      "n": 45,
      "o": 46,
      "p": 47,
      "r": 48,
      "t": 49,
      "u": 50,
      "x": 51,
      "{": 52,
      "}": 53,
      "×": 54,
      "ం": 55,
      "ః": 56,
      "అ": 57,
      "ఆ": 58,
      "ఇ": 59,
      "ఈ": 60,
      "ఉ": 61,
      "ఊ": 62,
      "ఋ": 63,
      "ఎ": 64,
      "ఏ": 65,
      "ఐ": 66,
      "ఒ": 67,
      "ఓ": 68,
      "ఔ": 69,
      "క": 70,
      "ఖ": 71,
      "గ": 72,
      "ఘ": 73,
      "చ": 74,
      "ఛ": 75,
      "జ": 76,
      "ఞ": 77,
      "ట": 78,
      "ఠ": 79,
      "డ": 80,
      "ఢ": 81,
      "ణ": 82,
      "త": 83,
      "థ": 84,
      "ద": 85,
      "ధ": 86,
      "న": 87,
      "ప": 88,
      "ఫ": 89,
      "బ": 90,
      "భ": 91,
      "మ": 92,
      "య": 93,
      "ర": 94,
      "ల": 95,
      "ళ": 96,
      "వ": 97,
      "శ": 98,
      "ష": 99,
      "స": 100,
      "హ": 101,
      "ా": 102,
      "ి": 103,
      "ీ": 104,
      "ు": 105,
      "ూ": 106,
      "ృ": 107,
      "ె": 108,
      "ే": 109,
      "ై": 110,
      "ొ": 111,
      "ో": 112,
      "ౌ": 113,
      "్": 114,
      "౦": 115,
      "‌": 116,
      "ని": 117,
      "రి": 118,
      "ను": 119,
      "ర్": 120,
      "స్": 121,
      "న్": 122,
      "క్": 123,
      "ప్": 124,
      "ంచ": 125,
      "ాల": 126,
      "ది": 127,
      "కు": 128,
      "యు": 129,
      "మరి": 130,
      "రు": 131,
      "్య": 132,
      "మరియు": 133,
      "ట్": 134,
      "డి": 135,
      "ప్ర": 136,
      "కి": 137,
      "లు": 138,
      "తు": 139,
      "ంది": 140,
      "గా": 141,
      "వి": 142,
      "ించ": 143,
      "నా": 144,
      "లో": 145,
      "ాని": 146,
      "చే": 147,
      "త్": 148,
      "వా": 149,
      "తి": 150,
      "ానికి": 151,
      "ల్": 152,
      "మీ": 153,
      "ంట": 154,
      "మా": 155,
      "ండి": 156,
      "మ్": 157,
      "డు": 158,
      "ద్": 159,
      "టా": 160,
      "నే": 161,
      "రా": 162,
      "డానికి": 163,
      "దా": 164,
      "గ్": 165,
      "పు": 166,
      "కా": 167,
      "డం": 168,
      "లే": 169,
      "న్ని": 170,
      "దు": 171,
      "టి": 172,
      "తా": 173,
      "ైన": 174,
      "యి": 175,
      "లి": 176,
      "సం": 177,
      "కో": 178,
      "చ్": 179,
      "ంగా": 180,
      "చేయ": 181,
      "డ్": 182,
      "గు": 183,
      "న్నా": 184,
      "స్తు": 185,
      "ంత": 186,
      "లను": 187,
      "సా": 188,
      "ాలు": 189,
      "సు": 190,
      "క్క": 191,
      "టామ్": 192,
      "చు": 193,
      "మైన": 194,
      "సి": 195,
      "పా": 196,
      "ష్": 197,
      "యో": 198,
      "ాలను": 199,
      "క్ష": 200,
      "ము": 201,
      "రించ": 202,
      "రణ": 203,
      "వ్య": 204,
      "యా": 205,
      "లా": 206,
      "రం": 207,
      "రీ": 208,
      "నేను": 209,
      "చి": 210,
      "వచ్": 211,
      "గి": 212,
      "వే": 213,
      "కొ": 214,
      "ఒక": 215,
      "మి": 216,
      "మె": 217,
      "పె": 218,
      "తో": 219,
      "యం": 220,
      "న్న": 221,
      "మీరు": 222,
      "రో": 223,
      "మే": 224,
      "లేదా": 225,
      "ంద": 226,
      "ఇది": 227,
      "ొక్క": 228,
      "పరి": 229,
      "హా": 230,
      "ంగ్": 231,
      "భా": 232,
      "యొక్క": 233,
      "ష్ట": 234,
      "యోగ": 235,
      "ధా": 236,
      "చె": 237,
      "స్తుంది": 238,
      "అను": 239,
      "తీ": 240,
      "పి": 241,
      "వు": 242,
      "ప్రా": 243,
      "ండ": 244,
      "పో": 245,
      "వచ్చు": 246,
      "నిర్": 247,
      "స్తా": 248,
      "్యా": 249,
      "ర్థ": 250,
      "కే": 251,
      "స్థ": 252,
      "?.": 253,
      "బ్": 254,
      "ఉప": 255,
      "టు": 256,
      "ందు": 257,
      "శ్": 258,
      "సమ": 259,
      "వర్": 260,
      "ంటి": 261,
      "వె": 262,
      "మార్": 263,
      "తుంది": 264,
      "ప్పు": 265,
      "నీ": 266,
      "ించడానికి": 267,
      "ద్ధ": 268,
      "డే": 269,
      "క్తి": 270,
      "ంటు": 271,
      "కూ": 272,
      "రె": 273,
      "వ్": 274,
      "త్త": 275,
      "ంలో": 276,
      "లకు": 277,
      "సహా": 278,
      "ంట్": 279,
      "కలి": 280,
      "అవ": 281,
      "స్ట": 282,
      "డా": 283,
      "ళ్": 284,
      "ప్ప": 285,
      "జీ": 286,
      "పై": 287,
      "ాలి": 288,
      "ఉపయోగ": 289,
      "రే": 290,
      "చూ": 291,
      "నం": 292,
      "చా": 293,
      "తె": 294,
      "ాలా": 295,
      "ించడం": 296,
      "కోవ": 297,
      "ఉన్నా": 298,
      "పొ": 299,
      "షన్": 300,
      "వారా": 301,
      "సె": 302,
      "సే": 303,
      "ద్వారా": 304,
      "ఫ్": 305,
      "శా": 306,
      "జి": 307,
      "ించండి": 308,
      "ద్ద": 309,
      "అనే": 310,
      "చాలా": 311,
      "రుగు": 312,
      "డేటా": 313,
      "కరించ": 314,
      "రూ": 315,
      "ల్ల": 316,
      "అత": 317,
      "త్ర": 318,
      "ఉండ": 319,
      "జా": 320,
      "బా": 321,
      "ర్య": 322,
      "నె": 323,
      "మొ": 324,
      "ంటే": 325,
      "తన": 326,
      "కం": 327,
      "కీ": 328,
      "వారి": 329,
      "ంధ": 330,
      "నుండి": 331,
      "క్కు": 332,
      "నాకు": 333,
      "యూ": 334,
      "టీ": 335,
      "దే": 336,
      "అభ": 337,
      "ధ్య": 338,
      "ించి": 339,
      "కలిగి": 340,
      "మూ": 341,
      "చేయడానికి": 342,
      "తే": 343,
      "బి": 344,
      "సర": 345,
      "కె": 346,
      "గల": 347,
      "వంటి": 348,
      "ప్రతి": 349,
      "బడి": 350,
      "యప": 351,
      "మీకు": 352,
      "తీసు": 353,
      "ండ్": 354,
      "జ్": 355,
      "పని": 356,
      "ప్పుడు": 357,
      "వంత": 358,
      "సృ": 359,
      "ముఖ": 360,
      "వరణ": 361,
      "సమా": 362,
      "ిక": 363,
      "ందించ": 364,
      "లేదు": 365,
      "టె": 366,
      "టర్": 367,
      "వై": 368,
      "సూ": 369,
      "క్కువ": 370,
      "ించే": 371,
      "న్నాను": 372,
      "తర": 373,
      "దీ": 374,
      "ట్టు": 375,
      "విని": 376,
      "కోసం": 377,
      "ఉంది": 378,
      "వృ": 379,
      "క్షణ": 380,
      "సహాయప": 381,
      "స్త": 382,
      "డుతుంది": 383,
      "క్కడ": 384,
      "రించి": 385,
      "బంధ": 386,
      "సై": 387,
      "్యూ": 388,
      "కాల": 389,
      "వన": 390,
      "క్రి": 391,
      "్యం": 392,
      "ట్ట": 393,
      "త్తి": 394,
      "చేయడం": 395,
      "సహ": 396,
      "ంటా": 397,
      "చేయండి": 398,
      "తగ్": 399,
      "ర్చు": 400,
      "ంచు": 401,
      "తిక": 402,
      "దారు": 403,
      "అభి": 404,
      "జు": 405,
      "బో": 406,
      "రమ": 407,
      "కుంటు": 408,
      "ద్ధి": 409,
      "ఉన్న": 410,
      "గొ": 411,
      "ఫి": 412,
      "వీ": 413,
      "శక్తి": 414,
      "షి": 415,
      "వినియోగ": 416,
      "దాని": 417,
      "గురించి": 418,
      "వ్యా": 419,
      "ఉంటు": 420,
      "ఎందు": 421,
      "రమైన": 422,
      "వం": 423,
      "వహ": 424,
      "ప్రభా": 425,
      "రాన్ని": 426,
      "వ్యక్తి": 427,
      "గో": 428,
      "పే": 429,
      "వర": 430,
      "ైనా": 431,
      "మ్మ": 432,
      "రోగ": 433,
      "కూడా": 434,
      "తంగా": 435,
      "మరింత": 436,
      "మేము": 437,
      "ఉన్నాయి": 438,
      "సృష్ట": 439,
      "ఏమి": 440,
      "సిన": 441,
      "వ్వ": 442,
      "ఉంటుంది": 443,
      "అం": 444,
      "ఉత్": 445,
      "బు": 446,
      "లై": 447,
      "కోండి": 448,
      "ఇక్కడ": 449,
      "ాల్": 450,
      "విధ": 451,
      "ించవచ్చు": 452,
      "టింగ్": 453,
      "గుర్": 454,
      "ందని": 455,
      "వృద్ధి": 456,
      "స్ట్": 457,
      "సాం": 458,
      "కొన్ని": 459,
      "స్తాయి": 460,
      "ళ్ళ": 461,
      "**": 462,
      "మో": 463,
      "లతో": 464,
      "తులు": 465,
      "సంబంధ": 466,
      "వ్యవ": 467,
      "మేరీ": 468,
      "ఆధా": 469,
      "ఎలా": 470,
      "దృ": 471,
      "రంగా": 472,
      "స్ప": 473,
      "వారు": 474,
      "వాటి": 475,
      "ద్ర": 476,
      "కార్": 477,
      "తెలు": 478,
      "మొత్త": 479,
      "__": 480,
      "కృ": 481,
      "జన": 482,
      "ద్య": 483,
      "లభ": 484,
      "స్థి": 485,
      "కోవడానికి": 486,
      "వినియోగదారు": 487,
      "ణా": 488,
      "మర్": 489,
      "లె": 490,
      "రిగి": 491,
      "న్ను": 492,
      "వాతా": 493,
      "గ్ర": 494,
      "అనుమ": 495,
      "దేశ": 496,
      "అభివృద్ధి": 497,
      "వాతావరణ": 498,
      "ఇంట": 499,
      "ఉంటా": 500,
      "గే": 501,
      "న్స్": 502,
      "చేసే": 503,
      "లియ": 504,
      "స్తున్నా": 505,
      "టామ్‌": 506,
      "సమయం": 507,
      "అతను": 508,
      "వ్యవస్థ": 509,
      "ఆమె": 510,
      "ఇవ్వ": 511,
      "పూ": 512,
      "మై": 513,
      "మధ్య": 514,
      "శి": 515,
      "ంచి": 516,
      "చ్చి": 517,
      "అవస": 518,
      "అనేక": 519,
      "ండు": 520,
      "గణ": 521,
      "పర్": 522,
      "క్ట్": 523,
      "ప్రో": 524,
      "విశ్": 525,
      "తాయి": 526,
      "రోజు": 527,
      "ధారణ": 528,
      "తగ్గ": 529,
      "ఎందుకు": 530,
      "తెలుసు": 531,
      "ఆరోగ": 532,
      "పత్తి": 533,
      "మ్యూ": 534,
      "షణ": 535,
      "ాలో": 536,
      "ాలకు": 537,
      "ించా": 538,
      "సాధారణ": 539,
      "కొత్త": 540,
      "చెప్": 541,
      "నిర్వహ": 542,
      "స్తారు": 543,
      "ముఖ్య": 544,
      "ంపు": 545,
      "ఎక్కువ": 546,
      "కను": 547,
      "తం": 548,
      "తను": 549,
      "మన": 550,
      "లీ": 551,
      "క్స్": 552,
      "క్రమ": 553,
      "ట్లు": 554,
      "ట్టి": 555,
      "వేర్": 556,
      "కేషన్": 557,
      "సహాయపడుతుంది": 558,
      "ందా": 559,
      "అని": 560,
      "కర్": 561,
      "కంటే": 562,
      "గం": 563,
      "టో": 564,
      "చెప్ప": 565,
      "వంతమైన": 566,
      "మొత్తం": 567,
      ":.": 568,
      "అంత": 569,
      "తమైన": 570,
      "నాలు": 571,
      "పర": 572,
      "రక్ష": 573,
      "లక్ష": 574,
      "హి": 575,
      "ాలని": 576,
      "కుండ": 577,
      "తుల": 578,
      "వాన్ని": 579,
      "సులభ": 580,
      "అనేది": 581,
      "సమాచా": 582,
      "సాంకే": 583,
      "అలా": 584,
      "ఇం": 585,
      "చర్య": 586,
      "భు": 587,
      "త్రి": 588,
      "మార్కె": 589,
      "రెండు": 590,
      "ించిన": 591,
      "పూర్": 592,
      "సాంకేతిక": 593,
      "ఖర్చు": 594,
      "జె": 595,
      "నై": 596,
      "ఫా": 597,
      "వల్ల": 598,
      "ులు": 599,
      "ప్రయో": 600,
      "సామ": 601,
      "మెరుగు": 602,
      "తెలియ": 603,
      "అంది": 604,
      "అందించ": 605,
      "ఆర్": 606,
      "సో": 607,
      "న్య": 608,
      "ప్రే": 609,
      "పాద": 610,
      "రంభ": 611,
      "అనుభ": 612,
      "ప్రారంభ": 613,
      "కోవడం": 614,
      "ఫ్ట్": 615,
      "కమ్యూ": 616,
      "జం": 617,
      "డె": 618,
      "తక్కువ": 619,
      "లలో": 620,
      "ర్చ": 621,
      "ప్యూ": 622,
      "దించ": 623,
      "వెబ్": 624,
      "కంప్యూ": 625,
      "తీసుకు": 626,
      "టెక్": 627,
      "అవసరం": 628,
      "ఆరోగ్య": 629,
      "కనుగొ": 630,
      "లక్ష్య": 631,
      "కుండా": 632,
      "సామర్థ": 633,
      "కమ్యూని": 634,
      "కల్": 635,
      "కస్ట": 636,
      "కరమైన": 637,
      "గత": 638,
      "ఫో": 639,
      "మక": 640,
      "మని": 641,
      "రాలు": 642,
      "చేసు": 643,
      "కాదు": 644,
      "ంతో": 645,
      "వులు": 646,
      "పొందించ": 647,
      "డేటాను": 648,
      "దీని": 649,
      "కుంటున్నా": 650,
      "ఉత్పత్తి": 651,
      "గుర్త": 652,
      "అనుమతి": 653,
      "చెప్పా": 654,
      "ఇతర": 655,
      "డని": 656,
      "తరు": 657,
      "ధి": 658,
      "నాల": 659,
      "మంది": 660,
      "యత్": 661,
      "ప్రత": 662,
      "వివ": 663,
      "వివిధ": 664,
      "నాన్ని": 665,
      "వేగ": 666,
      "పెద్ద": 667,
      "స్థా": 668,
      "ప్పుడ": 669,
      "అతని": 670,
      "నెట్": 671,
      "వనరు": 672,
      "కస్టమర్": 673,
      "అర్థ": 674,
      "ఇన్": 675,
      "ఏద": 676,
      "కరణ": 677,
      "చన": 678,
      "డట": 679,
      "దన": 680,
      "నమూ": 681,
      "యమైన": 682,
      "ాలలో": 683,
      "ప్రయత్": 684,
      "లువ": 685,
      "చేస్తుంది": 686,
      "త్మక": 687,
      "ల్ని": 688,
      "గ్రా": 689,
      "పున": 690,
      "సాఫ్ట్": 691,
      "రించండి": 692,
      "సహాయం": 693,
      "జ్ఞ": 694,
      "ఉంటాయి": 695,
      "అంద": 696,
      "కపో": 697,
      "వల": 698,
      "సీ": 699,
      "హరణ": 700,
      "స్య": 701,
      "తిని": 702,
      "మాణ": 703,
      "కాశ": 704,
      "కారణ": 705,
      "రించడానికి": 706,
      "యాక్": 707,
      "చిన్న": 708,
      "మార్పు": 709,
      "ళ్ల": 710,
      "ప్పటి": 711,
      "సెస్": 712,
      "క్రియ": 713,
      "మ్మల్ని": 714,
      "ద్యో": 715,
      "ప్రయోజన": 716,
      "ఆర్థ": 717,
      "ఉదా": 718,
      "జే": 719,
      "ద్యా": 720,
      "ఫీ": 721,
      "బడ": 722,
      "క్లి": 723,
      "ప్య": 724,
      "దిష్ట": 725,
      "్యే": 726,
      "విస్త": 727,
      "ల్స్": 728,
      "మాన": 729,
      "సిస్ట": 730,
      "వచ్చా": 731,
      "మెంట్": 732,
      "ష్టమైన": 733,
      "నిర్ణ": 734,
      "నిర్దిష్ట": 735,
      "వర్క్": 736,
      "అవసర": 737,
      "మొద": 738,
      "వ్యాపా": 739,
      "పరచ": 740,
      "జ్ఞా": 741,
      "ఆర్థిక": 742,
      "ఉదాహరణ": 743,
      "అది": 744,
      "అవి": 745,
      "ఉంచ": 746,
      "ఎవ": 747,
      "దర్": 748,
      "పంచ": 749,
      "సౌ": 750,
      "సరి": 751,
      "సర్": 752,
      "ూహ": 753,
      "కున్నా": 754,
      "ప్రజ": 755,
      "చేసిన": 756,
      "చ్ఛ": 757,
      "వ్యక్": 758,
      "యాన్ని": 759,
      "మెయి": 760,
      "పెంచ": 761,
      "పెట్టు": 762,
      "ందో": 763,
      "పొంద": 764,
      "రూపొందించ": 765,
      "బడింది": 766,
      "సైట్": 767,
      "ఆధారంగా": 768,
      "విశ్లే": 769,
      "అయి": 770,
      "ఆలో": 771,
      "ఆదా": 772,
      "ఇమెయి": 773,
      "ఎం": 774,
      "ఖచ్చి": 775,
      "గీ": 776,
      "జర్": 777,
      "తప్ప": 778,
      "మరో": 779,
      "మనం": 780,
      "రై": 781,
      "రాలను": 782,
      "వత్": 783,
      "వస్తు": 784,
      "ెంట్": 785,
      "స్నే": 786,
      "విధా": 787,
      "విద్యా": 788,
      "లోకి": 789,
      "త్తు": 790,
      "సంవత్": 791,
      "చేయవచ్చు": 792,
      "ష్టి": 793,
      "గిన": 794,
      "మిమ్మల్ని": 795,
      "పెరుగు": 796,
      "ప్రాంత": 797,
      "నీటి": 798,
      "జీవి": 799,
      "జాబి": 800,
      "అంశ": 801,
      "కంప్యూటర్": 802,
      "చెప్పాడు": 803,
      "అర్థం": 804,
      "ప్రయత్ని": 805,
      "అధ": 806,
      "ఉద్యో": 807,
      "కల": 808,
      "తమ": 809,
      "మంచి": 810,
      "రక్షణ": 811,
      "వడం": 812,
      "హె": 813,
      "ిన": 814,
      "స్సు": 815,
      "ప్రశ్": 816,
      "తున్నా": 817,
      "చేస్తా": 818,
      "వాత": 819,
      "నేర్చు": 820,
      "టివ్": 821,
      "సంక్ష": 822,
      "సాధ": 823,
      "పాత్ర": 824,
      "పరిష్": 825,
      "ష్టం": 826,
      "సమర్థ": 827,
      "సమస్య": 828,
      "కీల": 829,
      "వైపు": 830,
      "వరకు": 831,
      "____": 832,
      "ప్రోత్": 833,
      "ముఖ్యమైన": 834,
      "మెరుగుపరచ": 835,
      "కనుగొన": 836,
      "ప్పుడూ": 837,
      "ప్రశ్న": 838,
      "అదన": 839,
      "ఎంచు": 840,
      "కాలు": 841,
      "జరుగు": 842,
      "టై": 843,
      "పద్ధ": 844,
      "ఫై": 845,
      "బ్యా": 846,
      "బట్టి": 847,
      "భ్": 848,
      "ప్లా": 849,
      "ట్లా": 850,
      "విష": 851,
      "విలువ": 852,
      "మాట్లా": 853,
      "రాం": 854,
      "తాను": 855,
      "సంభా": 856,
      "చుగా": 857,
      "వేయ": 858,
      "కొంత": 859,
      "్యాన్ని": 860,
      "వెళ్ళ": 861,
      "ఉపయోగించ": 862,
      "బడిన": 863,
      "తరచుగా": 864,
      "ఇంటర్": 865,
      "తెలియదు": 866,
      "పాదక": 867,
      "స్నేహి": 868,
      "ప్రోత్సహ": 869,
      "00": 870,
      "అల్": 871,
      "ఎంత": 872,
      "కని": 873,
      "టే": 874,
      "దల": 875,
      "దశ": 876,
      "నో": 877,
      "రని": 878,
      "వద్ద": 879,
      "స్టా": 880,
      "కునే": 881,
      "ప్రపంచ": 882,
      "తున్న": 883,
      "తిరిగి": 884,
      "మీద": 885,
      "మారు": 886,
      "దారి": 887,
      "కారం": 888,
      "తారు": 889,
      "యంత్": 890,
      "ఉపయో": 891,
      "ించడంలో": 892,
      "సెట్": 893,
      "మూడు": 894,
      "సృష్టించండి": 895,
      "కార్బ": 896,
      "సాధారణంగా": 897,
      "కమ్యూనికేషన్": 898,
      "వివరించండి": 899,
      "ఏదైనా": 900,
      "పునరు": 901,
      "ఇమెయిల్": 902,
      "అన": 903,
      "ఆకర్": 904,
      "ఇందు": 905,
      "ఇంటి": 906,
      "టన": 907,
      "డీ": 908,
      "దం": 909,
      "నన్ను": 910,
      "పరీ": 911,
      "పట్ట": 912,
      "బల": 913,
      "మర": 914,
      "శో": 915,
      "ాన్ని": 916,
      "స్క్": 917,
      "స్వా": 918,
      "ాలతో": 919,
      "కున్న": 920,
      "ప్రక్రియ": 921,
      "స్తున్నాను": 922,
      "సామా": 923,
      "మేధ": 924,
      "పరిమి": 925,
      "నిర్ధా": 926,
      "అవకాశ": 927,
      "ఉపయోగించడం": 928,
      "చూడ": 929,
      "టెడ్": 930,
      "సూచి": 931,
      "ఏమిటి": 932,
      "లైన్": 933,
      "నిర్వహించడానికి": 934,
      "అనుమతిస్తుంది": 935,
      "ప్రత్యే": 936,
      "నిర్ణయ": 937,
      "ఎంపి": 938,
      "కార్బన్": 939,
      "ంప": 940,
      "ంబ": 941,
      "అంచ": 942,
      "అవు": 943,
      "ఇంధ": 944,
      "కథ": 945,
      "కంట": 946,
      "టల్": 947,
      "డబ్": 948,
      "ణ్య": 949,
      "తల": 950,
      "తలు": 951,
      "తయా": 952,
      "దని": 953,
      "నగ": 954,
      "నని": 955,
      "నాలను": 956,
      "పడ": 957,
      "బహ": 958,
      "బడ్": 959,
      "భూ": 960,
      "భద్ర": 961,
      "రక": 962,
      "వల్": 963,
      "ైన్": 964,
      "నుగో": 965,
      "స్వ": 966,
      "కులు": 967,
      "ట్ల": 968,
      "డిని": 969,
      "గాన్ని": 970,
      "త్వం": 971,
      "పుస్త": 972,
      "కావ": 973,
      "కార్య": 974,
      "చేయగల": 975,
      "పార్": 976,
      "ముందు": 977,
      "కొనుగో": 978,
      "పరిక": 979,
      "పరిస్థి": 980,
      "పిల్ల": 981,
      "కూల": 982,
      "ఉపయోగించే": 983,
      "ఉపయోగించవచ్చు": 984,
      "చూపు": 985,
      "రూప": 986,
      "ఉండవచ్చు": 987,
      "సహజ": 988,
      "దానిని": 989,
      "వ్యక్తిగత": 990,
      "సృష్టించడానికి": 991,
      "వాటిని": 992,
      "కృత్రి": 993,
      "టామ్‌ను": 994,
      "టామ్‌కు": 995,
      "గణనీ": 996,
      "క్రమం": 997,
      "సమాచారాన్ని": 998,
      "మార్కెటింగ్": 999,
      "పూర్తి": 1000,
      "వెబ్సైట్": 1001,
      "స్థాయి": 1002,
      "ప్పటికీ": 1003,
      "సిస్టమ్": 1004,
      "మొదటి": 1005,
      "సంవత్సర": 1006,
      "కీలక": 1007,
      "అదనంగా": 1008,
      "దారితీ": 1009,
      "ఉపయోగి": 1010,
      "ఇందులో": 1011,
      "శోధ": 1012,
      "ప్రత్యేక": 1013,
      "బహు": 1014,
      "కృత్రిమ": 1015,
      ":**": 1016,
      "ఇవి": 1017,
      "ఉందని": 1018,
      "జనా": 1019,
      "తొ": 1020,
      "తరం": 1021,
      "పద": 1022,
      "రగ": 1023,
      "రకు": 1024,
      "లక్షణ": 1025,
      "ిప్": 1026,
      "ిన్న": 1027,
      "నిమ": 1028,
      "నిల్": 1029,
      "రిథ": 1030,
      "చేసి": 1031,
      "చేశా": 1032,
      "మీడి": 1033,
      "దాన్ని": 1034,
      "పుట్": 1035,
      "కార": 1036,
      "కారు": 1037,
      "కానీ": 1038,
      "డంలో": 1039,
      "యింట్": 1040,
      "సంరక్షణ": 1041,
      "చ్చ": 1042,
      "కొన": 1043,
      "పరిగణ": 1044,
      "ధాన": 1045,
      "అనుకో": 1046,
      "పోయా": 1047,
      "నిర్మ": 1048,
      "శ్రమ": 1049,
      "వర్తన": 1050,
      "కలిసి": 1051,
      "స్టే": 1052,
      "స్టన్": 1053,
      "కరించడానికి": 1054,
      "బాగా": 1055,
      "బోస్టన్": 1056,
      "కుంటున్నాను": 1057,
      "ప్రభావాన్ని": 1058,
      "వరగా": 1059,
      "శిక్షణ": 1060,
      "తగ్గించడానికి": 1061,
      "నెట్వర్క్": 1062,
      "సాఫ్ట్వేర్": 1063,
      "సంక్షిప్": 1064,
      "ఎంపిక": 1065,
      "నిల్వ": 1066,
      "అన్ని": 1067,
      "ఆన్": 1068,
      "ఆహా": 1069,
      "ఎన్": 1070,
      "ఎదు": 1071,
      "కాలను": 1072,
      "గె": 1073,
      "జన్": 1074,
      "మం": 1075,
      "మద్ద": 1076,
      "ళా": 1077,
      "ళిక": 1078,
      "షా": 1079,
      "ాడు": 1080,
      "నిజ": 1081,
      "రిక": 1082,
      "రిత": 1083,
      "రియ": 1084,
      "క్ల": 1085,
      "ప్రి": 1086,
      "రువు": 1087,
      "ప్రభు": 1088,
      "ప్రధాన": 1089,
      "తులను": 1090,
      "విభ": 1091,
      "ించు": 1092,
      "వాస": 1093,
      "వార్": 1094,
      "పెట్ట": 1095,
      "భాగ": 1096,
      "వర్డ్": 1097,
      "జిక": 1098,
      "ముఖ్యం": 1099,
      "పర్యా": 1100,
      "అంతర్": 1101,
      "సాంకేతికత": 1102,
      "అందిస్తుంది": 1103,
      "జంతు": 1104,
      "టెక్నాల": 1105,
      "కుంటున్నారా": 1106,
      "డటం": 1107,
      "తప్పకుండా": 1108,
      "విద్యార్థ": 1109,
      "జీవిత": 1110,
      "పునరుత్": 1111,
      "సామాజిక": 1112,
      "మద్దతు": 1113,
      "టెక్నాలజీ": 1114,
      ").": 1115,
      "అప్": 1116,
      "అమె": 1117,
      "అందు": 1118,
      "ఇంట్": 1119,
      "ఇప్పుడు": 1120,
      "చర్": 1121,
      "పీ": 1122,
      "పను": 1123,
      "బర్": 1124,
      "బద్ధ": 1125,
      "బడుతుంది": 1126,
      "యండి": 1127,
      "వో": 1128,
      "శీ": 1129,
      "శరీ": 1130,
      "హై": 1131,
      "హో": 1132,
      "నింగ్": 1133,
      "ట్స్": 1134,
      "డిజ": 1135,
      "ప్రచా": 1136,
      "ప్రదేశ": 1137,
      "లుగా": 1138,
      "తున్నాను": 1139,
      "వించ": 1140,
      "త్రం": 1141,
      "మాకు": 1142,
      "మాత్ర": 1143,
      "ద్యు": 1144,
      "సంఖ": 1145,
      "కోరు": 1146,
      "సాను": 1147,
      "పాఠ": 1148,
      "రంగు": 1149,
      "వచ్చే": 1150,
      "మిక": 1151,
      "మెషి": 1152,
      "పెనీ": 1153,
      "శ్రే": 1154,
      "సమూహ": 1155,
      "వర్గీ": 1156,
      "మార్గ": 1157,
      "శాస్": 1158,
      "శాన్ని": 1159,
      "కరించండి": 1160,
      "కరించడం": 1161,
      "ఉండట": 1162,
      "కంపెనీ": 1163,
      "ించింది": 1164,
      "వంతంగా": 1165,
      "ఎందుకంటే": 1166,
      "ప్రభావం": 1167,
      "దృష్టి": 1168,
      "ఇవ్వండి": 1169,
      "సమాచారం": 1170,
      "ఇంకా": 1171,
      "బడతాయి": 1172,
      "దర్శ": 1173,
      "విశ్లేష": 1174,
      "అయితే": 1175,
      "వస్తువు": 1176,
      "ప్రయత్నించ": 1177,
      "మెరుగుపరచడానికి": 1178,
      "జరుగుతుంది": 1179,
      "సూచిస్తుంది": 1180,
      "కంటెంట్": 1181,
      "డబ్బు": 1182,
      "కొనుగోలు": 1183,
      "నిమగ్": 1184,
      "మీడియా": 1185,
      "పర్యావరణ": 1186,
      "పునరుత్పాదక": 1187,
      "ఇంట్లో": 1188,
      "మాత్రమే": 1189,
      "అన్": 1190,
      "ఆస": 1191,
      "ఆప్": 1192,
      "ఇతరు": 1193,
      "ఉందా": 1194,
      "ఎస్": 1195,
      "ఒత్తి": 1196,
      "కనె": 1197,
      "జో": 1198,
      "డో": 1199,
      "ణి": 1200,
      "దయ": 1201,
      "నను": 1202,
      "పడి": 1203,
      "పర్య": 1204,
      "ఫె": 1205,
      "ఫలి": 1206,
      "బయ": 1207,
      "బె": 1208,
      "మవు": 1209,
      "యంగా": 1210,
      "లపై": 1211,
      "వాలు": 1212,
      "సము": 1213,
      "ిత": 1214,
      "ేస్": 1215,
      "నియంత్": 1216,
      "ర్చ్": 1217,
      "ర్డ్": 1218,
      "ర్సు": 1219,
      "ప్ల": 1220,
      "ంచ్": 1221,
      "ప్రమా": 1222,
      "గాహ": 1223,
      "లోప": 1224,
      "కాం": 1225,
      "కాబట్టి": 1226,
      "లేకపో": 1227,
      "కోల్": 1228,
      "కోవచ్చు": 1229,
      "చేయాలి": 1230,
      "స్తున్న": 1231,
      "పాటు": 1232,
      "పాయింట్": 1233,
      "చిత్ర": 1234,
      "మెరు": 1235,
      "భావన": 1236,
      "చెంద": 1237,
      "పింగ్": 1238,
      "ప్రాప్య": 1239,
      "వెళ్": 1240,
      "అవగాహ": 1241,
      "రేట్": 1242,
      "చూప": 1243,
      "సెర్చ్": 1244,
      "ఫ్రె": 1245,
      "అత్య": 1246,
      "వారికి": 1247,
      "సూచన": 1248,
      "గొప్ప": 1249,
      "ప్రభావి": 1250,
      "బుల్": 1251,
      "ళ్ళు": 1252,
      "మోడ": 1253,
      "లెర్": 1254,
      "రిగిన": 1255,
      "సులభంగా": 1256,
      "మార్కెట్": 1257,
      "ప్రేక్ష": 1258,
      "కల్ప": 1259,
      "తరువాత": 1260,
      "జేషన్": 1261,
      "ప్రజలు": 1262,
      "అధిక": 1263,
      "స్నేహితు": 1264,
      "అంచనా": 1265,
      "డిజైన్": 1266,
      "12": 1267,
      "అద్": 1268,
      "అండ్": 1269,
      "ఆటో": 1270,
      "ఇష్ట": 1271,
      "ఉత్త": 1272,
      "ఉంటే": 1273,
      "ఎల్ల": 1274,
      "ఎక్కడ": 1275,
      "కాని": 1276,
      "కట్టు": 1277,
      "ఖా": 1278,
      "దూ": 1279,
      "పదా": 1280,
      "యే": 1281,
      "యర్": 1282,
      "రాల": 1283,
      "వచ": 1284,
      "వడానికి": 1285,
      "షల్": 1286,
      "ొక": 1287,
      "నివ": 1288,
      "రిగా": 1289,
      "స్వే": 1290,
      "కున్నాను": 1291,
      "ట్రా": 1292,
      "డికి": 1293,
      "ప్రసి": 1294,
      "ప్రణా": 1295,
      "విద్య": 1296,
      "వాహ": 1297,
      "ల్లో": 1298,
      "ల్లి": 1299,
      "సంక్లి": 1300,
      "చువల్": 1301,
      "సిఫా": 1302,
      "పాస్": 1303,
      "క్షన్": 1304,
      "చింది": 1305,
      "మింగ్": 1306,
      "భాష": 1307,
      "ధాన్య": 1308,
      "పిస్తుంది": 1309,
      "ప్రాజె": 1310,
      "పోయి": 1311,
      "నిర్వచ": 1312,
      "బ్బ": 1313,
      "బ్లా": 1314,
      "టుంబ": 1315,
      "శ్వాస": 1316,
      "వర్చువల్": 1317,
      "వెళ్ల": 1318,
      "ఉపయోగించి": 1319,
      "కోవాలి": 1320,
      "సేవ": 1321,
      "కరించిన": 1322,
      "అభ్య": 1323,
      "సరైన": 1324,
      "ప్రతిస్ప": 1325,
      "క్రింది": 1326,
      "తగ్గి": 1327,
      "ఫిషి": 1328,
      "శక్తిని": 1329,
      "పేరు": 1330,
      "సంబంధించిన": 1331,
      "వినియోగదారులు": 1332,
      "లెక్": 1333,
      "స్తున్నారు": 1334,
      "ప్రోగ్రా": 1335,
      "ించాడు": 1336,
      "మొత్తంమీద": 1337,
      "సోషల్": 1338,
      "డటానికి": 1339,
      "యాక్సెస్": 1340,
      "ఆలోచన": 1341,
      "ఖచ్చితంగా": 1342,
      "విధానాన్ని": 1343,
      "సంభావ్య": 1344,
      "పరీక్ష": 1345,
      "దారితీస్తుంది": 1346,
      "బోస్టన్‌": 1347,
      "సంఖ్య": 1348,
      "మెషిన్": 1349,
      "అద్భు": 1350,
      "స్వేచ్ఛ": 1351,
      "ప్రణాళిక": 1352,
      "అయ": 1353,
      "అల": 1354,
      "అడ్": 1355,
      "అంటే": 1356,
      "ఆపి": 1357,
      "ఏమీ": 1358,
      "ఒంట": 1359,
      "కాలి": 1360,
      "కర్య": 1361,
      "గంట": 1362,
      "చద": 1363,
      "చండి": 1364,
      "ఛా": 1365,
      "డప": 1366,
      "డర్": 1367,
      "దగ్": 1368,
      "దయం": 1369,
      "దగిన": 1370,
      "ధు": 1371,
      "నల్": 1372,
      "పథ": 1373,
      "పట్టు": 1374,
      "మలు": 1375,
      "మొక్క": 1376,
      "రగా": 1377,
      "రకాల": 1378,
      "శు": 1379,
      "శై": 1380,
      "శాల": 1381,
      "శ్య": 1382,
      "షె": 1383,
      "ౌడ్": 1384,
      "నికి": 1385,
      "నిరో": 1386,
      "రికి": 1387,
      "రికీ": 1388,
      "ర్ఘ": 1389,
      "స్వంత": 1390,
      "న్లు": 1391,
      "క్ర": 1392,
      "క్యా": 1393,
      "ప్లే": 1394,
      "దిగా": 1395,
      "కుటుంబ": 1396,
      "ప్రొ": 1397,
      "విజ": 1398,
      "విద్యు": 1399,
      "నాయ": 1400,
      "ానిక": 1401,
      "చేస్తాయి": 1402,
      "త్వ": 1403,
      "మ్స్": 1404,
      "గ్రీ": 1405,
      "కాన్ని": 1406,
      "లేని": 1407,
      "లిక": 1408,
      "సురక్ష": 1409,
      "రించు": 1410,
      "రీరక": 1411,
      "కొరకు": 1412,
      "తోంది": 1413,
      "రోల్": 1414,
      "పరిశ్రమ": 1415,
      "భాగం": 1416,
      "అనుకుంటున్నాను": 1417,
      "ప్రాధాన్య": 1418,
      "నిర్మాణ": 1419,
      "కేం": 1420,
      "మార్గం": 1421,
      "స్టో": 1422,
      "ఉపయోగించండి": 1423,
      "ఉన్నాను": 1424,
      "శారీరక": 1425,
      "ఉండాలి": 1426,
      "బాటు": 1427,
      "యూని": 1428,
      "తీసుకోండి": 1429,
      "సహాయపడ": 1430,
      "వ్యక్తిగ": 1431,
      "లైట్": 1432,
      "విధంగా": 1433,
      "సంబంధం": 1434,
      "గ్రహ": 1435,
      "అనుమత": 1436,
      "ఇంటరా": 1437,
      "సమయంలో": 1438,
      "నైపు": 1439,
      "అనుభవాన్ని": 1440,
      "సామర్థ్య": 1441,
      "విస్తృ": 1442,
      "సౌకర్య": 1443,
      "పెట్టుబడి": 1444,
      "జాబితా": 1445,
      "మాట్లాడ": 1446,
      "ఆకర్షణ": 1447,
      "మరొక": 1448,
      "అవకాశం": 1449,
      "తయారు": 1450,
      "గణనీయమైన": 1451,
      "శోధన": 1452,
      "పరిగణన": 1453,
      "అనుకోను": 1454,
      "నిజంగా": 1455,
      "క్లౌడ్": 1456,
      "సానుకూల": 1457,
      "అవగాహన": 1458,
      "ఫ్రెంచ్": 1459,
      "మోడల్": 1460,
      "లెర్నింగ్": 1461,
      "ఎల్లప్పుడూ": 1462,
      ",.": 1463,
      "ంపై": 1464,
      "అడ": 1465,
      "ఆట": 1466,
      "ఆప": 1467,
      "ఆస్వా": 1468,
      "ఉద్": 1469,
      "ఎప్పుడూ": 1470,
      "కంగా": 1471,
      "కటన": 1472,
      "చరి": 1473,
      "చర్చ": 1474,
      "ట్యా": 1475,
      "తృ": 1476,
      "దాలు": 1477,
      "నడం": 1478,
      "పాల": 1479,
      "పడుతుంది": 1480,
      "బీ": 1481,
      "బడు": 1482,
      "మైనా": 1483,
      "యని": 1484,
      "వాలను": 1485,
      "సవా": 1486,
      "నివా": 1487,
      "స్పా": 1488,
      "స్కృ": 1489,
      "న్యూ": 1490,
      "ంచె": 1491,
      "కులను": 1492,
      "డిగా": 1493,
      "డిజి": 1494,
      "ప్రయా": 1495,
      "ప్రవర్తన": 1496,
      "ప్రకటన": 1497,
      "కింగ్": 1498,
      "ందిన": 1499,
      "గారిథ": 1500,
      "వివరణ": 1501,
      "నాణ్య": 1502,
      "లోని": 1503,
      "చేరు": 1504,
      "చేర్చ": 1505,
      "వాడ": 1506,
      "ద్దు": 1507,
      "టాప్": 1508,
      "గ్గా": 1509,
      "లేఖ": 1510,
      "దుస్తు": 1511,
      "టిమై": 1512,
      "తాడు": 1513,
      "లిం": 1514,
      "సంతో": 1515,
      "గుణ": 1516,
      "స్తుందని": 1517,
      "సార్": 1518,
      "రీసై": 1519,
      "వచ్చింది": 1520,
      "ఒకే": 1521,
      "మేణా": 1522,
      "పరిజ్ఞా": 1523,
      "అనుస": 1524,
      "తీర్": 1525,
      "తీవ్": 1526,
      "ప్రాసెస్": 1527,
      "స్తాడు": 1528,
      "శ్ర": 1529,
      "నీరు": 1530,
      "కూడి": 1531,
      "త్తగా": 1532,
      "ళ్లు": 1533,
      "చూసు": 1534,
      "జిన్": 1535,
      "ధ్యం": 1536,
      "సమాజ": 1537,
      "సూచ": 1538,
      "స్తూ": 1539,
      "కాలక్ర": 1540,
      "వీటి": 1541,
      "గుర్తు": 1542,
      "మేరీకి": 1543,
      "ఆధార": 1544,
      "స్పష్టమైన": 1545,
      "స్థిరమైన": 1546,
      "ఇంటె": 1547,
      "అవసరాన్ని": 1548,
      "ించారు": 1549,
      "సులభం": 1550,
      "నైతిక": 1551,
      "అందిస్తాయి": 1552,
      "తీసుకునే": 1553,
      "ఆరోగ్యకరమైన": 1554,
      "సామర్థ్యం": 1555,
      "సామర్థ్యాన్ని": 1556,
      "దీనికి": 1557,
      "వేగంగా": 1558,
      "ప్రయోజనాలను": 1559,
      "మానవ": 1560,
      "ఉదాహరణకు": 1561,
      "ఎవరు": 1562,
      "కున్నాడు": 1563,
      "రూపొందించండి": 1564,
      "విశ్లేషణ": 1565,
      "ఉద్యోగ": 1566,
      "________": 1567,
      "కొంతమంది": 1568,
      "అల్గారిథ": 1569,
      "బలమైన": 1570,
      "నిర్ధారించు": 1571,
      "పార్టీ": 1572,
      "తొల": 1573,
      "ఆన్లైన్": 1574,
      "ఎదుర్": 1575,
      "జీవితంలో": 1576,
      "అమెరి": 1577,
      "శీల": 1578,
      "ఆప్టిమై": 1579,
      "సముద్ర": 1580,
      "ప్రభావితం": 1581,
      "ఆటోమే": 1582,
      "పదార్థ": 1583,
      "ప్రాజెక్ట్": 1584,
      "ఫిషియ": 1585,
      "లెక్కి": 1586,
      "ప్రోగ్రామ్": 1587,
      "దగ్గ": 1588,
      "నిరోధ": 1589,
      "సురక్షి": 1590,
      "పరిగణనలోకి": 1591,
      "చరిత్ర": 1592,
      "డిజిటల్": 1593,
      "కాలక్రమేణా": 1594,
      "\".": 1595,
      "అతి": 1596,
      "అమ్మ": 1597,
      "అమలు": 1598,
      "ఆఫ్": 1599,
      "ఇచ్చి": 1600,
      "ఉష్": 1601,
      "ఉదయం": 1602,
      "ఎన": 1603,
      "ఎక్క": 1604,
      "ఎడా": 1605,
      "ఏర్": 1606,
      "కైన": 1607,
      "గైన": 1608,
      "గలి": 1609,
      "గాలి": 1610,
      "జనం": 1611,
      "జరగ": 1612,
      "ణం": 1613,
      "ణత": 1614,
      "తర్": 1615,
      "త్యా": 1616,
      "తప్పు": 1617,
      "దో": 1618,
      "ధర": 1619,
      "నడి": 1620,
      "నమ్": 1621,
      "నమ్మ": 1622,
      "పడు": 1623,
      "బృ": 1624,
      "భౌ": 1625,
      "మౌ": 1626,
      "మళ్ళ": 1627,
      "యన్": 1628,
      "రస్": 1629,
      "రండి": 1630,
      "లం": 1631,
      "లవ": 1632,
      "వది": 1633,
      "వంట": 1634,
      "సభ్": 1635,
      "ుల": 1636,
      "నిక": 1637,
      "నిల": 1638,
      "ర్జీ": 1639,
      "స్మార్": 1640,
      "స్వీ": 1641,
      "న్యా": 1642,
      "క్సి": 1643,
      "క్రీ": 1644,
      "క్యూ": 1645,
      "క్టివ్": 1646,
      "ప్తి": 1647,
      "దిగు": 1648,
      "డియో": 1649,
      "ప్రదా": 1650,
      "ించాలి": 1651,
      "లోత": 1652,
      "వాడు": 1653,
      "వాస్త": 1654,
      "ల్డ్": 1655,
      "మాట": 1656,
      "మారి": 1657,
      "ద్వేగ": 1658,
      "రాన్": 1659,
      "రాయండి": 1660,
      "పులు": 1661,
      "కాన్": 1662,
      "తాన్ని": 1663,
      "లికి": 1664,
      "లిజె": 1665,
      "కోర్": 1666,
      "కోడ్": 1667,
      "చేయబడిన": 1668,
      "గుడ్": 1669,
      "ాలుగా": 1670,
      "సిద్ధ": 1671,
      "పాత": 1672,
      "వ్యత్యా": 1673,
      "చివరగా": 1674,
      "వేది": 1675,
      "కొంచె": 1676,
      "మేనే": 1677,
      "ందన": 1678,
      "భావో": 1679,
      "పోర్": 1680,
      "పోల్": 1681,
      "పోటీ": 1682,
      "కేజీ": 1683,
      "స్థానిక": 1684,
      "వెంట": 1685,
      "రెండి": 1686,
      "రెండ": 1687,
      "కలిగే": 1688,
      "రేషన్": 1689,
      "చూశా": 1690,
      "జింగ్": 1691,
      "ఉండే": 1692,
      "ఉండండి": 1693,
      "జాగ్ర": 1694,
      "బాధ్య": 1695,
      "నెస్": 1696,
      "బిజీ": 1697,
      "గలరా": 1698,
      "గలవు": 1699,
      "సృష్టి": 1700,
      "సూర్": 1701,
      "తరగ": 1702,
      "దీర్ఘ": 1703,
      "కాలం": 1704,
      "క్రిప్": 1705,
      "ంటారు": 1706,
      "ఫిక్": 1707,
      "శక్తివంతమైన": 1708,
      "వ్యాయా": 1709,
      "పేర్": 1710,
      "ఉత్ప": 1711,
      "ాల్లో": 1712,
      "ఆధారిత": 1713,
      "దృష్ట": 1714,
      "మొత్తంలో": 1715,
      "కృత": 1716,
      "జనరేట్": 1717,
      "వినియోగదారులను": 1718,
      "క్రమబద్ధ": 1719,
      "ఇంజిన్": 1720,
      "ఖర్చులు": 1721,
      "ఖర్చులను": 1722,
      "టెక్స్ట్": 1723,
      "దీనిని": 1724,
      "నమూనాలను": 1725,
      "కపోతే": 1726,
      "వ్యాపార": 1727,
      "కున్నారు": 1728,
      "వ్యక్తులు": 1729,
      "పెంచడానికి": 1730,
      "మరోవైపు": 1731,
      "నీటిని": 1732,
      "జాబితాను": 1733,
      "సమర్థవంతంగా": 1734,
      "కనుగొనడానికి": 1735,
      "మేధస్సు": 1736,
      "నిర్ధారించడానికి": 1737,
      "అవుట్": 1738,
      "భూమి": 1739,
      "జనాభా": 1740,
      "సంక్షిప్తంగా": 1741,
      "విభజ": 1742,
      "శ్రేణి": 1743,
      "అన్వే": 1744,
      "ఆసక్తి": 1745,
      "ఒత్తిడి": 1746,
      "దయచేసి": 1747,
      "పర్యవే": 1748,
      "మవుతుంది": 1749,
      "మెరుగైన": 1750,
      "అత్యంత": 1751,
      "సిఫార్సు": 1752,
      "అద్భుతమైన": 1753,
      "వ్యక్తిగతీ": 1754,
      "ఆకర్షణీ": 1755,
      "ట్యాగ్": 1756,
      "గుణంగా": 1757,
      "ఇంటెలిజె": 1758,
      "ఉష్ణ": 1759,
      "ఎనర్జీ": 1760,
      "తర్వాత": 1761,
      "బృంద": 1762,
      "మళ్ళీ": 1763,
      "సభ్యు": 1764,
      "స్మార్ట్": 1765,
      "కొంచెం": 1766,
      "భావోద్వేగ": 1767,
      "జాగ్రత్తగా": 1768,
      "ఇంటెలిజెన్స్": 1769,
      "19": 1770,
      "20": 1771,
      "ఆల": 1772,
      "ఆందో": 1773,
      "ఇలా": 1774,
      "ఇటీ": 1775,
      "ఇప్పటి": 1776,
      "ఇష్టమైన": 1777,
      "ఉద్ద": 1778,
      "ఎల": 1779,
      "ఎక్స్": 1780,
      "కఠ": 1781,
      "కన్": 1782,
      "కనీ": 1783,
      "కంట్": 1784,
      "కళా": 1785,
      "ఖీ": 1786,
      "గమని": 1787,
      "చట్ట": 1788,
      "టంటే": 1789,
      "టప్పుడు": 1790,
      "డయాక్": 1791,
      "తూ": 1792,
      "తగిన": 1793,
      "థా": 1794,
      "థమిక": 1795,
      "ధులు": 1796,
      "నంలో": 1797,
      "నష్టం": 1798,
      "పరు": 1799,
      "పించే": 1800,
      "పంచు": 1801,
      "పంప": 1802,
      "ఫల": 1803,
      "ఫు": 1804,
      "బై": 1805,
      "బల్": 1806,
      "భో": 1807,
      "భవిష": 1808,
      "భిన్న": 1809,
      "మరణ": 1810,
      "మంచు": 1811,
      "యడం": 1812,
      "యస్సు": 1813,
      "వత": 1814,
      "వైన": 1815,
      "సన": 1816,
      "సల": 1817,
      "హ్": 1818,
      "హాని": 1819,
      "హ్యా": 1820,
      "ులను": 1821,
      "ోగ్ర": 1822,
      "నిమా": 1823,
      "నిమి": 1824,
      "రింగ్": 1825,
      "నుంచి": 1826,
      "స్తే": 1827,
      "క్లా": 1828,
      "ప్యా": 1829,
      "ాలపై": 1830,
      "దిశ": 1831,
      "యునై": 1832,
      "్యత్తు": 1833,
      "ట్లను": 1834,
      "డించ": 1835,
      "కిరణ": 1836,
      "తుందని": 1837,
      "తుందో": 1838,
      "విడు": 1839,
      "విచ్ఛ": 1840,
      "త్వరగా": 1841,
      "వాయు": 1842,
      "తిలో": 1843,
      "మాం": 1844,
      "మార": 1845,
      "ద్రీ": 1846,
      "నేపథ": 1847,
      "కావచ్చు": 1848,
      "లేడు": 1849,
      "సందర్": 1850,
      "చేయాలను": 1851,
      "డ్డా": 1852,
      "ంతరం": 1853,
      "సాగ": 1854,
      "సారి": 1855,
      "చుట్ట": 1856,
      "సిస్": 1857,
      "పాజి": 1858,
      "క్షీ": 1859,
      "రించడం": 1860,
      "వ్యూహ": 1861,
      "లాజ": 1862,
      "రంగ": 1863,
      "రంలో": 1864,
      "చివ": 1865,
      "చిరు": 1866,
      "వేరు": 1867,
      "వేత్త": 1868,
      "కొల": 1869,
      "ఒకటి": 1870,
      "పెం": 1871,
      "పెంచు": 1872,
      "రోబో": 1873,
      "పరిమాణ": 1874,
      "భావించ": 1875,
      "ష్టంగా": 1876,
      "చెట్టు": 1877,
      "అనుకున్నాను": 1878,
      "వులను": 1879,
      "ప్రాథమిక": 1880,
      "ండె": 1881,
      "స్తాను": 1882,
      "స్తాము": 1883,
      "్యామ్": 1884,
      "బ్రా": 1885,
      "సమయ": 1886,
      "సమగ్ర": 1887,
      "వర్త": 1888,
      "వ్వు": 1889,
      "సహాయ": 1890,
      "జీవన": 1891,
      "తెలి": 1892,
      "ఉన్నారు": 1893,
      "పొర": 1894,
      "జాన్": 1895,
      "బాట్": 1896,
      "గలదు": 1897,
      "పనిచేయడం": 1898,
      "దీన్ని": 1899,
      "సహాయపడటానికి": 1900,
      "సైడ్": 1901,
      "కాలే": 1902,
      "తగ్గు": 1903,
      "ంచుకోండి": 1904,
      "ఫిల్": 1905,
      "ఏమిటంటే": 1906,
      "సంబంధాలను": 1907,
      "మేరీని": 1908,
      "దేశం": 1909,
      "వాతావరణంలో": 1910,
      "వాతావరణాన్ని": 1911,
      "ఉంటారు": 1912,
      "స్తున్నాము": 1913,
      "శిలాజ": 1914,
      "విశ్రాం": 1915,
      "చెప్పి": 1916,
      "రక్షించడానికి": 1917,
      "సులభతరం": 1918,
      "అలాగే": 1919,
      "చర్యలు": 1920,
      "తెలియజే": 1921,
      "అందించడానికి": 1922,
      "అందించడం": 1923,
      "దించండి": 1924,
      "కంప్యూటింగ్": 1925,
      "లక్ష్యంగా": 1926,
      "ఫోన్": 1927,
      "గుర్తించడానికి": 1928,
      "అనుమతిస్తాయి": 1929,
      "ప్రత్యామ్": 1930,
      "వనరులు": 1931,
      "ఏదో": 1932,
      "నమూనాలు": 1933,
      "వలసిన": 1934,
      "కారణం": 1935,
      "ప్రయోజనాలు": 1936,
      "సిస్టెంట్": 1937,
      "వ్యాపారాలు": 1938,
      "జ్ఞాప": 1939,
      "ఉంచండి": 1940,
      "వ్యక్తుల": 1941,
      "పెంచడం": 1942,
      "ఆలోచ": 1943,
      "వస్తువులు": 1944,
      "సమర్థవంతమైన": 1945,
      "ప్లాన్": 1946,
      "వేయడం": 1947,
      "ఇంటర్నెట్": 1948,
      "కనిపి": 1949,
      "అనధి": 1950,
      "ఇంధన": 1951,
      "బడ్డా": 1952,
      "పూర్తిగా": 1953,
      "స్టేట్స్": 1954,
      "ఆహార": 1955,
      "షాపింగ్": 1956,
      "ప్రభుత్వ": 1957,
      "ఉండటం": 1958,
      "నిమగ్న": 1959,
      "కనెక్ట్": 1960,
      "కోల్పో": 1961,
      "కల్పన": 1962,
      "ఇష్టపడ": 1963,
      "బ్బంది": 1964,
      "ప్రతిస్పందన": 1965,
      "అలవా": 1966,
      "ధునిక": 1967,
      "రగాయ": 1968,
      "శుభ్": 1969,
      "ఇంటరాక్టివ్": 1970,
      "నైపుణ్య": 1971,
      "స్పామ్": 1972,
      "నాణ్యత": 1973,
      "కూడిన": 1974,
      "నిర్ధారించుకోండి": 1975,
      "అమెరికా": 1976,
      "ఎడారి": 1977,
      "నమ్ము": 1978,
      "లోతైన": 1979,
      "రెండింటి": 1980,
      "బిజీగా": 1981,
      "ఉష్ణోగ్ర": 1982,
      "ఆందోళ": 1983,
      "ఉద్దే": 1984,
      "ఎలక్ట్": 1985,
      "కఠిన": 1986,
      "కనీసం": 1987,
      "డయాక్సైడ్": 1988,
      "భవిష్యత్తు": 1989,
      "యునైటెడ్": 1990,
      "విడుదల": 1991,
      "విచ్ఛిన్న": 1992,
      "విశ్రాంతి": 1993,
      "):": 1994,
      "18": 1995,
      "30": 1996,
      "50": 1997,
      "అసిస్టెంట్": 1998,
      "ఆవి": 1999,
      "ఆల్": 2000,
      "ఆహ్": 2001,
      "ఆధునిక": 2002,
      "ఇచ్": 2003,
      "ఇద్ద": 2004,
      "ఎక్": 2005,
      "ఏదే": 2006,
      "ఒక్క": 2007,
      "కలు": 2008,
      "కలా": 2009,
      "కష్టం": 2010,
      "గర్": 2011,
      "గలను": 2012,
      "జనీ": 2013,
      "డ్యూ": 2014,
      "తని": 2015,
      "త్య": 2016,
      "తల్లి": 2017,
      "థి": 2018,
      "దానికి": 2019,
      "ధం": 2020,
      "నలు": 2021,
      "నడానికి": 2022,
      "నష్ట": 2023,
      "నప్పుడు": 2024,
      "పడటం": 2025,
      "ఫేస్": 2026,
      "బొ": 2027,
      "బేస్": 2028,
      "భవి": 2029,
      "మయ": 2030,
      "మాలను": 2031,
      "మ్యా": 2032,
      "రవ": 2033,
      "రల్": 2034,
      "రకం": 2035,
      "లర్": 2036,
      "ల్యా": 2037,
      "వరీ": 2038,
      "షాలు": 2039,
      "సమీ": 2040,
      "ారు": 2041,
      "ునా": 2042,
      "నిర": 2043,
      "నిరా": 2044,
      "నిన్న": 2045,
      "నిద్ర": 2046,
      "రిని": 2047,
      "ర్స్": 2048,
      "స్కా": 2049,
      "స్టి": 2050,
      "స్పె": 2051,
      "స్యం": 2052,
      "స్తోంది": 2053,
      "క్యు": 2054,
      "క్వా": 2055,
      "ప్పి": 2056,
      "కులకు": 2057,
      "కుంటే": 2058,
      "కుళా": 2059,
      "యుద్ధ": 2060,
      "రుకైన": 2061,
      "కిల్": 2062,
      "ందింది": 2063,
      "విరా": 2064,
      "వింగ్": 2065,
      "విజు": 2066,
      "త్స": 2067,
      "వారం": 2068,
      "వారీ": 2069,
      "వాదన": 2070,
      "తింపు": 2071,
      "ల్ఫ్": 2072,
      "మీతో": 2073,
      "మాండ్": 2074,
      "రాజ": 2075,
      "పురోగ": 2076,
      "కాఫీ": 2077,
      "లేను": 2078,
      "లేదని": 2079,
      "టికె": 2080,
      "టిఫిషియ": 2081,
      "తాజా": 2082,
      "యిడ్": 2083,
      "లింగ్": 2084,
      "సంఘ": 2085,
      "సంప్ర": 2086,
      "సంస్థ": 2087,
      "సంతృ": 2088,
      "డ్రై": 2089,
      "సాహ": 2090,
      "సారాం": 2091,
      "సిక": 2092,
      "సింది": 2093,
      "సినిమా": 2094,
      "పాట": 2095,
      "వ్యూ": 2096,
      "రీన్": 2097,
      "వేడి": 2098,
      "వేచి": 2099,
      "కొద్ద": 2100,
      "మెకాని": 2101,
      "పెరిగిన": 2102,
      "యంలో": 2103,
      "పరిశోధన": 2104,
      "భారీ": 2105,
      "చెందు": 2106,
      "అనువర్తన": 2107,
      "అనుకుంటున్నారా": 2108,
      "తీయ": 2109,
      "తీరు": 2110,
      "పిలు": 2111,
      "వుల": 2112,
      "ప్రాతిని": 2113,
      "పోషి": 2114,
      "కేట్": 2115,
      "కేటా": 2116,
      "టులు": 2117,
      "ందుకు": 2118,
      "మార్చ": 2119,
      "మార్గాన్ని": 2120,
      "ంటున్నా": 2121,
      "కూడ": 2122,
      "కూరగాయ": 2123,
      "రెంట్": 2124,
      "వ్రా": 2125,
      "ంలోని": 2126,
      "డాన్ని": 2127,
      "ళ్లను": 2128,
      "చాట్": 2129,
      "పొడ": 2130,
      "జిక్": 2131,
      "కరించే": 2132,
      "బాధ": 2133,
      "బార్": 2134,
      "నెల": 2135,
      "మొబై": 2136,
      "యూజర్": 2137,
      "టీమ్": 2138,
      "తేడ": 2139,
      "తేదీ": 2140,
      "సరదా": 2141,
      "తీసుకోవడానికి": 2142,
      "జ్డ్": 2143,
      "పనిచే": 2144,
      "పనిచేసే": 2145,
      "వైవి": 2146,
      "చేయడంలో": 2147,
      "అభిప్రా": 2148,
      "ఫికేషన్": 2149,
      "వినియోగం": 2150,
      "గోళ": 2151,
      "గోప్య": 2152,
      "గోరిథ": 2153,
      "పేజీ": 2154,
      "అంగీ": 2155,
      "ఉత్పాదక": 2156,
      "ాల్సిన": 2157,
      "గుర్తింపు": 2158,
      "సాంస్కృ": 2159,
      "దృశ్య": 2160,
      "స్పర": 2161,
      "స్పష్టంగా": 2162,
      "వినియోగదారుల": 2163,
      "వాతావరణం": 2164,
      "టామ్‌తో": 2165,
      "ఇవ్వబడ్": 2166,
      "విశ్వ": 2167,
      "ఆరోగ్యం": 2168,
      "ాలోని": 2169,
      "నిర్వహణ": 2170,
      "నిర్వహించడం": 2171,
      "ఎక్కువగా": 2172,
      "మనకు": 2173,
      "లీకేజీ": 2174,
      "ట్టిన": 2175,
      "చెప్పండి": 2176,
      "పరస్పర": 2177,
      "ఇంజనీ": 2178,
      "పూర్త": 2179,
      "ఆర్టిఫిషియ": 2180,
      "ప్రేరణ": 2181,
      "అనుభవం": 2182,
      "దించడానికి": 2183,
      "గుర్తించ": 2184,
      "అతనికి": 2185,
      "వనరుల": 2186,
      "వనరులను": 2187,
      "కరణను": 2188,
      "కారణాలు": 2189,
      "క్లింగ్": 2190,
      "విస్తరించి": 2191,
      "మానసిక": 2192,
      "అవసరాలను": 2193,
      "మొదట": 2194,
      "సరిపో": 2195,
      "సరిగ్గా": 2196,
      "పొందడానికి": 2197,
      "అయిన": 2198,
      "ఆదాయాన్ని": 2199,
      "పెరుగుదల": 2200,
      "పెరుగుతున్న": 2201,
      "ప్రాంతం": 2202,
      "అంశాలను": 2203,
      "అధునా": 2204,
      "ఉద్యోగు": 2205,
      "చేస్తాడు": 2206,
      "పరిష్కరించడానికి": 2207,
      "ఎంచుకోండి": 2208,
      "కాలుష": 2209,
      "బ్యాక్": 2210,
      "విలువైన": 2211,
      "వేయడానికి": 2212,
      "ప్రోత్సహించడానికి": 2213,
      "ప్రోత్సహించడం": 2214,
      "000": 2215,
      "అల్గోరిథ": 2216,
      "మారుతుంది": 2217,
      "ఇంటికి": 2218,
      "పట్టణ": 2219,
      "స్క్రీన్": 2220,
      "అవకాశాలను": 2221,
      "భద్రత": 2222,
      "భద్రతా": 2223,
      "కార్యక్రమ": 2224,
      "కార్యకలా": 2225,
      "పరికరాలు": 2226,
      "పరిస్థితులు": 2227,
      "చూపుతుంది": 2228,
      "గణనీయంగా": 2229,
      "లక్షణాలను": 2230,
      "నిర్మించడానికి": 2231,
      "అంతర్దృష్ట": 2232,
      "విద్యార్థులు": 2233,
      "అందుబాటు": 2234,
      "హోమ్": 2235,
      "శాస్త్ర": 2236,
      "ఉండటానికి": 2237,
      "విశ్లేషించడం": 2238,
      "కంటెంట్ను": 2239,
      "నిమగ్నం": 2240,
      "స్తున్నప్పుడు": 2241,
      "ప్రాప్యత": 2242,
      "ప్రాప్యతను": 2243,
      "స్నేహితుడు": 2244,
      "నివసి": 2245,
      "సంక్లిష్ట": 2246,
      "తగ్గిస్తుంది": 2247,
      "కాలిక": 2248,
      "శైలి": 2249,
      "షెడ్యూ": 2250,
      "విజయ": 2251,
      "విద్యుత్": 2252,
      "సహాయపడతాయి": 2253,
      "విస్తృత": 2254,
      "ఉద్గా": 2255,
      "వాడకం": 2256,
      "సార్లు": 2257,
      "రీసైక్లింగ్": 2258,
      "పరిజ్ఞానం": 2259,
      "తీవ్రమైన": 2260,
      "చూసుకోండి": 2261,
      "అల్గారిథమ్": 2262,
      "ఆప్టిమైజేషన్": 2263,
      "దగ్గర": 2264,
      "ప్రదాయ": 2265,
      "వేదిక": 2266,
      "పోల్చండి": 2267,
      "వెంటనే": 2268,
      "సూర్యు": 2269,
      "దీర్ఘకాలిక": 2270,
      "ఉత్పత్తు": 2271,
      "క్రమబద్ధీ": 2272,
      "పర్యవేక్ష": 2273,
      "ఆకర్షణీయమైన": 2274,
      "ఇప్పటికే": 2275,
      "కంట్రోల్": 2276,
      "పరుస్తుంది": 2277,
      "పంచుకోవడానికి": 2278,
      "మాంసం": 2279,
      "ఫిల్టర్": 2280,
      "ఉద్దేశ": 2281,
      "కఠినమైన": 2282,
      "ఏదేమైనా": 2283,
      "తనిఖీ": 2284,
      "కుళాయి": 2285,
      "కొద్దీ": 2286,
      "మొబైల్": 2287,
      "సాంస్కృతిక": 2288,
      "ఇవ్వబడ్డ": 2289,
      "ఆర్టిఫిషియల్": 2290,
      "అధునాతన": 2291,
      "అల్గోరిథం": 2292,
      "అందుబాటులో": 2293,
      "!.": 2294,
      "24": 2295,
      "ంప్": 2296,
      "అద్ద": 2297,
      "అధ్య": 2298,
      "అడిగా": 2299,
      "ఆకా": 2300,
      "ఆశ్": 2301,
      "ఆకట్టు": 2302,
      "ఇంత": 2303,
      "ఉపరి": 2304,
      "ఊహ": 2305,
      "ఎవర": 2306,
      "ఎప్పుడ": 2307,
      "ఏఐ": 2308,
      "ఏవై": 2309,
      "ఐడి": 2310,
      "ఐదు": 2311,
      "కణ": 2312,
      "కష్ట": 2313,
      "కప్పు": 2314,
      "కరంగా": 2315,
      "ఖరీ": 2316,
      "గౌ": 2317,
      "గడి": 2318,
      "గడప": 2319,
      "చని": 2320,
      "చయం": 2321,
      "చల్ల": 2322,
      "జత": 2323,
      "జాల": 2324,
      "జరు": 2325,
      "జరిగి": 2326,
      "జన్య": 2327,
      "డై": 2328,
      "డమే": 2329,
      "డక్ట్": 2330,
      "ణు": 2331,
      "ణులు": 2332,
      "తత్": 2333,
      "తదు": 2334,
      "తలను": 2335,
      "ధన": 2336,
      "ధో": 2337,
      "ధ్": 2338,
      "నొ": 2339,
      "నది": 2340,
      "నచ్చి": 2341,
      "నడప": 2342,
      "పాల్": 2343,
      "పన్ను": 2344,
      "పత్రి": 2345,
      "పట్ల": 2346,
      "ఫరె": 2347,
      "బం": 2348,
      "బడే": 2349,
      "భయప": 2350,
      "రహ": 2351,
      "రవా": 2352,
      "రానికి": 2353,
      "లూ": 2354,
      "వాల": 2355,
      "వరు": 2356,
      "వలి": 2357,
      "శం": 2358,
      "శబ్": 2359,
      "షం": 2360,
      "షనల్": 2361,
      "సన్": 2362,
      "సబ్": 2363,
      "సవాలు": 2364,
      "ాను": 2365,
      "ాత్మక": 2366,
      "ౌండ్": 2367,
      "‌లో": 2368,
      "నిపు": 2369,
      "నిజా": 2370,
      "నిధులు": 2371,
      "రింపు": 2372,
      "ర్మ": 2373,
      "ర్క్": 2374,
      "ర్పు": 2375,
      "ర్యా": 2376,
      "ర్యం": 2377,
      "క్య": 2378,
      "కుక్క": 2379,
      "రుచి": 2380,
      "్యానికి": 2381,
      "డిస్": 2382,
      "ప్రీ": 2383,
      "ప్రె": 2384,
      "ప్రచు": 2385,
      "ప్రజా": 2386,
      "ప్రమాణ": 2387,
      "ప్రకారం": 2388,
      "కిత్స": 2389,
      "లుదే": 2390,
      "తులకు": 2391,
      "తుల్లో": 2392,
      "విన": 2393,
      "విటీ": 2394,
      "విపరీ": 2395,
      "ించబడింది": 2396,
      "ించబడిన": 2397,
      "నాతో": 2398,
      "లోబల్": 2399,
      "త్రీ": 2400,
      "తిరే": 2401,
      "తినడానికి": 2402,
      "ల్లు": 2403,
      "ల్టే": 2404,
      "ంటీ": 2405,
      "ంటమ్": 2406,
      "మాను": 2407,
      "మాన్ని": 2408,
      "మాణా": 2409,
      "మ్మి": 2410,
      "డులు": 2411,
      "డుతున్నా": 2412,
      "ద్దా": 2413,
      "ద్ధా": 2414,
      "రాష్": 2415,
      "రాతన": 2416,
      "గ్లోబల్": 2417,
      "పురాతన": 2418,
      "టివిటీ": 2419,
      "యితీ": 2420,
      "లిక్": 2421,
      "సంయోగ": 2422,
      "సందే": 2423,
      "సంరక్ష": 2424,
      "చేయవలసిన": 2425,
      "డ్డ": 2426,
      "డ్స్": 2427,
      "గురువు": 2428,
      "సాన్ని": 2429,
      "సాక్ష": 2430,
      "సున్ని": 2431,
      "చురుకైన": 2432,
      "సింగ్": 2433,
      "పారి": 2434,
      "యోగాన్ని": 2435,
      "ముగి": 2436,
      "ముంద": 2437,
      "రణను": 2438,
      "వ్యయ": 2439,
      "వ్యర్థ": 2440,
      "వ్యతిరే": 2441,
      "చిపో": 2442,
      "చికిత్స": 2443,
      "కొంద": 2444,
      "పెడ": 2445,
      "యంత్ర": 2446,
      "న్నీ": 2447,
      "ందర": 2448,
      "పరిశీల": 2449,
      "పరిచయం": 2450,
      "హాన్ని": 2451,
      "హార్డ్": 2452,
      "భావం": 2453,
      "చెల్ల": 2454,
      "అనుకూ": 2455,
      "అనుగుణంగా": 2456,
      "పిక్": 2457,
      "ప్రాముఖ్య": 2458,
      "పోరా": 2459,
      "కేల": 2460,
      "ందున": 2461,
      "వెలు": 2462,
      "కలిగ": 2463,
      "అవయ": 2464,
      "జీవ": 2465,
      "జీవులు": 2466,
      "రేపు": 2467,
      "ఉన్నాడు": 2468,
      "ఉన్నాము": 2469,
      "పొందిన": 2470,
      "శాంత": 2471,
      "ఉండాలని": 2472,
      "అభ్యా": 2473,
      "కలిగిస్తుంది": 2474,
      "మూసి": 2475,
      "బిజి": 2476,
      "సరళ": 2477,
      "ప్రతికూల": 2478,
      "తీసుకోవడం": 2479,
      "పనితీరు": 2480,
      "సృజనా": 2481,
      "సమాన": 2482,
      "సమాంత": 2483,
      "సమాధా": 2484,
      "వినియోగాన్ని": 2485,
      "బోయే": 2486,
      "కుంటుంది": 2487,
      "ఉన్నప్పుడు": 2488,
      "వీస్": 2489,
      "వీడియో": 2490,
      "వ్యాప్": 2491,
      "వ్యాసం": 2492,
      "వ్వండి": 2493,
      "లైజేషన్": 2494,
      "సాంప్రదాయ": 2495,
      "సంబంధిత": 2496,
      "స్పీ": 2497,
      "కృతి": 2498,
      "స్థిర": 2499,
      "గేమింగ్": 2500,
      "లియన్": 2501,
      "స్తున్నాడు": 2502,
      "స్తున్నారా": 2503,
      "వ్యవస్థల": 2504,
      "వ్యవస్థను": 2505,
      "వ్యవస్థలు": 2506,
      "వ్యవస్థలను": 2507,
      "మైంది": 2508,
      "ంచిన": 2509,
      "పర్వత": 2510,
      "తగ్గించడంలో": 2511,
      "ించాను": 2512,
      "ముఖ్యంగా": 2513,
      "అనిప": 2514,
      "చెప్పలేదు": 2515,
      "ప్రయోజనం": 2516,
      "ఆర్కి": 2517,
      "ఆర్డర్": 2518,
      "ప్రారంభించండి": 2519,
      "తీసుకురా": 2520,
      "లక్ష్యాలను": 2521,
      "కమ్యూనిటీ": 2522,
      "కమ్యూనికేట్": 2523,
      "చేసుకోవడానికి": 2524,
      "పొందించడానికి": 2525,
      "కుంటున్నారు": 2526,
      "గుర్తించడం": 2527,
      "వేగవంతమైన": 2528,
      "అందమైన": 2529,
      "అందరూ": 2530,
      "ఫీడ్": 2531,
      "నిర్ణయం": 2532,
      "అవసరాలు": 2533,
      "అవసరమైన": 2534,
      "ఎవరూ": 2535,
      "సర్దు": 2536,
      "సర్వీస్": 2537,
      "చేసినప్పుడు": 2538,
      "వ్యక్తీ": 2539,
      "పెట్టుబడు": 2540,
      "ఆదాయం": 2541,
      "ఖచ్చితమైన": 2542,
      "విధానం": 2543,
      "సంవత్స": 2544,
      "చేస్తాను": 2545,
      "నేర్చుకోవడానికి": 2546,
      "పరిష్కా": 2547,
      "ఎంచుకున్న": 2548,
      "టైమ్": 2549,
      "విషయం": 2550,
      "మాట్లాడా": 2551,
      "స్నేహితులు": 2552,
      "టేబుల్": 2553,
      "ఆకర్ష": 2554,
      "నిర్ణయాలు": 2555,
      "ఇంధనాలు": 2556,
      "కథా": 2557,
      "తలుపు": 2558,
      "నగరం": 2559,
      "పుస్తకాలను": 2560,
      "చేయగలవు": 2561,
      "సంవత్సరాల": 2562,
      "ఉపయోగిస్తుంది": 2563,
      "బహుమ": 2564,
      "బహుళ": 2565,
      "చేశారు": 2566,
      "కొనసాగ": 2567,
      "పోయాడు": 2568,
      "స్టేట్": 2569,
      "జన్యు": 2570,
      "ప్రియమైన": 2571,
      "పెట్టడానికి": 2572,
      "పెట్టడం": 2573,
      "పనులను": 2574,
      "శరీరం": 2575,
      "హైడ్": 2576,
      "పాఠశాల": 2577,
      "శ్రేయస్సు": 2578,
      "ప్రయత్నించండి": 2579,
      "ఇతరులతో": 2580,
      "జోడించ": 2581,
      "ఫలిత": 2582,
      "ఫలితంగా": 2583,
      "బయట": 2584,
      "బయలుదే": 2585,
      "ప్రమాద": 2586,
      "లేకపోవడం": 2587,
      "చిత్రాలు": 2588,
      "వెళ్లి": 2589,
      "ప్రేక్షకులను": 2590,
      "కట్టుబడి": 2591,
      "ప్రసిద్ధి": 2592,
      "సంక్లిష్టమైన": 2593,
      "పాస్వర్డ్": 2594,
      "పోయిన": 2595,
      "పోయింది": 2596,
      "సేవలను": 2597,
      "బోస్టన్‌కు": 2598,
      "బోస్టన్‌లో": 2599,
      "ప్రణాళికను": 2600,
      "ఆపిల్": 2601,
      "ఒంటరిగా": 2602,
      "చదవడం": 2603,
      "కుటుంబం": 2604,
      "ప్రొడక్ట్": 2605,
      "నిర్మాణం": 2606,
      "స్టోర్": 2607,
      "యూనిట్": 2608,
      "సౌకర్యవంతమైన": 2609,
      "ఆటగా": 2610,
      "ఆపరే": 2611,
      "ప్రయాణం": 2612,
      "చేరుకోవడానికి": 2613,
      "దుస్తులు": 2614,
      "సంతోష": 2615,
      "వీటిలో": 2616,
      "గుర్తుంచుకోండి": 2617,
      "తొలగ": 2618,
      "ఎదుర్కొ": 2619,
      "ఆటోమేషన్": 2620,
      "నిరోధించడానికి": 2621,
      "సురక్షితమైన": 2622,
      "భౌతిక": 2623,
      "సిద్ధంగా": 2624,
      "మేనేజ్": 2625,
      "బాధ్యత": 2626,
      "వ్యాయామం": 2627,
      "పేర్కొన": 2628,
      "వ్యక్తిగతీకరించిన": 2629,
      "ఆలస్యం": 2630,
      "ఇటీవలి": 2631,
      "ఫుడ్": 2632,
      "భిన్నంగా": 2633,
      "సలహా": 2634,
      "హ్యాష్": 2635,
      "నిమిషాలు": 2636,
      "కిరణజన్య": 2637,
      "సందర్భ": 2638,
      "చుట్టూ": 2639,
      "పాజిటివ్": 2640,
      "చివరి": 2641,
      "పెంపొందించడానికి": 2642,
      "బ్రాండ్": 2643,
      "ప్రత్యామ్నాయ": 2644,
      "నైపుణ్యాలను": 2645,
      "ఉష్ణోగ్రత": 2646,
      "విచ్ఛిన్నం": 2647,
      "ఇద్దరూ": 2648,
      "నిరంతరం": 2649,
      "క్వాంటమ్": 2650,
      "యుద్ధం": 2651,
      "శాస్త్రవేత్త": 2652,
      "షెడ్యూల్": 2653,
      "ఉత్పత్తులను": 2654,
      "అధ్యయ": 2655,
      "ఆశ్చర్య": 2656,
      "ఉపరితల": 2657,
      "ఎవరైనా": 2658,
      "ఎప్పుడైనా": 2659,
      "ఏవైనా": 2660,
      "తదుపరి": 2661,
      "ధోరణ": 2662,
      "నొప్పి": 2663,
      "పాల్గొ": 2664,
      "రవాణా": 2665,
      "వరుస": 2666,
      "నిజాయితీ": 2667,
      "సంయోగక్రియ": 2668,
      "కొందరు": 2669,
      "అనుకూలీ": 2670,
      "సృజనాత్మక": 2671,
      "\",": 2672,
      "37": 2673,
      "అదృ": 2674,
      "ఆన": 2675,
      "ఆశ": 2676,
      "ఆక్సి": 2677,
      "ఇంగ్": 2678,
      "ఇస్తుంది": 2679,
      "ఇప్పటికీ": 2680,
      "ఎద": 2681,
      "ఎల్": 2682,
      "ఎన్ని": 2683,
      "ఎడ్": 2684,
      "ఎగు": 2685,
      "ఎప్పటికీ": 2686,
      "ఏది": 2687,
      "ఒప్ప": 2688,
      "కరి": 2689,
      "కండి": 2690,
      "కమైన": 2691,
      "కళ్ళు": 2692,
      "గృ": 2693,
      "గది": 2694,
      "గలు": 2695,
      "చదు": 2696,
      "చలి": 2697,
      "జల": 2698,
      "జమా": 2699,
      "జాలు": 2700,
      "టన్": 2701,
      "టరీ": 2702,
      "టాలోని": 2703,
      "డక": 2704,
      "తండ్": 2705,
      "దలు": 2706,
      "దడు": 2707,
      "దైన": 2708,
      "దలకు": 2709,
      "ధూ": 2710,
      "ధ్యా": 2711,
      "ధన్య": 2712,
      "ధమిక": 2713,
      "నచ్చ": 2714,
      "నవ్వు": 2715,
      "పం": 2716,
      "పణ": 2717,
      "పాలు": 2718,
      "పండ్": 2719,
      "పండు": 2720,
      "ఫ్యా": 2721,
      "బగ్": 2722,
      "బాల్": 2723,
      "బరువు": 2724,
      "భర్": 2725,
      "భవన": 2726,
      "మంచ": 2727,
      "మందు": 2728,
      "మరె": 2729,
      "యాలను": 2730,
      "రచ": 2731,
      "రశ్": 2732,
      "రాలకు": 2733,
      "ళి": 2734,
      "వానికి": 2735,
      "వడ్": 2736,
      "వస్తుంది": 2737,
      "వసర": 2738,
      "వద్దు": 2739,
      "వలైజేషన్": 2740,
      "షిక": 2741,
      "సాలు": 2742,
      "సాలను": 2743,
      "సరీ": 2744,
      "సనీ": 2745,
      "హౌ": 2746,
      "ోద్యో": 2747,
      "ౌన్": 2748,
      "నిలు": 2749,
      "నిష్": 2750,
      "నియా": 2751,
      "నిశ్": 2752,
      "నిబంధ": 2753,
      "నిన్ను": 2754,
      "నిజం": 2755,
      "రిపోర్": 2756,
      "స్నా": 2757,
      "స్వచ్": 2758,
      "స్పి": 2759,
      "స్టింగ్": 2760,
      "న్యు": 2761,
      "న్లను": 2762,
      "న్సీ": 2763,
      "క్టర్": 2764,
      "ంచే": 2765,
      "ంచండి": 2766,
      "ంచడం": 2767,
      "ాలనే": 2768,
      "కుంటా": 2769,
      "యువ": 2770,
      "్యత": 2771,
      "్యాలు": 2772,
      "ట్రి": 2773,
      "ట్టా": 2774,
      "డింగ్": 2775,
      "డిమాండ్": 2776,
      "ప్రస్తు": 2777,
      "ప్రయోగ": 2778,
      "ప్రముఖ": 2779,
      "ప్రకాశ": 2780,
      "ప్రశాంత": 2781,
      "ప్రకృతి": 2782,
      "లుక్": 2783,
      "విఫల": 2784,
      "నాను": 2785,
      "నాన్": 2786,
      "లోతు": 2787,
      "చేస్తారు": 2788,
      "త్రాన్ని": 2789,
      "త్తులు": 2790,
      "వాదాలు": 2791,
      "మాక్": 2792,
      "మానా": 2793,
      "మాపణ": 2794,
      "డుకున్న": 2795,
      "ద్ది": 2796,
      "ద్రం": 2797,
      "టాపిక్": 2798,
      "రాడు": 2799,
      "రావృ": 2800,
      "రాసిన": 2801,
      "రాబోయే": 2802,
      "గ్లా": 2803,
      "పుష్": 2804,
      "కాకుండా": 2805,
      "కారిక": 2806,
      "కాపీ": 2807,
      "లేరు": 2808,
      "లేబుల్": 2809,
      "దులు": 2810,
      "దులుగా": 2811,
      "టిల్": 2812,
      "యిన్": 2813,
      "యితే": 2814,
      "లిస్": 2815,
      "లిచా": 2816,
      "లికేషన్": 2817,
      "లివరీ": 2818,
      "సందర్శ": 2819,
      "కోట": 2820,
      "కోశ": 2821,
      "చేయాలో": 2822,
      "చేయాలని": 2823,
      "చేయబడతాయి": 2824,
      "గుస": 2825,
      "గుతారు": 2826,
      "న్నాడు": 2827,
      "స్తుందో": 2828,
      "సారూ": 2829,
      "సాధ్య": 2830,
      "క్కె": 2831,
      "టామ్కు": 2832,
      "సిబ్బంది": 2833,
      "సిఫికేషన్": 2834,
      "పాడు": 2835,
      "ాలనుకుంటున్నారా": 2836,
      "క్షమ": 2837,
      "క్షమాపణ": 2838,
      "ముక్క": 2839,
      "వ్యవహ": 2840,
      "యాత్ర": 2841,
      "యాజమా": 2842,
      "రీదారు": 2843,
      "చిక్కు": 2844,
      "గింగ్": 2845,
      "వేశ": 2846,
      "వేసి": 2847,
      "ఒకరి": 2848,
      "మిలియన్": 2849,
      "మెదడు": 2850,
      "పెన్": 2851,
      "పెన్ను": 2852,
      "పెరగ": 2853,
      "తోట": 2854,
      "యంప్రతి": 2855,
      "న్నో": 2856,
      "న్నప్పుడు": 2857,
      "రోగి": 2858,
      "పరిణా": 2859,
      "పరిధి": 2860,
      "హాజరు": 2861,
      "చెక్": 2862,
      "చెబు": 2863,
      "చెందా": 2864,
      "చెట్లను": 2865,
      "చెందింది": 2866,
      "చెయిన్": 2867,
      "తీర్చ": 2868,
      "పిలువ": 2869,
      "పిలిచా": 2870,
      "ప్రాసె": 2871,
      "ప్రాధమిక": 2872,
      "పోలీ": 2873,
      "స్తారా": 2874,
      "స్తాడని": 2875,
      "్యాయి": 2876,
      "కేస్": 2877,
      "స్థలం": 2878,
      "బ్ర": 2879,
      "బ్రి": 2880,
      "బ్రె": 2881,
      "టును": 2882,
      "టువంటి": 2883,
      "సమతుల": 2884,
      "వర్ణ": 2885,
      "వర్లు": 2886,
      "వర్టై": 2887,
      "ంటింగ్": 2888,
      "వెను": 2889,
      "వెచ్చ": 2890,
      "మార్పి": 2891,
      "మార్చండి": 2892,
      "డేటాలోని": 2893,
      "కూర్చు": 2894,
      "కూర్చ": 2895,
      "కూడుకున్న": 2896,
      "రెట్లు": 2897,
      "రెస్టా": 2898,
      "వ్వులు": 2899,
      "ంట్లు": 2900,
      "స్టర్": 2901,
      "డాక్యు": 2902,
      "ాలిటీ": 2903,
      "ఉపయోగం": 2904,
      "చూసి": 2905,
      "చూస్తున్నాను": 2906,
      "చూడటం": 2907,
      "చాయి": 2908,
      "తెరవ": 2909,
      "పొందా": 2910,
      "సెల": 2911,
      "సేపు": 2912,
      "సేకరణ": 2913,
      "డేటాబేస్": 2914,
      "రూపా": 2915,
      "ర్యరశ్": 2916,
      "నెమ్మ": 2917,
      "టీని": 2918,
      "టీవీ": 2919,
      "మూడ": 2920,
      "తీసుకోవాలి": 2921,
      "పనిని": 2922,
      "పనికి": 2923,
      "టర్లు": 2924,
      "వైద్య": 2925,
      "సూర్యరశ్": 2926,
      "సహాయపడే": 2927,
      "సైన్స్": 2928,
      "సైబర్": 2929,
      "కాల్": 2930,
      "కాలంలో": 2931,
      "క్రింద": 2932,
      "సహకారం": 2933,
      "సహోద్యో": 2934,
      "దారులకు": 2935,
      "బోర్డ్": 2936,
      "ఉన్నట్లు": 2937,
      "వంతు": 2938,
      "వహించండి": 2939,
      "ప్రభావాలను": 2940,
      "సృష్టించవచ్చు": 2941,
      "అంతు": 2942,
      "బుక్": 2943,
      "లైటింగ్": 2944,
      "స్ట్రి": 2945,
      "స్ట్రా": 2946,
      "ళ్ళను": 2947,
      "**:": 2948,
      "సంబంధించి": 2949,
      "తెలుసా": 2950,
      "స్థితి": 2951,
      "వినియోగదారులకు": 2952,
      "ఇవ్వడం": 2953,
      "మైతే": 2954,
      "మధ్యలో": 2955,
      "రోజువారీ": 2956,
      "తగ్గడానికి": 2957,
      "తగ్గించవచ్చు": 2958,
      "తెలుసుకోండి": 2959,
      "మ్యూజిక్": 2960,
      "షణను": 2961,
      "వేర్వేరు": 2962,
      "నాలుగు": 2963,
      "రక్షించు": 2964,
      "సులభమైన": 2965,
      "చర్యను": 2966,
      "పూర్వ": 2967,
      "ఖర్చుతో": 2968,
      "జెట్": 2969,
      "మెరుగుపరుస్తుంది": 2970,
      "అందించండి": 2971,
      "సోద": 2972,
      "సోర్స్": 2973,
      "ప్రేమ": 2974,
      "ప్రేరే": 2975,
      "అనుభూ": 2976,
      "డెవల": 2977,
      "డెలివరీ": 2978,
      "ఫోటో": 2979,
      "చేసుకోవడం": 2980,
      "గుర్తించండి": 2981,
      "ఇన్పుట్": 2982,
      "పునరావృ": 2983,
      "అందం": 2984,
      "అందంగా": 2985,
      "అందరికీ": 2986,
      "మార్పును": 2987,
      "మార్పులు": 2988,
      "మార్పులను": 2989,
      "వచ్చారు": 2990,
      "వచ్చాడు": 2991,
      "వ్యాపారం": 2992,
      "వ్యాపారాన్ని": 2993,
      "ప్రజలకు": 2994,
      "పొందడం": 2995,
      "పెరుగుదలకు": 2996,
      "అంశంపై": 2997,
      "కలయి": 2998,
      "హెడ్": 2999,
      "హెచ్చ": 3000,
      "తున్నారు": 3001,
      "సాధనాలు": 3002,
      "సాధనాల": 3003,
      "పాత్రను": 3004,
      "పాత్రలు": 3005,
      "పరిష్కారం": 3006,
      "సమస్యను": 3007,
      "సమస్యలను": 3008,
      "కీలకం": 3009,
      "కనుగొనడం": 3010,
      "ప్రశ్నల": 3011,
      "టైప్": 3012,
      "పద్ధతుల": 3013,
      "పద్ధతిలో": 3014,
      "బ్యాం": 3015,
      "విలువలు": 3016,
      "సంభాష": 3017,
      "ఇంటర్వ్యూ": 3018,
      "కనిపిస్తుంది": 3019,
      "కనిపించే": 3020,
      "దశలను": 3021,
      "వద్దని": 3022,
      "స్టాక్": 3023,
      "కునేలా": 3024,
      "యంత్రం": 3025,
      "ఇంటిగ్": 3026,
      "టనలు": 3027,
      "పట్టించు": 3028,
      "ప్రక్రియను": 3029,
      "పరిమితం": 3030,
      "చూడలేదు": 3031,
      "నిర్ణయించు": 3032,
      "తయారీదారు": 3033,
      "స్వరాన్ని": 3034,
      "స్వయంప్రతి": 3035,
      "ట్లయితే": 3036,
      "పుస్తక": 3037,
      "పుస్తకాలు": 3038,
      "కావాలను": 3039,
      "కావాలి": 3040,
      "పరిస్థితుల": 3041,
      "పరిస్థితిని": 3042,
      "రూపంలో": 3043,
      "రూపకల్పన": 3044,
      "స్థాయిలను": 3045,
      "సంవత్సరాలు": 3046,
      "సంవత్సరాలలో": 3047,
      "ఉపయోగిస్తారు": 3048,
      "బహుశా": 3049,
      "తరంగ": 3050,
      "లక్షణం": 3051,
      "లక్షణాలు": 3052,
      "చేసింది": 3053,
      "చేశాడు": 3054,
      "నెట్వర్క్ను": 3055,
      "సంక్షిప్తీ": 3056,
      "ఎంపికలు": 3057,
      "గెలు": 3058,
      "రితనం": 3059,
      "రియల్": 3060,
      "ప్రభుత్వం": 3061,
      "వార్మింగ్": 3062,
      "జంతువు": 3063,
      "అప్లికేషన్": 3064,
      "వోల్టే": 3065,
      "హైలైట్": 3066,
      "ప్రదేశంలో": 3067,
      "కోరుకో": 3068,
      "రంగులు": 3069,
      "సమూహం": 3070,
      "వర్గీకరణ": 3071,
      "మార్గాలు": 3072,
      "శాస్త్రం": 3073,
      "ప్రయత్నించాడు": 3074,
      "ఇతరులకు": 3075,
      "ఒత్తిడిని": 3076,
      "నియంత్రణ": 3077,
      "నియంత్రించడానికి": 3078,
      "లోపలికి": 3079,
      "లేకపోతే": 3080,
      "కోల్పోయా": 3081,
      "భావనను": 3082,
      "చెందడానికి": 3083,
      "వెళ్తాను": 3084,
      "మార్కెట్లో": 3085,
      "నివస": 3086,
      "ట్రాక్": 3087,
      "ట్రాఫిక్": 3088,
      "భాషను": 3089,
      "నిర్వచించండి": 3090,
      "బ్లాక్": 3091,
      "శ్వాసకోశ": 3092,
      "అభ్యసన": 3093,
      "ప్రతిస్పందించ": 3094,
      "అయస్కా": 3095,
      "అడ్వర్టై": 3096,
      "ఒంటరితనం": 3097,
      "మొక్కల": 3098,
      "విద్యుత్తు": 3099,
      "గ్రీన్": 3100,
      "ప్రాధాన్యతలు": 3101,
      "కేంద్ర": 3102,
      "కేంద్రీ": 3103,
      "సామర్థ్యాలు": 3104,
      "చేర్చడం": 3105,
      "సూచించండి": 3106,
      "ఆధారపడి": 3107,
      "ఉద్యోగాలను": 3108,
      "________________": 3109,
      "తొలగి": 3110,
      "ఇచ్చిన": 3111,
      "ఏర్పాటు": 3112,
      "ధరలు": 3113,
      "వదిలి": 3114,
      "స్వీయ": 3115,
      "మారింది": 3116,
      "పోర్ట్": 3117,
      "సృష్టిస్తుంది": 3118,
      "క్రిప్షన్": 3119,
      "అన్వేష": 3120,
      "సిఫార్సులను": 3121,
      "ఇలాంటి": 3122,
      "తగినంత": 3123,
      "హానికరమైన": 3124,
      "మారడం": 3125,
      "క్షీణత": 3126,
      "చిరునా": 3127,
      "పెంచుతుంది": 3128,
      "కాలేదు": 3129,
      "తగ్గుతుంది": 3130,
      "వాతావరణంలోకి": 3131,
      "అనధికారిక": 3132,
      "నిమగ్నతను": 3133,
      "శుభ్రమైన": 3134,
      "నమ్ముతారు": 3135,
      "ఎలక్ట్రాన్": 3136,
      "ఒక్కరూ": 3137,
      "ల్యాప్": 3138,
      "స్పెసిఫికేషన్": 3139,
      "విజువలైజేషన్": 3140,
      "పురోగతి": 3141,
      "టికెట్": 3142,
      "సంప్రదించ": 3143,
      "సంతృప్తి": 3144,
      "సారాంశ": 3145,
      "మెకానిక్స్": 3146,
      "ప్రాతినిధ్యం": 3147,
      "పోషిస్తుంది": 3148,
      "కేటాయ": 3149,
      "కూడదు": 3150,
      "చాట్బాట్": 3151,
      "తేడాలను": 3152,
      "సరదాగా": 3153,
      "అభిప్రాయం": 3154,
      "లీకేజీలను": 3155,
      "ఇంజనీరింగ్": 3156,
      "పూర్తయి": 3157,
      "ఉద్యోగులకు": 3158,
      "కార్యక్రమాలు": 3159,
      "విజయవంతమైన": 3160,
      "ఉద్గారాలను": 3161,
      "కుళాయిలు": 3162,
      "ఊహించ": 3163,
      "గౌర": 3164,
      "ఫరెన్స్": 3165,
      "భయపడ్డా": 3166,
      "ప్రెస్": 3167,
      "విపరీతమైన": 3168,
      "ద్దాం": 3169,
      "సున్నితమైన": 3170,
      "ముందస్తు": 3171,
      "వ్యర్థాల": 3172,
      "వ్యతిరేకంగా": 3173,
      "హార్డ్వేర్": 3174,
      "బిజినెస్": 3175,
      "సమాధానం": 3176,
      "వ్యాప్తంగా": 3177,
      "హైడ్రే": 3178,
      "సంతోషంగా": 3179,
      "మేనేజ్మెంట్": 3180,
      "పేర్కొనండి": 3181,
      "పాల్గొనడం": 3182,
      "నిజాయితీగా": 3183,
      "అదృష్టం": 3184,
      "ఎదగ": 3185,
      "చదువు": 3186,
      "ధన్యవాదాలు": 3187,
      "హౌస్": 3188,
      "స్వచ్ఛ": 3189,
      "గ్లాసు": 3190,
      "సారూప్య": 3191,
      "పిలువబడే": 3192,
      "పోలీసు": 3193,
      "వెచ్చని": 3194,
      "రెస్టారెంట్": 3195,
      "డాక్యుమెంట్": 3196,
      "సూర్యరశ్మి": 3197,
      "సహోద్యోగు": 3198,
      "స్వయంప్రతిపత్తి": 3199,
      "అయస్కాంత": 3200,
      "అడ్వర్టైజింగ్": 3201,
      "కేంద్రీకృత": 3202,
      "స్పెసిఫికేషన్లను": 3203,
      "%)": 3204,
      "(\"": 3205,
      "),": 3206,
      "10": 3207,
      "15": 3208,
      "40": 3209,
      "500": 3210,
      "?\".": 3211,
      "ంజ": 3212,
      "ంగు": 3213,
      "ంగి": 3214,
      "ంద్రీ": 3215,
      "అప": 3216,
      "అర్": 3217,
      "అరు": 3218,
      "అనా": 3219,
      "అక్ష": 3220,
      "ఆయ": 3221,
      "ఆవ": 3222,
      "ఆయు": 3223,
      "ఆడి": 3224,
      "ఆమ్": 3225,
      "ఆడు": 3226,
      "ఆసు": 3227,
      "ఆకలి": 3228,
      "ఆనం": 3229,
      "ఆశి": 3230,
      "ఆకాశ": 3231,
      "ఆఫీ": 3232,
      "ఇక": 3233,
      "ఇమే": 3234,
      "ఇండె": 3235,
      "ఇబ్బంది": 3236,
      "ఇల్లు": 3237,
      "ఉపా": 3238,
      "ఉడికి": 3239,
      "ఎరు": 3240,
      "ఎండ్": 3241,
      "ఎఫె": 3242,
      "ఎఫిషియ": 3243,
      "ఎటువంటి": 3244,
      "ఐఫోన్": 3245,
      "కత": 3246,
      "కద": 3247,
      "కౌ": 3248,
      "కప్": 3249,
      "కవర్": 3250,
      "కంటి": 3251,
      "కత్తి": 3252,
      "కన్స్": 3253,
      "కత్వం": 3254,
      "గూ": 3255,
      "గట్టి": 3256,
      "గనై": 3257,
      "గందర": 3258,
      "చొ": 3259,
      "చో": 3260,
      "చక్": 3261,
      "చది": 3262,
      "చరణ": 3263,
      "చక్కె": 3264,
      "జ్యూ": 3265,
      "టూ": 3266,
      "టప్": 3267,
      "టానికి": 3268,
      "టచ్": 3269,
      "టమి": 3270,
      "డొ": 3271,
      "తద్వారా": 3272,
      "తక్షణ": 3273,
      "త్యం": 3274,
      "తత్వం": 3275,
      "థీ": 3276,
      "దె": 3277,
      "దొ": 3278,
      "దండ్": 3279,
      "ధృ": 3280,
      "ధాని": 3281,
      "ధరించ": 3282,
      "ధరించడం": 3283,
      "నల": 3284,
      "నవ": 3285,
      "నంది": 3286,
      "నవీ": 3287,
      "నాల్": 3288,
      "పల": 3289,
      "పంట": 3290,
      "పైన": 3291,
      "పలను": 3292,
      "పక్ష": 3293,
      "పబ్": 3294,
      "పవర్": 3295,
      "పించడానికి": 3296,
      "పడే": 3297,
      "పించండి": 3298,
      "పవన": 3299,
      "ఫ్యూ": 3300,
      "ఫైనా": 3301,
      "ఫాల్": 3302,
      "ఫాలో": 3303,
      "బూ": 3304,
      "బే": 3305,
      "బంగా": 3306,
      "బ్యూ": 3307,
      "బహి": 3308,
      "బస్సు": 3309,
      "బైన్": 3310,
      "బదులుగా": 3311,
      "భయ": 3312,
      "భి": 3313,
      "భీ": 3314,
      "మట": 3315,
      "మతి": 3316,
      "మానికి": 3317,
      "మంట": 3318,
      "మంగా": 3319,
      "మపా": 3320,
      "మరుగు": 3321,
      "మమ్మల్ని": 3322,
      "య్": 3323,
      "యంచ": 3324,
      "రాని": 3325,
      "రైన": 3326,
      "రసు": 3327,
      "రకాన్ని": 3328,
      "రయాత్ర": 3329,
      "లైన": 3330,
      "లంగా": 3331,
      "ళాలు": 3332,
      "వయ": 3333,
      "వాల్": 3334,
      "వన్య": 3335,
      "వపడు": 3336,
      "శతా": 3337,
      "సాల": 3338,
      "సానికి": 3339,
      "సద్": 3340,
      "సరే": 3341,
      "సపోర్ట్": 3342,
      "హం": 3343,
      "హ్య": 3344,
      "హాలు": 3345,
      "హక్కు": 3346,
      "హాల్": 3347,
      "ాయి": 3348,
      "ిస్తుంది": 3349,
      "ితంగా": 3350,
      "ెడ్": 3351,
      "ెన్సీ": 3352,
      "ేజ": 3353,
      "ౌక": 3354,
      "‌ను": 3355,
      "నియ": 3356,
      "నిక్": 3357,
      "నివేదిక": 3358,
      "రియా": 3359,
      "రిచి": 3360,
      "రిజి": 3361,
      "రిటీ": 3362,
      "రిమో": 3363,
      "రిఫరెన్స్": 3364,
      "నుంచ": 3365,
      "నుగుణంగా": 3366,
      "ర్ట్": 3367,
      "ర్లో": 3368,
      "ర్లను": 3369,
      "ర్షిక": 3370,
      "స్కి": 3371,
      "స్కె": 3372,
      "న్యం": 3373,
      "న్షన్": 3374,
      "క్లో": 3375,
      "క్రా": 3376,
      "క్ష్": 3377,
      "క్యం": 3378,
      "క్వె": 3379,
      "క్రె": 3380,
      "క్పథ": 3381,
      "క్టులు": 3382,
      "ప్స్": 3383,
      "ంచడానికి": 3384,
      "ాలంటే": 3385,
      "దిరింపు": 3386,
      "కుల": 3387,
      "కులతో": 3388,
      "కుంటారు": 3389,
      "యుకేషన్": 3390,
      "రుగా": 3391,
      "డిట్": 3392,
      "డితో": 3393,
      "డిగ్రీ": 3394,
      "ప్రవహ": 3395,
      "ప్రమో": 3396,
      "ప్రదర్శ": 3397,
      "ప్రవాహ": 3398,
      "కిలో": 3399,
      "తుకు": 3400,
      "తుఫా": 3401,
      "గానికి": 3402,
      "విడ": 3403,
      "విట్": 3404,
      "విహా": 3405,
      "వివర": 3406,
      "విదేశ": 3407,
      "వినో": 3408,
      "విప్ల": 3409,
      "వివాహ": 3410,
      "విభాగం": 3411,
      "విమానా": 3412,
      "విటమి": 3413,
      "ించగల": 3414,
      "ించాలని": 3415,
      "ించదగిన": 3416,
      "నాత్మక": 3417,
      "ానింగ్": 3418,
      "చేర": 3419,
      "చేతి": 3420,
      "చేసా": 3421,
      "చేస్తున్నారు": 3422,
      "చేపలను": 3423,
      "త్వాన్ని": 3424,
      "వాటా": 3425,
      "వాగ్": 3426,
      "వాషి": 3427,
      "వాదించ": 3428,
      "వాడిని": 3429,
      "తిగా": 3430,
      "తిరుగు": 3431,
      "తినడం": 3432,
      "ల్త్": 3433,
      "మీరే": 3434,
      "మీటర్": 3435,
      "మాతో": 3436,
      "మాక్స్": 3437,
      "టాబ్": 3438,
      "రాగ": 3439,
      "రాయ": 3440,
      "రాను": 3441,
      "రాత్రి": 3442,
      "దానాన్ని": 3443,
      "గ్రి": 3444,
      "పురుగు": 3445,
      "పుట్ట": 3446,
      "పుట్టిన": 3447,
      "కాణ": 3448,
      "కాదా": 3449,
      "కాహా": 3450,
      "కాంటా": 3451,
      "కాకపోతే": 3452,
      "న్నిస్": 3453,
      "దుకాణ": 3454,
      "టిష్": 3455,
      "టిపి": 3456,
      "తాయు": 3457,
      "తాయని": 3458,
      "యిర్": 3459,
      "యిస్": 3460,
      "యింపు": 3461,
      "లిస్తే": 3462,
      "సంకే": 3463,
      "సంపూర్": 3464,
      "సంస్కృ": 3465,
      "సంభవి": 3466,
      "సంబం": 3467,
      "కోర్సు": 3468,
      "చ్ను": 3469,
      "చ్చా": 3470,
      "చేయలే": 3471,
      "చేయకుండా": 3472,
      "చేయబడింది": 3473,
      "చేయగలి": 3474,
      "చేయడమే": 3475,
      "డ్లు": 3476,
      "డ్డు": 3477,
      "గురి": 3478,
      "గులు": 3479,
      "గుండ": 3480,
      "ంతం": 3481,
      "సాస్": 3482,
      "సాయంత్రం": 3483,
      "సుమారు": 3484,
      "సుస్థిర": 3485,
      "క్కని": 3486,
      "చుర్యం": 3487,
      "సియా": 3488,
      "సిద్ధా": 3489,
      "పాదించ": 3490,
      "యోన్": 3491,
      "క్షే": 3492,
      "ముగ": 3493,
      "మును": 3494,
      "ముద్": 3495,
      "ముద్ర": 3496,
      "ముద్దు": 3497,
      "రించే": 3498,
      "రించాలి": 3499,
      "రించబడింది": 3500,
      "యాంటీ": 3501,
      "లాద": 3502,
      "లాభ": 3503,
      "లాయ": 3504,
      "లాగా": 3505,
      "లాండ్": 3506,
      "రంగం": 3507,
      "రీని": 3508,
      "రీర్": 3509,
      "రీసెట్": 3510,
      "రీసెర్చ్": 3511,
      "చిన": 3512,
      "చిట్": 3513,
      "చికె": 3514,
      "చిత్రాన్ని": 3515,
      "చిక్కని": 3516,
      "గిలి": 3517,
      "వేరే": 3518,
      "వేరియ": 3519,
      "మిస్": 3520,
      "మియం": 3521,
      "మిశ్రమ": 3522,
      "మిగిలి": 3523,
      "మెడి": 3524,
      "మెక్సి": 3525,
      "పెంపు": 3526,
      "తోందని": 3527,
      "రోమ్": 3528,
      "రోజం": 3529,
      "పరిశోధ": 3530,
      "పరిగె": 3531,
      "పరికల్పన": 3532,
      "పరిమాణా": 3533,
      "హార్": 3534,
      "భావాలను": 3535,
      "ధాన్ని": 3536,
      "చెల్లి": 3537,
      "చెందిన": 3538,
      "చెమట": 3539,
      "అనువైన": 3540,
      "అనువర్త": 3541,
      "పిరి": 3542,
      "పిలవ": 3543,
      "వుగా": 3544,
      "వుతాయి": 3545,
      "ప్రాంప్": 3546,
      "ప్రాచుర్యం": 3547,
      "ండో": 3548,
      "పోస్ట్": 3549,
      "పోలిస్తే": 3550,
      "బ్ల": 3551,
      "బ్బి": 3552,
      "శ్చి": 3553,
      "సమయాన్ని": 3554,
      "వర్షం": 3555,
      "వెన్న": 3556,
      "మార్చే": 3557,
      "ప్పుడే": 3558,
      "డేట్": 3559,
      "కూర": 3560,
      "రెజ్యూ": 3561,
      "జీని": 3562,
      "పైపులు": 3563,
      "చూసే": 3564,
      "నంబర్": 3565,
      "తెల్ల": 3566,
      "తెరిచి": 3567,
      "కోవాలని": 3568,
      "ఉన్నాయా": 3569,
      "ఉన్నాయని": 3570,
      "పొగ": 3571,
      "పొడి": 3572,
      "పొందు": 3573,
      "షన్లు": 3574,
      "సెన్": 3575,
      "సెల్": 3576,
      "సేవ్": 3577,
      "సేవల": 3578,
      "సేకరించడం": 3579,
      "సేకరించిన": 3580,
      "సేంద్రీ": 3581,
      "ఫ్లో": 3582,
      "ఫ్రీ": 3583,
      "శాడు": 3584,
      "శాకాహా": 3585,
      "జియో": 3586,
      "డేటాసెట్": 3587,
      "కరించవచ్చు": 3588,
      "త్రాలు": 3589,
      "జాక్": 3590,
      "జాతి": 3591,
      "జాతీయ": 3592,
      "బాగు": 3593,
      "బాక్స్": 3594,
      "బాధి": 3595,
      "బాహ్య": 3596,
      "నెటీ": 3597,
      "కీలు": 3598,
      "యూమర్": 3599,
      "టీరియల్": 3600,
      "దేశాన్ని": 3601,
      "కలిగిన": 3602,
      "మూల": 3603,
      "మూర్": 3604,
      "తేడా": 3605,
      "తేలిక": 3606,
      "తేనెటీ": 3607,
      "బిల్": 3608,
      "బిగ్": 3609,
      "బిలి": 3610,
      "సరఫ": 3611,
      "కెమె": 3612,
      "కెరీర్": 3613,
      "గలరు": 3614,
      "గలనా": 3615,
      "ప్రతిభ": 3616,
      "ప్రతిపాద": 3617,
      "ండ్వి": 3618,
      "వంతం": 3619,
      "సమావేశ": 3620,
      "టెస్టింగ్": 3621,
      "టెన్నిస్": 3622,
      "టర్బైన్": 3623,
      "వైఖ": 3624,
      "వైద్యు": 3625,
      "వైరస్": 3626,
      "సూత్రం": 3627,
      "సూక్ష్": 3628,
      "ించేలా": 3629,
      "వృథా": 3630,
      "క్షణం": 3631,
      "సైట్లు": 3632,
      "క్రియా": 3633,
      "ట్టడం": 3634,
      "సహకరించడం": 3635,
      "అభినంది": 3636,
      "జున్ను": 3637,
      "బోతున్నా": 3638,
      "బోతున్నాను": 3639,
      "బోహైడ్రే": 3640,
      "కుంటున్న": 3641,
      "ఉన్నత": 3642,
      "ఉన్నప్పటికీ": 3643,
      "ఫిట్": 3644,
      "ఫిక్షన్": 3645,
      "షిప్": 3646,
      "దానిపై": 3647,
      "వ్యాప్తి": 3648,
      "ప్రభావ": 3649,
      "వ్యక్తికి": 3650,
      "గోళిక": 3651,
      "పేస్": 3652,
      "పేపర్": 3653,
      "రోగ్య": 3654,
      "సృష్టించడం": 3655,
      "సృష్టించడంలో": 3656,
      "ఏమిటో": 3657,
      "అంకి": 3658,
      "అంతి": 3659,
      "అంతా": 3660,
      "ఉత్తీర్": 3661,
      "బుల్ల": 3662,
      "బుల్స్": 3663,
      "ఇక్కడకు": 3664,
      "ాల్సి": 3665,
      "విధాలుగా": 3666,
      "స్ట్రీ": 3667,
      "స్ట్రేషన్": 3668,
      "కొన్నిసార్లు": 3669,
      "మోటా": 3670,
      "సంబంధితంగా": 3671,
      "మేరీతో": 3672,
      "దృక్పథ": 3673,
      "వాటికి": 3674,
      "కార్మి": 3675,
      "కార్బోహైడ్రే": 3676,
      "కృషి": 3677,
      "లభ్యత": 3678,
      "స్థితిని": 3679,
      "ణాత్మక": 3680,
      "లెట్": 3681,
      "గ్రఫీ": 3682,
      "దేశాలు": 3683,
      "దేశంలో": 3684,
      "అభివృద్ధిని": 3685,
      "అభివృద్ధికి": 3686,
      "గేమ్": 3687,
      "చేసేటప్పుడు": 3688,
      "వ్యవస్థకు": 3689,
      "ఇవ్వబడింది": 3690,
      "పూల": 3691,
      "మైనింగ్": 3692,
      "శిక్ష": 3693,
      "గణిత": 3694,
      "రోజును": 3695,
      "రోజులు": 3696,
      "తెలుసుకోవడానికి": 3697,
      "తెలుసుకోవడం": 3698,
      "తెలుసునని": 3699,
      "ించారా": 3700,
      "ించాయి": 3701,
      "ముఖ్యమో": 3702,
      "ంపులో": 3703,
      "ందాం": 3704,
      "అనిపిస్తుంది": 3705,
      "కర్షణ": 3706,
      "చెప్పాలంటే": 3707,
      "అంతకంటే": 3708,
      "రక్షించడంలో": 3709,
      "కుండను": 3710,
      "చర్యలను": 3711,
      "భుజం": 3712,
      "త్రిక": 3713,
      "త్రిభుజం": 3714,
      "ించినప్పుడు": 3715,
      "అందించే": 3716,
      "ఆర్ట్": 3717,
      "ఆర్గనై": 3718,
      "అనుభవించ": 3719,
      "ప్రారంభించడానికి": 3720,
      "డెస్క్": 3721,
      "దించే": 3722,
      "వెబ్సైట్లు": 3723,
      "తీసుకువచ్చే": 3724,
      "టెక్సాస్": 3725,
      "ఆరోగ్యానికి": 3726,
      "లక్ష్యాలు": 3727,
      "ఫోన్లు": 3728,
      "చేసుకోవచ్చు": 3729,
      "వివరి": 3730,
      "వేగంతో": 3731,
      "నమూనాను": 3732,
      "సీజన్": 3733,
      "సీఫుడ్": 3734,
      "సీక్వె": 3735,
      "కారణంగా": 3736,
      "కారణమవుతుంది": 3737,
      "ప్రయోజనకరమైన": 3738,
      "క్లిక్": 3739,
      "వచ్చాను": 3740,
      "జ్ఞానం": 3741,
      "ఉంచడానికి": 3742,
      "ఉంచడం": 3743,
      "ఎవరి": 3744,
      "ఎవరికీ": 3745,
      "సౌలభ": 3746,
      "సరిచేయండి": 3747,
      "సర్క్యూ": 3748,
      "కున్నాడని": 3749,
      "పెంచవచ్చు": 3750,
      "పొందడంలో": 3751,
      "రూపొందించబడింది": 3752,
      "ఆలోచి": 3753,
      "ఖచ్చితత్వం": 3754,
      "ప్రాంతాల": 3755,
      "ప్రాంతాలు": 3756,
      "ప్రాంతంలో": 3757,
      "జాబిత": 3758,
      "అంశానికి": 3759,
      "కలప": 3760,
      "కలంగా": 3761,
      "మంచిది": 3762,
      "రక్షణను": 3763,
      "హెచ్": 3764,
      "హెల్త్": 3765,
      "చేస్తానని": 3766,
      "నేర్చుకోవడం": 3767,
      "సంక్షే": 3768,
      "ముఖ్యమైనది": 3769,
      "మెరుగుపరచడంలో": 3770,
      "కనుగొనండి": 3771,
      "ప్రశ్నను": 3772,
      "ప్రశ్నలు": 3773,
      "అదనపు": 3774,
      "ఎంచుకోవడం": 3775,
      "జరుగుతుందో": 3776,
      "పద్ధతులు": 3777,
      "పద్ధతులను": 3778,
      "ఫైర్": 3779,
      "ప్లాంట్": 3780,
      "విషయ": 3781,
      "విలువను": 3782,
      "వెళ్ళడానికి": 3783,
      "వెళ్ళాను": 3784,
      "ఉపయోగించగల": 3785,
      "ఉపయోగించబడుతుంది": 3786,
      "నోటి": 3787,
      "ప్రపంచంలో": 3788,
      "ప్రపంచంలోని": 3789,
      "మారుతున్న": 3790,
      "సెట్టింగ్": 3791,
      "పునరుద్ధ": 3792,
      "బలం": 3793,
      "మరచిపో": 3794,
      "స్వామ": 3795,
      "పరిమిత": 3796,
      "చూడండి": 3797,
      "కథను": 3798,
      "కంటైన": 3799,
      "నగర": 3800,
      "బడ్జెట్": 3801,
      "భూగోళ": 3802,
      "రకమైన": 3803,
      "స్వయంచ": 3804,
      "పుస్తకం": 3805,
      "కావడానికి": 3806,
      "కావాలా": 3807,
      "ముందుగా": 3808,
      "కొనుగోళ్ల": 3809,
      "పరికర": 3810,
      "పరికరాలను": 3811,
      "పిల్లల": 3812,
      "పిల్లలకు": 3813,
      "చూపుతాయి": 3814,
      "సహజమైన": 3815,
      "వెబ్సైట్ను": 3816,
      "సిస్టమ్స్": 3817,
      "కీలకమైన": 3818,
      "ఉపయోగిస్తాయి": 3819,
      "ప్రత్యేకమైన": 3820,
      "కారకాల": 3821,
      "నిర్మించడం": 3822,
      "నిర్మించండి": 3823,
      "సాఫ్ట్వేర్ను": 3824,
      "సంక్షిప్త": 3825,
      "ఆహారంలో": 3826,
      "ఎదురు": 3827,
      "గెలవ": 3828,
      "రికన్": 3829,
      "వార్తా": 3830,
      "పెట్టండి": 3831,
      "భాగస్వామ": 3832,
      "విద్యార్థుల": 3833,
      "అమెరికన్": 3834,
      "పనులు": 3835,
      "శీర్షిక": 3836,
      "శరీరాన్ని": 3837,
      "హోటల్": 3838,
      "ప్రచారం": 3839,
      "ప్రచారాలను": 3840,
      "ప్రదేశాల": 3841,
      "సమూహాల": 3842,
      "శాస్త్రీ": 3843,
      "కంపెనీలు": 3844,
      "దృష్టిని": 3845,
      "విశ్లేషించడానికి": 3846,
      "వస్తువులను": 3847,
      "డబ్బును": 3848,
      "పర్యావరణం": 3849,
      "ఆసక్": 3850,
      "ఆప్షన్": 3851,
      "కనెక్షన్": 3852,
      "బెదిరింపు": 3853,
      "సముద్రం": 3854,
      "ప్లానింగ్": 3855,
      "ప్రమాదం": 3856,
      "ప్రమాదాన్ని": 3857,
      "కాంతి": 3858,
      "చిత్రలేఖ": 3859,
      "చెందే": 3860,
      "అత్యవసర": 3861,
      "ప్రేక్షకులు": 3862,
      "ప్రేక్షకులకు": 3863,
      "స్నేహితుడిని": 3864,
      "ఉత్తర": 3865,
      "ఉత్తేజ": 3866,
      "ఖాతా": 3867,
      "దూరంగా": 3868,
      "ప్రసిద్ధ": 3869,
      "సిఫారసు": 3870,
      "వెళ్లాలని": 3871,
      "అభ్యస": 3872,
      "అభ్యర్థ": 3873,
      "తగ్గింపు": 3874,
      "ఆలోచనలు": 3875,
      "పరీక్షలో": 3876,
      "స్వేచ్ఛగా": 3877,
      "అయ్యా": 3878,
      "అయ్యే": 3879,
      "అడ్డం": 3880,
      "ఆపిల్స్": 3881,
      "గంటలకు": 3882,
      "ఛానె": 3883,
      "ప్లేట్": 3884,
      "నాయకు": 3885,
      "స్టోరే": 3886,
      "అనుమతించింది": 3887,
      "ఇంటరాక్షన్": 3888,
      "నైపుణ": 3889,
      "అడగ": 3890,
      "అడవి": 3891,
      "ఆస్వాది": 3892,
      "ఆస్వాదించండి": 3893,
      "బీచ్": 3894,
      "సవాళ్లు": 3895,
      "సవాళ్లను": 3896,
      "నివారించ": 3897,
      "నివారించడానికి": 3898,
      "ప్రయాణ": 3899,
      "వివరణాత్మక": 3900,
      "చేర్చండి": 3901,
      "లింక్": 3902,
      "సంతోషి": 3903,
      "రీసైకిల్": 3904,
      "శ్రద్ధ": 3905,
      "సమాజానికి": 3906,
      "వీటిని": 3907,
      "అల్గారిథమ్స్": 3908,
      "ఆప్టిమైజ్": 3909,
      "సముద్రపు": 3910,
      "సురక్షితంగా": 3911,
      "చరిత్రలో": 3912,
      "అతిగా": 3913,
      "ఎక్కడి": 3914,
      "ఎక్కడికి": 3915,
      "దోహ": 3916,
      "నమ్మదగిన": 3917,
      "భౌగోళిక": 3918,
      "నిలబడ": 3919,
      "నిలబడ్డా": 3920,
      "క్రీడ": 3921,
      "దిగువ": 3922,
      "వాస్తవి": 3923,
      "వాస్తవానికి": 3924,
      "మాటలో": 3925,
      "కాన్ఫి": 3926,
      "గుడ్లు": 3927,
      "సిద్ధం": 3928,
      "వ్యత్యాసాన్ని": 3929,
      "మేనేజర్": 3930,
      "రెండవ": 3931,
      "రెండూ": 3932,
      "చూశాడు": 3933,
      "ఉండేలా": 3934,
      "బాధ్యతాయు": 3935,
      "తరగతులను": 3936,
      "క్రిప్టో": 3937,
      "వ్యాయామ": 3938,
      "బృందంలో": 3939,
      "భోజనం": 3940,
      "మరణించాడు": 3941,
      "క్లాస్": 3942,
      "క్లాసి": 3943,
      "నేపథ్య": 3944,
      "వ్యూహాలు": 3945,
      "వ్యూహాలను": 3946,
      "రంగంలో": 3947,
      "కొలత": 3948,
      "రోబోట్": 3949,
      "పరిమాణం": 3950,
      "వర్తించిన": 3951,
      "సహాయక": 3952,
      "తెలిసిన": 3953,
      "చెప్పింది": 3954,
      "తెలియజేయ": 3955,
      "జ్ఞాపక": 3956,
      "కనిపిస్తాయి": 3957,
      "కనిపిస్తాడు": 3958,
      "అనధికార": 3959,
      "బడ్డాయి": 3960,
      "ప్రతిస్పందనలను": 3961,
      "అలవాటు": 3962,
      "రెండింటికీ": 3963,
      "ఆందోళన": 3964,
      "ఆందోళనలు": 3965,
      "186": 3966,
      "ఆవిష్": 3967,
      "ఆహ్లాద": 3968,
      "ఇచ్చా": 3969,
      "గర్వపడు": 3970,
      "తల్లిదండ్": 3971,
      "మయ్యాయి": 3972,
      "సమీక్ష": 3973,
      "నిరాశ": 3974,
      "నిద్రపో": 3975,
      "విరామం": 3976,
      "డ్రైవింగ్": 3977,
      "అనువర్తనాలను": 3978,
      "పిలుస్తారు": 3979,
      "కూరగాయలు": 3980,
      "పొడవులను": 3981,
      "వైవిధ్య": 3982,
      "వైవిధ్యం": 3983,
      "గోప్యంగా": 3984,
      "ఉత్పాదకత": 3985,
      "విశ్వసనీ": 3986,
      "సరిపోయే": 3987,
      "అయినప్పటికీ": 3988,
      "కార్యకలాపాల": 3989,
      "అంతర్దృష్టులు": 3990,
      "అంతర్దృష్టులను": 3991,
      "నివసిస్తున్నా": 3992,
      "అల్గారిథమ్లను": 3993,
      "సూర్యుడి": 3994,
      "క్రమబద్ధీకరించండి": 3995,
      "పర్యవేక్షించబడిన": 3996,
      "అల్గోరిథంలు": 3997,
      "అద్దె": 3998,
      "ఆకట్టుకునే": 3999,
      "ఇంతకు": 4000,
      "ఖరీదైన": 4001,
      "గడిచాయి": 4002,
      "ధ్వ": 4003,
      "శబ్ద": 4004,
      "నిపుణులు": 4005,
      "రాష్ట్": 4006,
      "సంరక్షించండి": 4007,
      "యంత్రాలను": 4008,
      "ప్రాముఖ్యత": 4009,
      "కేలరీ": 4010,
      "వెలుపల": 4011,
      "అభ్యాస": 4012,
      "సరళమైన": 4013,
      "స్పీకర్": 4014,
      "అనిపించింది": 4015,
      "వ్యక్తీకరణను": 4016,
      "పెట్టుబడులు": 4017,
      "సంవత్సరం": 4018,
      "పరిష్కారాన్ని": 4019,
      "ఆకర్షించడానికి": 4020,
      "బహుమతులు": 4021,
      "కొనసాగించడానికి": 4022,
      "ఆటగాళ్ళు": 4023,
      "ఆపరేటింగ్": 4024,
      "తొలగించడం": 4025,
      "శాస్త్రవేత్తలు": 4026,
      "ఆక్సిడె": 4027,
      "ఎడ్యుకేషన్": 4028,
      "గలుగుతారు": 4029,
      "తండ్రి": 4030,
      "ధూమపా": 4031,
      "పండ్లు": 4032,
      "మంచం": 4033,
      "మందులు": 4034,
      "మరెన్నో": 4035,
      "సరీసృ": 4036,
      "ప్రస్తుత": 4037,
      "పుష్కలంగా": 4038,
      "యాజమాన్య": 4039,
      "మిలియన్ల": 4040,
      "పెరగడం": 4041,
      "పరిణామాలను": 4042,
      "ప్రాసెసింగ్": 4043,
      "బ్రిటిష్": 4044,
      "వెనుక": 4045,
      "మార్పిడి": 4046,
      "కూర్చో": 4047,
      "నెమ్మదిగా": 4048,
      "అంతుచిక్కని": 4049,
      "పూర్వక": 4050,
      "డెవలపర్": 4051,
      "పునరావృత": 4052,
      "పట్టించుకోవడం": 4053,
      "నిర్ణయించుకున్నాడు": 4054,
      "కావాలనుకుంటే": 4055,
      "సంక్షిప్తీకరించండి": 4056,
      "చిరునామా": 4057,
      "సంప్రదించవచ్చు": 4058,
      "సారాంశంలో": 4059,
      "ఎదగడానికి": 4060,
      "స్వచ్ఛమైన": 4061,
      "సారూప్యత": 4062,
      "ఆవశ్య": 4063,
      "ఆసుపత్రి": 4064,
      "ఆనందాన్ని": 4065,
      "ఇండెక్స్": 4066,
      "ఎరుపు": 4067,
      "ఎఫిషియెన్సీ": 4068,
      "కదలిక": 4069,
      "కన్స్యూమర్": 4070,
      "గట్టిగా": 4071,
      "గందరగోళ": 4072,
      "చక్కెర": 4073,
      "ధృవీ": 4074,
      "పబ్లిక్": 4075,
      "బస్సులో": 4076,
      "వన్యప్రా": 4077,
      "శతాబ్": 4078,
      "సద్వినియోగం": 4079,
      "రిమోట్": 4080,
      "నుంచైనా": 4081,
      "క్రెడిట్": 4082,
      "తుఫాను": 4083,
      "విహారయాత్ర": 4084,
      "విదేశీ": 4085,
      "వినోదం": 4086,
      "విమానాశ్ర": 4087,
      "వాగ్దానాన్ని": 4088,
      "వాషింగ్": 4089,
      "కాంటాక్ట్": 4090,
      "సంబంధాన్ని": 4091,
      "గుండా": 4092,
      "సిద్ధాంతం": 4093,
      "యాంటీఆక్సిడె": 4094,
      "చికెన్": 4095,
      "రోజంతా": 4096,
      "అనువర్తనం": 4097,
      "రెజ్యూమె": 4098,
      "సేంద్రీయ": 4099,
      "శాకాహారి": 4100,
      "ఉత్తీర్ణత": 4101,
      "సీక్వెస్ట్రేషన్": 4102,
      "స్వయంచాల": 4103,
      "తల్లిదండ్రు": 4104,
      "విశ్వసనీయ": 4105,
      "\").": 4106,
      "(-": 4107,
      ",\"": 4108,
      "11": 4109,
      "14": 4110,
      "1000": 4111,
      "44": 4112,
      "77": 4113,
      "86": 4114,
      ";.": 4115,
      "=\"": 4116,
      "].": 4117,
      "ed": 4118,
      "ంతి": 4119,
      "ండం": 4120,
      "ంకీ": 4121,
      "ంక్స్": 4122,
      "ంతిని": 4123,
      "ంథి": 4124,
      "ఃఖ": 4125,
      "అట": 4126,
      "అబ": 4127,
      "అయు": 4128,
      "అమ్": 4129,
      "అగ్": 4130,
      "అసా": 4131,
      "అక్క": 4132,
      "అబ్": 4133,
      "అరె": 4134,
      "అల్ల": 4135,
      "అదే": 4136,
      "అప్పుడు": 4137,
      "అక్కడ": 4138,
      "అంచు": 4139,
      "అధి": 4140,
      "అసహజ": 4141,
      "అపాయింట్": 4142,
      "అలెర్": 4143,
      "అస్పష్టమైన": 4144,
      "అంటారు": 4145,
      "అంటున్నా": 4146,
      "అస్పష్టంగా": 4147,
      "అణు": 4148,
      "అసమాన": 4149,
      "ఆడ": 4150,
      "ఆథ": 4151,
      "ఆస్": 4152,
      "ఆత్": 4153,
      "ఆడా": 4154,
      "ఆచా": 4155,
      "ఆండ్": 4156,
      "ఆస్ట్": 4157,
      "ఆమో": 4158,
      "ఆధి": 4159,
      "ఆకారం": 4160,
      "ఆకాం": 4161,
      "ఆడియో": 4162,
      "ఆచరణ": 4163,
      "ఇట": 4164,
      "ఇతి": 4165,
      "ఇసు": 4166,
      "ఇయా": 4167,
      "ఇస్తున్నా": 4168,
      "ఇస్తారు": 4169,
      "ఇష్టం": 4170,
      "ఇయర్": 4171,
      "ఇస్తారా": 4172,
      "ఇప్పుడే": 4173,
      "ఈఓ": 4174,
      "ఈత": 4175,
      "ఉండి": 4176,
      "ఉప్పు": 4177,
      "ఉద్య": 4178,
      "ఉద్యా": 4179,
      "ఉందో": 4180,
      "ఉంచుకోండి": 4181,
      "ఉడక": 4182,
      "ఊబ": 4183,
      "ఊహా": 4184,
      "ఊపిరి": 4185,
      "ఎలు": 4186,
      "ఎమ్": 4187,
      "ఎము": 4188,
      "ఎఫ్": 4189,
      "ఎబి": 4190,
      "ఎప్పుడు": 4191,
      "ఎత్తి": 4192,
      "ఎండె": 4193,
      "ఏక": 4194,
      "ఏకా": 4195,
      "ఏదీ": 4196,
      "ఐఒ": 4197,
      "ఐఓ": 4198,
      "ఐస్": 4199,
      "ఐచ్ఛ": 4200,
      "ఐడీ": 4201,
      "ఐక్య": 4202,
      "ఒయా": 4203,
      "ఓడ": 4204,
      "ఓదా": 4205,
      "ఓపెన్": 4206,
      "ఔత్": 4207,
      "కళ": 4208,
      "కవ": 4209,
      "కస్": 4210,
      "కది": 4211,
      "కరు": 4212,
      "కట్": 4213,
      "కన్నా": 4214,
      "కలను": 4215,
      "కరో": 4216,
      "కాలా": 4217,
      "కరిగి": 4218,
      "కదల": 4219,
      "కరిగిన": 4220,
      "కమాండ్": 4221,
      "కదులు": 4222,
      "కహాల్": 4223,
      "ఖిక": 4224,
      "ఖరాలు": 4225,
      "ఖండం": 4226,
      "గడ": 4227,
      "గమ": 4228,
      "గరి": 4229,
      "గతి": 4230,
      "గడు": 4231,
      "గ్యా": 4232,
      "గటు": 4233,
      "గతం": 4234,
      "గటివ్": 4235,
      "చల": 4236,
      "చతు": 4237,
      "చంప": 4238,
      "చౌక": 4239,
      "జూ": 4240,
      "జరి": 4241,
      "జలు": 4242,
      "జట్టు": 4243,
      "జరిగిన": 4244,
      "టవర్": 4245,
      "ట్యూ": 4246,
      "టౌన్": 4247,
      "డూ": 4248,
      "డాల": 4249,
      "డలు": 4250,
      "డ్యా": 4251,
      "డౌన్": 4252,
      "ణాల": 4253,
      "ణుల": 4254,
      "తద": 4255,
      "తయ": 4256,
      "తకు": 4257,
      "తలకు": 4258,
      "తలలో": 4259,
      "తభావం": 4260,
      "థే": 4261,
      "థ్": 4262,
      "థర్మ": 4263,
      "దర": 4264,
      "దై": 4265,
      "దలను": 4266,
      "దశా": 4267,
      "ధీ": 4268,
      "ధై": 4269,
      "ధరించండి": 4270,
      "ధరకు": 4271,
      "నూ": 4272,
      "నడు": 4273,
      "నలను": 4274,
      "నహా": 4275,
      "నటు": 4276,
      "నైనా": 4277,
      "నమో": 4278,
      "నవల": 4279,
      "నరికి": 4280,
      "నదాలు": 4281,
      "నందున": 4282,
      "నడక": 4283,
      "నచర్యను": 4284,
      "పక": 4285,
      "పస్": 4286,
      "పక్": 4287,
      "పది": 4288,
      "పరా": 4289,
      "పటి": 4290,
      "పక్క": 4291,
      "పాలి": 4292,
      "పజి": 4293,
      "పరమైన": 4294,
      "పంపు": 4295,
      "పచ్చ": 4296,
      "పడ్డా": 4297,
      "పౌండ్": 4298,
      "పశ్చి": 4299,
      "ఫర్": 4300,
      "ఫండ్": 4301,
      "బన": 4302,
      "బది": 4303,
      "బాని": 4304,
      "బయో": 4305,
      "బట్ట": 4306,
      "భవ": 4307,
      "భయం": 4308,
      "భవించ": 4309,
      "మత": 4310,
      "మను": 4311,
      "మన్": 4312,
      "మమైన": 4313,
      "మతో": 4314,
      "మనీ": 4315,
      "మంలో": 4316,
      "మరే": 4317,
      "మట్టి": 4318,
      "యానికి": 4319,
      "యవ్": 4320,
      "యాలి": 4321,
      "యాలో": 4322,
      "యబడతాయి": 4323,
      "రన్": 4324,
      "రక్": 4325,
      "రనే": 4326,
      "రగ్": 4327,
      "రపు": 4328,
      "రడం": 4329,
      "రహి": 4330,
      "రంతో": 4331,
      "రచన": 4332,
      "రదర్శ": 4333,
      "రదృష్ట": 4334,
      "ల్యూ": 4335,
      "ళీ": 4336,
      "ళిత": 4337,
      "వాని": 4338,
      "వరం": 4339,
      "వయం": 4340,
      "వండ": 4341,
      "వయస్సు": 4342,
      "వన్నీ": 4343,
      "వదులు": 4344,
      "వత్రిక": 4345,
      "శే": 4346,
      "శత్": 4347,
      "శరణ": 4348,
      "శ్యం": 4349,
      "శత్వం": 4350,
      "శనాత్మక": 4351,
      "షూ": 4352,
      "షే": 4353,
      "షర్": 4354,
      "షవర్": 4355,
      "సవి": 4356,
      "సన్న": 4357,
      "సాల్": 4358,
      "సత్య": 4359,
      "సస్పె": 4360,
      "సమ్మి": 4361,
      "సకాలంలో": 4362,
      "సగటు": 4363,
      "హీ": 4364,
      "హృ": 4365,
      "హాల": 4366,
      "హరిత": 4367,
      "ార్థ": 4368,
      "ింది": 4369,
      "ికం": 4370,
      "ీకరణ": 4371,
      "ీకృత": 4372,
      "ువు": 4373,
      "ులకు": 4374,
      "ుకునే": 4375,
      "ూటో": 4376,
      "ెట్": 4377,
      "ెంటి": 4378,
      "ెపురుగు": 4379,
      "ేది": 4380,
      "ేతు": 4381,
      "ైవే": 4382,
      "౦డి": 4383,
      "‌బాల్": 4384,
      "నిండి": 4385,
      "నిద్": 4386,
      "నిరం": 4387,
      "నివే": 4388,
      "నివ్వ": 4389,
      "నింపు": 4390,
      "నియర్": 4391,
      "నివ్వండి": 4392,
      "రియో": 4393,
      "రిఫ్": 4394,
      "రికార్": 4395,
      "రిమై": 4396,
      "రికల్": 4397,
      "రిల్స్": 4398,
      "రిజర్": 4399,
      "రిటై": 4400,
      "రిస్క్": 4401,
      "రివార్": 4402,
      "రింజ": 4403,
      "ర్ణ": 4404,
      "ర్చే": 4405,
      "ర్దా": 4406,
      "ర్లకు": 4407,
      "ర్లె": 4408,
      "ర్జ్డ్": 4409,
      "ర్పించండి": 4410,
      "స్మ": 4411,
      "స్ను": 4412,
      "స్మి": 4413,
      "స్కీ": 4414,
      "స్లై": 4415,
      "స్లీ": 4416,
      "స్కేల": 4417,
      "స్క్రిప్షన్": 4418,
      "స్పేస్": 4419,
      "న్నే": 4420,
      "న్వయం": 4421,
      "క్వి": 4422,
      "క్రో": 4423,
      "క్లియ": 4424,
      "క్టివిటీ": 4425,
      "క్టరీ": 4426,
      "ప్తిక": 4427,
      "ప్యాక్": 4428,
      "ప్చర్": 4429,
      "ంచాడు": 4430,
      "ాలయం": 4431,
      "దిని": 4432,
      "దిస్తున్నారు": 4433,
      "దినచర్యను": 4434,
      "కుని": 4435,
      "కుంది": 4436,
      "కుంట": 4437,
      "కుదించడానికి": 4438,
      "కుశత్వం": 4439,
      "యులే": 4440,
      "యులను": 4441,
      "యుఎస్": 4442,
      "మరికొన్ని": 4443,
      "మరికొందరు": 4444,
      "రుష": 4445,
      "రుత్": 4446,
      "రుద్ధ": 4447,
      "్యక్ష": 4448,
      "ట్ర": 4449,
      "ట్లే": 4450,
      "ట్రూ": 4451,
      "ట్టె": 4452,
      "ట్ఫా": 4453,
      "ట్రై": 4454,
      "ట్బాల్": 4455,
      "డివి": 4456,
      "డిలో": 4457,
      "డివై": 4458,
      "డిపడి": 4459,
      "డిపాజి": 4460,
      "డిస్ట్రి": 4461,
      "ప్రస": 4462,
      "ప్రసం": 4463,
      "ప్రశం": 4464,
      "ప్రదేశాన్ని": 4465,
      "ప్రవర్తించిన": 4466,
      "ప్రగతి": 4467,
      "ప్రైవే": 4468,
      "కింది": 4469,
      "కిటి": 4470,
      "కింద": 4471,
      "లులు": 4472,
      "లుడు": 4473,
      "తుది": 4474,
      "తురు": 4475,
      "తుపా": 4476,
      "తులతో": 4477,
      "తుందా": 4478,
      "ందిస్తుంది": 4479,
      "గాయం": 4480,
      "గార్డ్": 4481,
      "విప్": 4482,
      "విల్": 4483,
      "విసి": 4484,
      "విచా": 4485,
      "విన్నాను": 4486,
      "విరమ": 4487,
      "విమర్": 4488,
      "విమాన": 4489,
      "వినాలను": 4490,
      "విజన్": 4491,
      "వినడం": 4492,
      "వింటున్నా": 4493,
      "వికేంద్రీకృత": 4494,
      "విశే": 4495,
      "విరుద్ధ": 4496,
      "ించబడి": 4497,
      "ించలేదు": 4498,
      "ించాలో": 4499,
      "ించమని": 4500,
      "ించబడుతుంది": 4501,
      "ించబడతాయి": 4502,
      "నాన్న": 4503,
      "నానికి": 4504,
      "నారింజ": 4505,
      "నాదిని": 4506,
      "లోక": 4507,
      "లోడ్": 4508,
      "ానికులతో": 4509,
      "చేస్తూ": 4510,
      "చేస్తున్నాము": 4511,
      "చేస్తున్నప్పుడు": 4512,
      "చేతుల్లో": 4513,
      "చేస్తున్నాడు": 4514,
      "చేద్దాం": 4515,
      "త్ను": 4516,
      "త్తాను": 4517,
      "త్తాన్ని": 4518,
      "వాద": 4519,
      "వాతి": 4520,
      "వాపు": 4521,
      "వాటర్": 4522,
      "వారాలు": 4523,
      "వాత్మక": 4524,
      "వాదం": 4525,
      "వాణి": 4526,
      "వాక్య": 4527,
      "వాయిస్": 4528,
      "వాకర్షణ": 4529,
      "వాదిస్తున్నారు": 4530,
      "తిన్నా": 4531,
      "తిరోగ": 4532,
      "తిరస్": 4533,
      "ల్లా": 4534,
      "ల్టీ": 4535,
      "మీలో": 4536,
      "మీదే": 4537,
      "మాగా": 4538,
      "మానే": 4539,
      "మారా": 4540,
      "మానీ": 4541,
      "మానం": 4542,
      "మానాన్ని": 4543,
      "మాస్క్": 4544,
      "డుల": 4545,
      "డుగు": 4546,
      "డులను": 4547,
      "ద్వే": 4548,
      "నేర్": 4549,
      "నేటి": 4550,
      "నేషనల్": 4551,
      "నేరుగా": 4552,
      "రాత": 4553,
      "రాసి": 4554,
      "రాక్ష": 4555,
      "రాయం": 4556,
      "రాకీ": 4557,
      "రాస్ట్": 4558,
      "రాగ్రా": 4559,
      "రావడం": 4560,
      "రామిక": 4561,
      "రాయిడ్": 4562,
      "రాశాడు": 4563,
      "దాట": 4564,
      "దార": 4565,
      "దాదా": 4566,
      "గ్గు": 4567,
      "గ్రే": 4568,
      "గ్జి": 4569,
      "గ్రూ": 4570,
      "గ్రిని": 4571,
      "పును": 4572,
      "పుకు": 4573,
      "పువ్వులు": 4574,
      "పురుష": 4575,
      "పునాదిని": 4576,
      "కాగి": 4577,
      "కాయం": 4578,
      "కామర్": 4579,
      "కాదని": 4580,
      "కాశాన్ని": 4581,
      "కావలసిన": 4582,
      "డంతో": 4583,
      "లేటెడ్": 4584,
      "దురు": 4585,
      "దుపు": 4586,
      "దులను": 4587,
      "దుఃఖ": 4588,
      "దురదృష్ట": 4589,
      "టికల్": 4590,
      "టిటిపి": 4591,
      "తాగు": 4592,
      "తాము": 4593,
      "యిత": 4594,
      "యింది": 4595,
      "యిగా": 4596,
      "యిల్": 4597,
      "యింటింగ్": 4598,
      "లిముద్ర": 4599,
      "సంకో": 4600,
      "సంగ్రహ": 4601,
      "కోట్": 4602,
      "కోవచ్చా": 4603,
      "కోరిక": 4604,
      "కోడింగ్": 4605,
      "చ్చు": 4606,
      "చేయని": 4607,
      "చేయకపోతే": 4608,
      "చేయవద్దని": 4609,
      "డ్రాగ": 4610,
      "డ్రగ్": 4611,
      "గుహ": 4612,
      "గుల్": 4613,
      "గుండె": 4614,
      "గుళాలు": 4615,
      "గురుత్": 4616,
      "న్నారు": 4617,
      "స్తుండ": 4618,
      "స్తుంటే": 4619,
      "ంతర": 4620,
      "సాగు": 4621,
      "సారీ": 4622,
      "సాపే": 4623,
      "సాహి": 4624,
      "సుల": 4625,
      "సుకున్నాను": 4626,
      "చుట్టు": 4627,
      "చుకోవచ్చు": 4628,
      "చుకున్నాడు": 4629,
      "చుంకీ": 4630,
      "సిన్": 4631,
      "సిల్": 4632,
      "సిరీ": 4633,
      "సినిమ": 4634,
      "సిపీ": 4635,
      "పాన్": 4636,
      "పాప్": 4637,
      "పాడి": 4638,
      "పాటి": 4639,
      "పాకె": 4640,
      "పాంథి": 4641,
      "పారదర్శ": 4642,
      "ాలనుకోవడం": 4643,
      "ాలనుకుంటున్నా": 4644,
      "ాలనుకునే": 4645,
      "ాలనుకుంటున్నాను": 4646,
      "క్షత": 4647,
      "ముడిపడి": 4648,
      "రించబడిన": 4649,
      "యాస": 4650,
      "యాడు": 4651,
      "యాదృ": 4652,
      "యాడ్స్": 4653,
      "లాది": 4654,
      "లాగ్": 4655,
      "లాన్ని": 4656,
      "లాంగ్": 4657,
      "రీమ": 4658,
      "రీఫండ్": 4659,
      "చింగ్": 4660,
      "చిత్రం": 4661,
      "చిటికె": 4662,
      "చింతి": 4663,
      "వచ్చి": 4664,
      "వచ్చని": 4665,
      "వచ్చో": 4666,
      "గితే": 4667,
      "గిఫ్ట్": 4668,
      "వేవ్": 4669,
      "వేతన": 4670,
      "వేస్తారు": 4671,
      "వేసవి": 4672,
      "వేలిముద్ర": 4673,
      "కొని": 4674,
      "కొమ్మ": 4675,
      "కొవ్వు": 4676,
      "కొద్ది": 4677,
      "ఒకప్పుడు": 4678,
      "మిం": 4679,
      "మిరియ": 4680,
      "మిశ్ర": 4681,
      "మిఫికేషన్": 4682,
      "మినహా": 4683,
      "మిరహి": 4684,
      "మెటా": 4685,
      "మెటల్": 4686,
      "మెట్రి": 4687,
      "మెటీరియల్": 4688,
      "పెడుతుంది": 4689,
      "పెరిగి": 4690,
      "పెంప": 4691,
      "పెయిడ్": 4692,
      "పెట్టా": 4693,
      "పెయింటింగ్": 4694,
      "న్నం": 4695,
      "రోపి": 4696,
      "మేట్": 4697,
      "మేషన్": 4698,
      "పరిపక్": 4699,
      "హాట్": 4700,
      "హారం": 4701,
      "హారాలను": 4702,
      "భార": 4703,
      "భావి": 4704,
      "భాన్ని": 4705,
      "భార్య": 4706,
      "భాగాన్ని": 4707,
      "భాషా": 4708,
      "చెవి": 4709,
      "చెప్పు": 4710,
      "చెడ్డ": 4711,
      "అనుబంధ": 4712,
      "అనుకుంటున్నారు": 4713,
      "అనువాదం": 4714,
      "అనుమానం": 4715,
      "తీత": 4716,
      "పిటి": 4717,
      "పిజ్": 4718,
      "ప్రాణ": 4719,
      "ప్రాపంచ": 4720,
      "ప్రాబ్ల": 4721,
      "ండర్లను": 4722,
      "పోష": 4723,
      "పోనె": 4724,
      "పోషణ": 4725,
      "పోవడానికి": 4726,
      "పోయాలి": 4727,
      "నిర్మాణా": 4728,
      "స్తాయని": 4729,
      "కేను": 4730,
      "కేర్": 4731,
      "కేవల": 4732,
      "స్థానికులతో": 4733,
      "స్థలాన్ని": 4734,
      "శ్రామిక": 4735,
      "సమర్పించండి": 4736,
      "సమన్వయం": 4737,
      "వర్గ": 4738,
      "వర్తి": 4739,
      "ంటిల్": 4740,
      "ంటినీ": 4741,
      "వెల్": 4742,
      "వెండి": 4743,
      "వెలువ": 4744,
      "వెలికి": 4745,
      "వెతుకు": 4746,
      "నీయం": 4747,
      "రెక్": 4748,
      "రెసిపీ": 4749,
      "కలిపి": 4750,
      "అవత": 4751,
      "అవకాశాన్ని": 4752,
      "స్టాల్": 4753,
      "డార్క్": 4754,
      "ళ్లలో": 4755,
      "ళ్లుగా": 4756,
      "జీలు": 4757,
      "జీర్ణ": 4758,
      "ాలిడ్": 4759,
      "ాలిసిస్": 4760,
      "రేమ్": 4761,
      "రేటు": 4762,
      "రేటర్": 4763,
      "రేటును": 4764,
      "చూపి": 4765,
      "చూపే": 4766,
      "చూస్తారు": 4767,
      "చూస్తున్న": 4768,
      "చూస్తాను": 4769,
      "చూసింది": 4770,
      "తెరు": 4771,
      "కోవటానికి": 4772,
      "ఉన్నారా": 4773,
      "ఉన్నారో": 4774,
      "ఉన్నాడని": 4775,
      "ఉన్నారని": 4776,
      "పొరుగు": 4777,
      "పొందింది": 4778,
      "పొదుపు": 4779,
      "సెవె": 4780,
      "సెలె": 4781,
      "సెక్యూ": 4782,
      "సెటప్": 4783,
      "సేకరించ": 4784,
      "సేకరించండి": 4785,
      "ఫ్లై": 4786,
      "ఫ్రాం": 4787,
      "ఫ్లైట్": 4788,
      "ఫ్లూ": 4789,
      "ఫ్రేమ్": 4790,
      "శాండ్వి": 4791,
      "శాంతిని": 4792,
      "జియాన్ని": 4793,
      "జిఎం": 4794,
      "జిపిటి": 4795,
      "ద్దం": 4796,
      "డేటాకు": 4797,
      "డేటాపై": 4798,
      "కరించబడిన": 4799,
      "కరించడంలో": 4800,
      "కరించాడు": 4801,
      "కరించదగిన": 4802,
      "రూమ్": 4803,
      "ల్లర్": 4804,
      "అతన్ని": 4805,
      "త్రాలను": 4806,
      "ఉండలేను": 4807,
      "జాతులు": 4808,
      "జాతుల": 4809,
      "బాక్": 4810,
      "బాటిల్": 4811,
      "నెర": 4812,
      "నెంబ": 4813,
      "నెగె": 4814,
      "నెగటివ్": 4815,
      "మొత్తాన్ని": 4816,
      "ంటేషన్": 4817,
      "కీని": 4818,
      "కీవర్డ్": 4819,
      "వారిని": 4820,
      "వారితో": 4821,
      "యూరోపి": 4822,
      "దేని": 4823,
      "ధ్యాలను": 4824,
      "మూలం": 4825,
      "తేమతో": 4826,
      "బియా": 4827,
      "బిందు": 4828,
      "బింబ": 4829,
      "బిట్స్": 4830,
      "కెళ్ల": 4831,
      "గలడని": 4832,
      "గలరని": 4833,
      "గలగాలి": 4834,
      "వంటివి": 4835,
      "ప్రతిదీ": 4836,
      "ప్రతిపాదించ": 4837,
      "ప్రతిసారీ": 4838,
      "ప్రతిబింబ": 4839,
      "తీసుకోవ": 4840,
      "తీసుకుంటున్నా": 4841,
      "తీసుకోవచ్చు": 4842,
      "తీసుకెళ్ల": 4843,
      "ండ్స్": 4844,
      "జ్జు": 4845,
      "జ్వరం": 4846,
      "పనిచేయడానికి": 4847,
      "పనిచేస్తుంది": 4848,
      "పనిచేస్తాడు": 4849,
      "పనిప్రాంతంలో": 4850,
      "వంతె": 4851,
      "ముఖం": 4852,
      "టెం": 4853,
      "టెలి": 4854,
      "టర్న్": 4855,
      "వైశాల": 4856,
      "వైఫల": 4857,
      "వైర్లె": 4858,
      "తరబడి": 4859,
      "దీయడం": 4860,
      "వృక్ష": 4861,
      "సహాయపడు": 4862,
      "బంధం": 4863,
      "బంధువు": 4864,
      "సైంటి": 4865,
      "సైకిల్": 4866,
      "కాలో": 4867,
      "కాలంగా": 4868,
      "వనంగా": 4869,
      "క్రితం": 4870,
      "క్రిమిరహి": 4871,
      "సహకార": 4872,
      "ంటాను": 4873,
      "దారుల": 4874,
      "అభిజ్ఞా": 4875,
      "అభిరుచి": 4876,
      "జుట్టు": 4877,
      "బోర్": 4878,
      "బోట్": 4879,
      "బోల్డ్": 4880,
      "గొడుగు": 4881,
      "ఫింగ్": 4882,
      "ఫిక్స్": 4883,
      "ఫిర్యా": 4884,
      "వీలైన": 4885,
      "శక్తిగా": 4886,
      "శక్తిలో": 4887,
      "వ్యాధు": 4888,
      "ఉంటుందని": 4889,
      "వంతులు": 4890,
      "ప్రభావాల": 4891,
      "వ్యక్తిత్వం": 4892,
      "గోల్": 4893,
      "గోల్ఫ్": 4894,
      "పేరోల్": 4895,
      "పేలవ": 4896,
      "పేరాగ్రా": 4897,
      "వరదలు": 4898,
      "మ్మత్తు": 4899,
      "సృష్టించే": 4900,
      "అంగుళాలు": 4901,
      "ఉత్సాహ": 4902,
      "విధులను": 4903,
      "వృద్ధిని": 4904,
      "స్ట్రింగ్": 4905,
      "మోల్": 4906,
      "మోగ్రా": 4907,
      "వ్యవసా": 4908,
      "వ్యవహారాలను": 4909,
      "ఆధారాలు": 4910,
      "దృగ్": 4911,
      "దృశ్యం": 4912,
      "స్పూ": 4913,
      "కార్ల": 4914,
      "కార్యా": 4915,
      "కార్పస్": 4916,
      "లభి": 4917,
      "స్థిరంగా": 4918,
      "వినియోగదారుని": 4919,
      "వినియోగదారులతో": 4920,
      "మర్చి": 4921,
      "గ్రౌండ్": 4922,
      "గ్రహాన్ని": 4923,
      "దేశాల": 4924,
      "దేశవ్యాప్తంగా": 4925,
      "అభివృద్ధిలో": 4926,
      "వాతావరణాలకు": 4927,
      "గేట్": 4928,
      "గేమ్స్": 4929,
      "గేమిఫికేషన్": 4930,
      "స్తున్నాయి": 4931,
      "వ్యవస్థపై": 4932,
      "ఆమెను": 4933,
      "ఆమెకు": 4934,
      "ఇవ్వడానికి": 4935,
      "ఇవ్వడంలో": 4936,
      "మైన్": 4937,
      "మైళ్ళు": 4938,
      "శిథి": 4939,
      "శిఖరాలు": 4940,
      "ంచింది": 4941,
      "పర్సన": 4942,
      "క్ట్స్": 4943,
      "రోజుల": 4944,
      "రోజుకు": 4945,
      "తగ్గించడం": 4946,
      "తగ్గించి": 4947,
      "తగ్గించే": 4948,
      "తెలుసుకున్న": 4949,
      "మ్యూజియాన్ని": 4950,
      "ించాము": 4951,
      "నిర్వహించండి": 4952,
      "నిర్వహించదగిన": 4953,
      "ఎక్కువసేపు": 4954,
      "తంత్ర": 4955,
      "లీష్": 4956,
      "క్రమణ": 4957,
      "కర్బన": 4958,
      "కర్మాగా": 4959,
      "చెప్పడానికి": 4960,
      "చెప్పాలి": 4961,
      "చెప్పగలరా": 4962,
      "చెప్పాల్సిన": 4963,
      "అంతే": 4964,
      "అంతటా": 4965,
      "అంతరాయం": 4966,
      "లక్ష్యం": 4967,
      "హిస్టా": 4968,
      "హిమానీ": 4969,
      "తులైన": 4970,
      "చర్యగా": 4971,
      "భుజాలు": 4972,
      "సాంకేతికతలు": 4973,
      "ఖర్చుల": 4974,
      "ఖర్చును": 4975,
      "ఫార్": 4976,
      "ఫార్మ": 4977,
      "మెరుగుదల": 4978,
      "తెలియని": 4979,
      "సోస్పి": 4980,
      "ప్రేమి": 4981,
      "అనుభవాలను": 4982,
      "ప్రారంభి": 4983,
      "ప్రారంభంలో": 4984,
      "ప్రారంభించవచ్చు": 4985,
      "ప్రారంభమవుతుంది": 4986,
      "డెడ్": 4987,
      "డెండ్": 4988,
      "డెన్స్": 4989,
      "డెజర్": 4990,
      "డెమోగ్రా": 4991,
      "తీసుకుంటారు": 4992,
      "టెక్చర్": 4993,
      "కనుగొన్నా": 4994,
      "లక్ష్యాల": 4995,
      "లక్ష్యాలపై": 4996,
      "కల్లో": 4997,
      "కరమైనది": 4998,
      "ఫోల్డ్": 4999,
      "ఫోకస్": 5000,
      "మనిషి": 5001,
      "చేసుకో": 5002,
      "చేసుకోవాలి": 5003,
      "చేసుకున్నాడని": 5004,
      "దీనిపై": 5005,
      "ఉత్పత్తిని": 5006,
      "గుర్తించడంలో": 5007,
      "చెప్పాను": 5008,
      "చెప్పారు": 5009,
      "తరువాతి": 5010,
      "ధిలో": 5011,
      "నాలెడ్": 5012,
      "మందికి": 5013,
      "ప్రత్యక్ష": 5014,
      "వివరించ": 5015,
      "పెద్దది": 5016,
      "పెద్దగా": 5017,
      "స్థానాన్ని": 5018,
      "స్థానంలో": 5019,
      "స్థాపించడానికి": 5020,
      "అతనిని": 5021,
      "అతనితో": 5022,
      "వనరులకు": 5023,
      "కస్టమర్లకు": 5024,
      "అర్థవంతమైన": 5025,
      "ఇన్ఫె": 5026,
      "ఇన్వెంట": 5027,
      "కరణలను": 5028,
      "నమూన": 5029,
      "నమూనాకు": 5030,
      "నమూనాల": 5031,
      "ప్రయత్నాలు": 5032,
      "గ్రాన్యు": 5033,
      "అందాలను": 5034,
      "కపోవచ్చు": 5035,
      "కారణాలలో": 5036,
      "యాక్టివిటీ": 5037,
      "చిన్నపిల్ల": 5038,
      "మార్పులకు": 5039,
      "ప్రయోజనాల": 5040,
      "ఫీచర్": 5041,
      "బడలేదు": 5042,
      "విస్తరి": 5043,
      "విస్తరణ": 5044,
      "మానాలను": 5045,
      "మానవులు": 5046,
      "అవసరమని": 5047,
      "అవసరమైతే": 5048,
      "జ్ఞానాన్ని": 5049,
      "ఉదాహరణను": 5050,
      "ఉదాహరణలు": 5051,
      "ఉంచే": 5052,
      "పంచదార": 5053,
      "సౌర": 5054,
      "సౌంద": 5055,
      "సౌండ్": 5056,
      "సర్వర్లు": 5057,
      "సర్ఫింగ్": 5058,
      "ూహ్య": 5059,
      "ప్రజలను": 5060,
      "వ్యక్తులను": 5061,
      "పెట్టుకోండి": 5062,
      "పెట్టుకుంది": 5063,
      "పొందాలి": 5064,
      "రూపొందించడానికి": 5065,
      "రూపొందించడం": 5066,
      "రూపొందించుకునే": 5067,
      "ఇమెయిల్స్": 5068,
      "ఖచ్చితత్": 5069,
      "రైడ్": 5070,
      "రైబ్": 5071,
      "రైనియర్": 5072,
      "స్నేహ": 5073,
      "విధాన": 5074,
      "విధానంలో": 5075,
      "పెరుగుతుంది": 5076,
      "ప్రాంతాలలో": 5077,
      "జీవితాన్ని": 5078,
      "అంశం": 5079,
      "అంశాలు": 5080,
      "కంప్యూటర్లు": 5081,
      "కంప్యూటర్లో": 5082,
      "ఉద్యోగం": 5083,
      "ఉద్యోగానికి": 5084,
      "కలత": 5085,
      "కలవడానికి": 5086,
      "తమను": 5087,
      "తమకు": 5088,
      "హెడో": 5089,
      "తున్నారా": 5090,
      "తున్నాయి": 5091,
      "చేస్తాము": 5092,
      "చేస్తాడని": 5093,
      "నేర్చుకోవచ్చు": 5094,
      "నేర్చుకున్నాడు": 5095,
      "టివ్స్": 5096,
      "సంక్షో": 5097,
      "సాధించవచ్చు": 5098,
      "సాధించిన": 5099,
      "పరిష్కార": 5100,
      "పరిష్కరించడంలో": 5101,
      "సమస్యలకు": 5102,
      "వైపులా": 5103,
      "ముఖ్యమైనవి": 5104,
      "కనుగొనబడలేదు": 5105,
      "ప్రశ్నకు": 5106,
      "ప్రశ్నలకు": 5107,
      "ఎంచుకోవడానికి": 5108,
      "ఎంచుకోవాలి": 5109,
      "జరుగుతోందని": 5110,
      "పద్ధతి": 5111,
      "ఫైబర్": 5112,
      "ఫైళ్లు": 5113,
      "ఫైళ్లను": 5114,
      "బ్యాండ్": 5115,
      "బ్యాకప్": 5116,
      "భ్రమ": 5117,
      "ప్లాస్టి": 5118,
      "ప్లాట్ఫా": 5119,
      "విషయాన్ని": 5120,
      "సంభాషణ": 5121,
      "సంభాషణను": 5122,
      "వేయాలి": 5123,
      "కొంతకాలం": 5124,
      "వెళ్ళడం": 5125,
      "ఉపయోగించాలో": 5126,
      "ఉపయోగించబడతాయి": 5127,
      "ఉపయోగించబడు": 5128,
      "స్నేహితులను": 5129,
      "ప్రోత్సహించే": 5130,
      "ప్రోత్సహిస్తుంది": 5131,
      "దశల": 5132,
      "నోరు": 5133,
      "నోట్స్": 5134,
      "వద్దకు": 5135,
      "స్టార్": 5136,
      "స్టాక్స్": 5137,
      "ప్రపంచానికి": 5138,
      "ప్రపంచవ్యాప్తంగా": 5139,
      "తున్నప్పుడు": 5140,
      "తున్నదాన్ని": 5141,
      "యంత్రాం": 5142,
      "ఉపయోగాన్ని": 5143,
      "కమ్యూనికేషన్ల": 5144,
      "అనాలిసిస్": 5145,
      "అనూహ్య": 5146,
      "ఆకర్షి": 5147,
      "డీబగ్": 5148,
      "పట్టవచ్చు": 5149,
      "బలాలు": 5150,
      "మరమ్మత్తు": 5151,
      "స్క్రైబ్": 5152,
      "స్వాగతం": 5153,
      "స్వాధీ": 5154,
      "ప్రక్రియకు": 5155,
      "ప్రక్రియలో": 5156,
      "సామాగ్రిని": 5157,
      "మేధను": 5158,
      "పరిమితి": 5159,
      "పరిమితంగా": 5160,
      "పరిమితులు": 5161,
      "చూడవచ్చు": 5162,
      "చూడగలనా": 5163,
      "సూచిస్తారు": 5164,
      "నిర్ణయించడానికి": 5165,
      "నిర్ణయించండి": 5166,
      "ఎంపికను": 5167,
      "అంచనాలు": 5168,
      "ఇంధనాలను": 5169,
      "కథకు": 5170,
      "డబ్ల్": 5171,
      "తలనొప్పి": 5172,
      "తయారైన": 5173,
      "నగరాలు": 5174,
      "నగరాలను": 5175,
      "పడతారు": 5176,
      "భూగర్": 5177,
      "భద్రతను": 5178,
      "స్వతంత్ర": 5179,
      "చేయగలమని": 5180,
      "పార్క్": 5181,
      "ముందుకు": 5182,
      "పరికరాల": 5183,
      "పరిస్థితుల్లో": 5184,
      "పిల్లలు": 5185,
      "పిల్లలను": 5186,
      "పిల్లవాడు": 5187,
      "రూపంగా": 5188,
      "వెబ్సైట్లో": 5189,
      "స్థాయిల": 5190,
      "స్థాయిలు": 5191,
      "స్థాయిలో": 5192,
      "దారితీస్తుందని": 5193,
      "దారితీసింది": 5194,
      "బహుముఖ": 5195,
      "తొమ్మి": 5196,
      "పదాల": 5197,
      "పదాలు": 5198,
      "పదాలను": 5199,
      "పదవీ": 5200,
      "పదమూడు": 5201,
      "పదజాల": 5202,
      "మీడియాలో": 5203,
      "కారును": 5204,
      "కారులు": 5205,
      "కొనసాగు": 5206,
      "అనుకోలేదు": 5207,
      "స్టేషన్": 5208,
      "నెట్వర్క్లు": 5209,
      "ఎంపికలను": 5210,
      "ఆహారాన్ని": 5211,
      "ఎన్ఎన్": 5212,
      "ఎదుగు": 5213,
      "నిజమైన": 5214,
      "రియన్స్": 5215,
      "ప్రియు": 5216,
      "ప్రింట్": 5217,
      "రువుల": 5218,
      "ప్రధానంగా": 5219,
      "విభజన": 5220,
      "వాసన": 5221,
      "వార్త": 5222,
      "భాగంగా": 5223,
      "భాగాలను": 5224,
      "భాగంలో": 5225,
      "భాగాలతో": 5226,
      "సాంకేతికతలో": 5227,
      "జంతువులు": 5228,
      "జంతువుల": 5229,
      "విద్యార్థి": 5230,
      "విద్యార్థులకు": 5231,
      "జీవితాలను": 5232,
      "మద్దతును": 5233,
      "టెక్నాలజీని": 5234,
      "అందుకే": 5235,
      "అందువల్ల": 5236,
      "చర్మం": 5237,
      "పీడ": 5238,
      "పనులకు": 5239,
      "పనులపై": 5240,
      "బద్ధం": 5241,
      "బద్ధమైన": 5242,
      "శరీరానికి": 5243,
      "హోస్ట్": 5244,
      "ప్రచారాన్ని": 5245,
      "ప్రచారాల": 5246,
      "ప్రదేశం": 5247,
      "ప్రదేశానికి": 5248,
      "సంఖ్యా": 5249,
      "కోరుకున్న": 5250,
      "కోరుకుంటున్నారు": 5251,
      "పాఠాలను": 5252,
      "రంగులోకి": 5253,
      "సమూహాలు": 5254,
      "వర్గీకరించడం": 5255,
      "వర్గీకరణను": 5256,
      "మార్గాలను": 5257,
      "మార్గదర్శ": 5258,
      "కంపెనీలను": 5259,
      "విశ్లేషించండి": 5260,
      "వస్తువుల": 5261,
      "వస్తువును": 5262,
      "ప్రయత్నించవచ్చు": 5263,
      "ఇంట్లోనే": 5264,
      "ఇతరుల": 5265,
      "ఎస్ఈఓ": 5266,
      "జోడి": 5267,
      "జోక్యం": 5268,
      "పడిన": 5269,
      "పర్యటన": 5270,
      "ఫెయిర్": 5271,
      "బయటి": 5272,
      "బెర్": 5273,
      "బెస్ట్": 5274,
      "బెట్టిన": 5275,
      "మవుతాయి": 5276,
      "నియంత్రించ": 5277,
      "ప్లగ్": 5278,
      "ప్లూటో": 5279,
      "లోపలి": 5280,
      "కాంబాట్": 5281,
      "కాంపోనె": 5282,
      "లేకపోయాడు": 5283,
      "స్తున్నట్లు": 5284,
      "పాయింట్ల": 5285,
      "పాయింట్లు": 5286,
      "పాయింట్లను": 5287,
      "చిత్రాలను": 5288,
      "మెరుగ్గా": 5289,
      "భావనలు": 5290,
      "అవగాహనను": 5291,
      "రేట్లను": 5292,
      "చూపించడానికి": 5293,
      "చూపించాడు": 5294,
      "ఫ్రెండ్": 5295,
      "సూచనల": 5296,
      "సూచనలను": 5297,
      "ప్రభావితమ": 5298,
      "123": 5299,
      "ఉత్తమ": 5300,
      "ఖాస్తు": 5301,
      "ఖాళీ": 5302,
      "దూరం": 5303,
      "పదార్": 5304,
      "ప్రసిద్ది": 5305,
      "వాహనాలు": 5306,
      "ల్లింగ్": 5307,
      "భాషలు": 5308,
      "ప్రాజెక్టులు": 5309,
      "నిర్వచించడానికి": 5310,
      "బ్లాగ్": 5311,
      "వెళ్లండి": 5312,
      "వెళ్లాలి": 5313,
      "సేవను": 5314,
      "సేవలు": 5315,
      "ఫిషింగ్": 5316,
      "ప్రోగ్రామింగ్": 5317,
      "ఆలోచనను": 5318,
      "సంభావ్యతను": 5319,
      "పరీక్షించడం": 5320,
      "పరీక్షించాలి": 5321,
      "సంఖ్యను": 5322,
      "సంఖ్యలో": 5323,
      "అద్భుతం": 5324,
      "స్వేచ్ఛను": 5325,
      "అడ్డు": 5326,
      "గంటల": 5327,
      "గంటలు": 5328,
      "చదవ": 5329,
      "చదవడానికి": 5330,
      "ఛాన": 5331,
      "ఛార్జ్డ్": 5332,
      "డర్లను": 5333,
      "పట్టుకో": 5334,
      "పట్టుకోవడానికి": 5335,
      "శైలికి": 5336,
      "షెల్ఫ్": 5337,
      "ర్ఘ్యాలు": 5338,
      "క్యాప్చర్": 5339,
      "విజయం": 5340,
      "పరిశ్రమను": 5341,
      "పరిశ్రమలో": 5342,
      "పరిశ్రమలలో": 5343,
      "ప్రాధాన్యత": 5344,
      "ప్రాధాన్యతలను": 5345,
      "యూనిట్లు": 5346,
      "యూనియన్": 5347,
      "సహాయపడవచ్చు": 5348,
      "అనుమతించడం": 5349,
      "అనుమతించే": 5350,
      "సామర్థ్యాలను": 5351,
      "సామర్థ్యంతో": 5352,
      "విస్తృతమైన": 5353,
      "సౌకర్యాలు": 5354,
      "అడవుల": 5355,
      "ఆటకు": 5356,
      "ఆపాలని": 5357,
      "ఆస్వాదించడానికి": 5358,
      "ఉద్భవి": 5359,
      "చర్చించండి": 5360,
      "పాలసీ": 5361,
      "పాలకూర": 5362,
      "బీమా": 5363,
      "బడులను": 5364,
      "న్యూట్": 5365,
      "న్యూరల్": 5366,
      "ప్రకటనను": 5367,
      "వాడకాన్ని": 5368,
      "లేఖలు": 5369,
      "దుస్తుల": 5370,
      "లింగ": 5371,
      "సార్వత్రిక": 5372,
      "ఒకేలా": 5373,
      "ఒకేసారి": 5374,
      "అనుసరణ": 5375,
      "అనుసరించండి": 5376,
      "అనుసరించడం": 5377,
      "తీర్చే": 5378,
      "తీర్మానాన్ని": 5379,
      "తీవ్రంగా": 5380,
      "సమాజాలు": 5381,
      "సూచించే": 5382,
      "గుర్తుంచు": 5383,
      "ఆధారపడటం": 5384,
      "సామర్థ్యంపై": 5385,
      "ఎదుర్కోవడం": 5386,
      "అమెరికాలో": 5387,
      "ఆటోమేట్": 5388,
      "ఆటోమేటెడ్": 5389,
      "పదార్థం": 5390,
      "పదార్థాలు": 5391,
      "పదార్థాలను": 5392,
      "పదార్థంతో": 5393,
      "లెక్కింపు": 5394,
      "లెక్కించడానికి": 5395,
      "దగ్గరగా": 5396,
      "చరిత్రను": 5397,
      "అమ్మకాలను": 5398,
      "ఇచ్చింది": 5399,
      "గలిగా": 5400,
      "నడిపాడు": 5401,
      "పడుతుందని": 5402,
      "మౌంట్": 5403,
      "మౌఖిక": 5404,
      "రస్రా": 5405,
      "వదిలే": 5406,
      "న్యాయ": 5407,
      "న్యాయం": 5408,
      "న్యాయమైన": 5409,
      "క్రీం": 5410,
      "దిగుమతి": 5411,
      "దిగుబడులను": 5412,
      "వాస్తవాలు": 5413,
      "కాన్ఫె": 5414,
      "కోర్టు": 5415,
      "కోడ్ను": 5416,
      "గుడ్డు": 5417,
      "వ్యత్యాసం": 5418,
      "వ్యత్యాసాలను": 5419,
      "పోల్చ": 5420,
      "చూశాను": 5421,
      "సృష్టిస్తారు": 5422,
      "ఉత్పత్తులు": 5423,
      "కృతజ్ఞ": 5424,
      "ఇంజిన్ల": 5425,
      "వ్యాపారాలకు": 5426,
      "జనాభాను": 5427,
      "విభజించడం": 5428,
      "విభజించండి": 5429,
      "విభజించవచ్చు": 5430,
      "అన్వేషణ": 5431,
      "పర్యవేక్షణ": 5432,
      "సిఫార్సులు": 5433,
      "ట్యాగ్లు": 5434,
      "బృందాలు": 5435,
      "సభ్యుల": 5436,
      "ఇటీవల": 5437,
      "కన్సో": 5438,
      "చట్టం": 5439,
      "పంపడానికి": 5440,
      "పంపడం": 5441,
      "ఫుట్బాల్": 5442,
      "భోజన": 5443,
      "భిన్నమైన": 5444,
      "సలహాలు": 5445,
      "హ్యారీ": 5446,
      "ప్యాకేజీ": 5447,
      "దిశను": 5448,
      "దిశగా": 5449,
      "దిశలో": 5450,
      "కిరణాలను": 5451,
      "వాయువు": 5452,
      "నేపథ్యం": 5453,
      "చేయాలనుకుంటే": 5454,
      "చేయాలనుకుంటున్న": 5455,
      "క్షీర": 5456,
      "రంగాలలో": 5457,
      "చివరికి": 5458,
      "చిరునవ్వు": 5459,
      "కొలవడానికి": 5460,
      "భావించవచ్చు": 5461,
      "చెట్టును": 5462,
      "సమయాలను": 5463,
      "సమగ్రతను": 5464,
      "సహాయంతో": 5465,
      "జీవనశైలికి": 5466,
      "తెలివి": 5467,
      "తెలివైన": 5468,
      "పొరను": 5469,
      "తగ్గుతాయి": 5470,
      "చెప్పినది": 5471,
      "ప్రత్యామ్నా": 5472,
      "జ్ఞాపకాలను": 5473,
      "ఆలోచించండి": 5474,
      "ఆలోచించారా": 5475,
      "స్టేట్స్లో": 5476,
      "నిమగ్నత": 5477,
      "ఇష్టపడతాడు": 5478,
      "నైపుణ్యాలు": 5479,
      "రెండింటినీ": 5480,
      "ఎలక్ట్రాని": 5481,
      "డయాక్సైడ్ను": 5482,
      "భవిష్యత్తును": 5483,
      "అసిస్టెంట్ను": 5484,
      "ఆల్కహాల్": 5485,
      "ఆహ్వాని": 5486,
      "ఇచ్చే": 5487,
      "ఎక్స్పీ": 5488,
      "ఎక్విప్": 5489,
      "త్యంలో": 5490,
      "నష్టాలను": 5491,
      "బొగ్గు": 5492,
      "బొకేను": 5493,
      "మయ్యే": 5494,
      "మ్యాప్": 5495,
      "సమీప": 5496,
      "స్కాన్లు": 5497,
      "స్టిక్స్": 5498,
      "విరామాలను": 5499,
      "విజువల్": 5500,
      "వాదనకు": 5501,
      "రాజధాని": 5502,
      "కాఫీని": 5503,
      "తాజాగా": 5504,
      "సంఘటన": 5505,
      "సంఘటనలు": 5506,
      "సంతృప్తిక": 5507,
      "డ్రైవర్": 5508,
      "సారాంశాన్ని": 5509,
      "అనువర్తనాల": 5510,
      "ప్రాతినిధ్యాలను": 5511,
      "పోషిస్తాయి": 5512,
      "మార్చడానికి": 5513,
      "మార్చడం": 5514,
      "కూడదని": 5515,
      "వ్రాత": 5516,
      "పొడవుగా": 5517,
      "బాధను": 5518,
      "బాధపడ": 5519,
      "నెలవారీ": 5520,
      "పనిచేస్తుందో": 5521,
      "గోప్యత": 5522,
      "అంగీకరించ": 5523,
      "విశ్వవిద్య": 5524,
      "ఆరోగ్యంపై": 5525,
      "ఇంజనీర్": 5526,
      "గుర్తించాలో": 5527,
      "గుర్తించగలదు": 5528,
      "విస్తరించింది": 5529,
      "ఉద్యోగులు": 5530,
      "కాలుష్య": 5531,
      "కాలుష్యం": 5532,
      "పట్టణంలో": 5533,
      "కార్యక్రమాలను": 5534,
      "కార్యకలాప": 5535,
      "శైలిని": 5536,
      "విజయవంత": 5537,
      "సూర్యుడు": 5538,
      "ఉద్దేశ్యం": 5539,
      "ఉద్దేశ్యాన్ని": 5540,
      "అద్దం": 5541,
      "అడిగాను": 5542,
      "అడిగాడు": 5543,
      "ఆకారాలను": 5544,
      "ఆకాశాన్ని": 5545,
      "కణజాల": 5546,
      "ఖరీదు": 5547,
      "గడపడం": 5548,
      "గడపాలని": 5549,
      "చల్లని": 5550,
      "జరిగింది": 5551,
      "జరిగిందని": 5552,
      "తత్ఫలితంగా": 5553,
      "ధనవంతులు": 5554,
      "నచ్చిందా": 5555,
      "పన్నుల": 5556,
      "పన్నులు": 5557,
      "రహస్య": 5558,
      "రహదారి": 5559,
      "శబ్దం": 5560,
      "సబ్స్క్రిప్షన్": 5561,
      "సబ్స్క్రైబ్": 5562,
      "సవాలుతో": 5563,
      "కుక్కను": 5564,
      "డిస్కౌ": 5565,
      "ప్రీమియం": 5566,
      "ప్రచురించబడిన": 5567,
      "ప్రమాణాలకు": 5568,
      "రాష్గార్డ్": 5569,
      "సందేశాన్ని": 5570,
      "సాక్ష్యాలు": 5571,
      "పారిశ్రామిక": 5572,
      "ముగిసింది": 5573,
      "ముగింపులో": 5574,
      "పెడల్స్": 5575,
      "ప్రాముఖ్యతను": 5576,
      "పోరాడ": 5577,
      "పోరాడటానికి": 5578,
      "వెలుతురు": 5579,
      "కలిగించ": 5580,
      "అవయవ": 5581,
      "అవయవాలు": 5582,
      "మూసివే": 5583,
      "సరళీ": 5584,
      "పనితీరును": 5585,
      "సమాంతర": 5586,
      "సమాంతరంగా": 5587,
      "ఆర్కిటెక్చర్": 5588,
      "తీసుకురావడం": 5589,
      "సర్దుబాటు": 5590,
      "పెట్టుబడులను": 5591,
      "సంవత్సరంలో": 5592,
      "పరిష్కారాలను": 5593,
      "మాట్లాడాను": 5594,
      "కథాం": 5595,
      "ప్రియమైనది": 5596,
      "ప్రియమైనవారితో": 5597,
      "జోడించండి": 5598,
      "ఫలితాలు": 5599,
      "ఫలితాలను": 5600,
      "బయటకు": 5601,
      "బయటపడ": 5602,
      "బయలుదేరాడు": 5603,
      "ప్రమాదాలను": 5604,
      "పాస్వర్డ్ను": 5605,
      "ఆటగాడు": 5606,
      "ఎదుర్కొంటున్నా": 5607,
      "సందర్భాలను": 5608,
      "సందర్భంలో": 5609,
      "పాజిటివ్స్": 5610,
      "చివరిసారి": 5611,
      "ప్రత్యామ్నాయాలను": 5612,
      "అధ్యయనం": 5613,
      "అధ్యయనాలు": 5614,
      "ఆశ్చర్యపోయాడు": 5615,
      "ఉపరితలాలు": 5616,
      "ధోరణి": 5617,
      "ధోరణులు": 5618,
      "నొప్పిని": 5619,
      "రవాణాకు": 5620,
      "వరుసలు": 5621,
      "అనుకూలీకరించదగిన": 5622,
      "ఆనంద": 5623,
      "ఇంగ్లీష్": 5624,
      "ఎగువ": 5625,
      "ఒప్పంద": 5626,
      "ధ్యానం": 5627,
      "నచ్చలేదు": 5628,
      "ఫ్యాక్టరీ": 5629,
      "భర్త": 5630,
      "భర్తీ": 5631,
      "భవనాలు": 5632,
      "రచయిత": 5633,
      "వడ్డీ": 5634,
      "వడ్డించ": 5635,
      "నిష్పత్తి": 5636,
      "నియామక": 5637,
      "నిశ్శబ్ద": 5638,
      "నిబంధనలు": 5639,
      "రిపోర్టింగ్": 5640,
      "స్నానం": 5641,
      "ప్రయోగాలు": 5642,
      "ప్రకాశవంతంగా": 5643,
      "ప్రశాంతమైన": 5644,
      "లోతును": 5645,
      "సందర్శించి": 5646,
      "గుసగుస": 5647,
      "సాధ్యమవుతుంది": 5648,
      "సిబ్బందికి": 5649,
      "క్షమించండి": 5650,
      "ముక్కకు": 5651,
      "వ్యవహరించడానికి": 5652,
      "చిక్కులను": 5653,
      "తోటలో": 5654,
      "పరిధిని": 5655,
      "చెబుతా": 5656,
      "చెందాడు": 5657,
      "చెందాయి": 5658,
      "పిలిచాడు": 5659,
      "బ్రౌ": 5660,
      "బ్రెడ్": 5661,
      "బ్రెగ్జి": 5662,
      "సమతుల్య": 5663,
      "కూర్చుని": 5664,
      "కూడుకున్నది": 5665,
      "సెలవు": 5666,
      "సెలవులు": 5667,
      "రూపాన్ని": 5668,
      "రూపాంతరం": 5669,
      "మూడవ": 5670,
      "మూడవది": 5671,
      "వైద్యంలో": 5672,
      "వంతుడిని": 5673,
      "స్ట్రిప్": 5674,
      "స్థితిపై": 5675,
      "రక్షించుకోవడానికి": 5676,
      "సోదరీమ": 5677,
      "ప్రేరేపిస్తుంది": 5678,
      "అనుభూతి": 5679,
      "అనుభూతిని": 5680,
      "కలయిక": 5681,
      "కలయికను": 5682,
      "హెచ్చరి": 5683,
      "హెచ్చరిక": 5684,
      "పద్ధతులపై": 5685,
      "బ్యాంకులు": 5686,
      "కనిపించేలా": 5687,
      "ఇంటిగ్రేషన్": 5688,
      "పరిస్థితులలో": 5689,
      "తరంగాలను": 5690,
      "తరంగదై": 5691,
      "గెలుస్తాడని": 5692,
      "జంతువులకు": 5693,
      "వోల్టేజ్": 5694,
      "కోరుకోలేదు": 5695,
      "శాస్త్రంలో": 5696,
      "ట్రాఫిక్ను": 5697,
      "ప్రతిస్పందించడానికి": 5698,
      "విద్యుత్తును": 5699,
      "తొలగిస్తుంది": 5700,
      "అన్వేషించడం": 5701,
      "అన్వేషించే": 5702,
      "క్షీణతకు": 5703,
      "ల్యాప్టాప్": 5704,
      "మెకానిక్స్ను": 5705,
      "కేటాయించడం": 5706,
      "పూర్తయిన": 5707,
      "పూర్తయిందా": 5708,
      "ఊహించని": 5709,
      "గౌరవం": 5710,
      "భయపడ్డాడు": 5711,
      "గ్లాసులో": 5712,
      "సూర్యరశ్మిని": 5713,
      "సహోద్యోగులతో": 5714,
      "కేంద్రీకృతమై": 5715,
      "అర్హ": 5716,
      "అరుదు": 5717,
      "అనారోగ్య": 5718,
      "ఆయనను": 5719,
      "ఆయుర్దా": 5720,
      "ఆడుతున్నాను": 5721,
      "ఆఫీసు": 5722,
      "ఇమేజ్": 5723,
      "ఉపాధ్యా": 5724,
      "ఎఫెక్ట్స్": 5725,
      "గూగుల్": 5726,
      "చక్రం": 5727,
      "చదివాడు": 5728,
      "టచ్స్క్రీన్": 5729,
      "డొమైన్": 5730,
      "థీమ్": 5731,
      "దొడ్లు": 5732,
      "ధరించాడు": 5733,
      "నవీకరించడం": 5734,
      "ఫైనాన్స్": 5735,
      "ఫాల్స్": 5736,
      "బూట్లు": 5737,
      "బ్యూటెడ్": 5738,
      "బహిష్": 5739,
      "భిప్రా": 5740,
      "మంటను": 5741,
      "మరుగుదొడ్లు": 5742,
      "సాలెపురుగు": 5743,
      "నియమ": 5744,
      "స్కిల్స్": 5745,
      "క్రాస్": 5746,
      "ప్రదర్శన": 5747,
      "ప్రవాహం": 5748,
      "విప్లవాత్మక": 5749,
      "విటమిన్లు": 5750,
      "చేరడానికి": 5751,
      "చేతివ్రాత": 5752,
      "వాటాదారులకు": 5753,
      "వాదించడం": 5754,
      "మీటర్లకు": 5755,
      "టాబ్లెట్": 5756,
      "యింపులు": 5757,
      "సంకేత": 5758,
      "సంపూర్ణ": 5759,
      "సంస్కృతుల": 5760,
      "సంభవిస్తుంది": 5761,
      "కోర్సులో": 5762,
      "చేయగలిగే": 5763,
      "డ్డున": 5764,
      "క్షేత్రాలు": 5765,
      "మునుపటి": 5766,
      "ముద్రణ": 5767,
      "చిట్కాలు": 5768,
      "వేరియబుల్స్": 5769,
      "మిగిలిన": 5770,
      "మెడిసిన్": 5771,
      "మెక్సికన్": 5772,
      "పెంపుడు": 5773,
      "పరిగెత్తాను": 5774,
      "పరిమాణాన్ని": 5775,
      "చెల్లిస్తారు": 5776,
      "ప్రాంప్ట్లు": 5777,
      "పొగమంచు": 5778,
      "సెన్సార్లు": 5779,
      "జియోథర్మ": 5780,
      "జాక్సన్": 5781,
      "బాగుంది": 5782,
      "తేలికపాటి": 5783,
      "తేనెటీగ": 5784,
      "బిలిటీని": 5785,
      "ప్రతిభను": 5786,
      "ప్రతిపాదకులు": 5787,
      "వైద్యులు": 5788,
      "సూక్ష్మమైన": 5789,
      "క్రియాశీల": 5790,
      "అభినందిస్తున్నాను": 5791,
      "ఫిట్నెస్": 5792,
      "అంకితభావం": 5793,
      "అంతిమంగా": 5794,
      "దృక్పథాన్ని": 5795,
      "కార్బోహైడ్రేట్లు": 5796,
      "గేమ్ప్లే": 5797,
      "సీజన్లో": 5798,
      "సౌలభ్యం": 5799,
      "సర్క్యూట్": 5800,
      "ఆలోచిస్తున్నాను": 5801,
      "హెచ్టిటిపి": 5802,
      "సంక్షేమాన్ని": 5803,
      "ఫైర్వాల్": 5804,
      "విషయాలు": 5805,
      "మరచిపోడు": 5806,
      "కంటైనర్లో": 5807,
      "నగరాల్లో": 5808,
      "భూగోళానికి": 5809,
      "పరికరాలతో": 5810,
      "భాగస్వామ్యం": 5811,
      "శాస్త్రీయ": 5812,
      "ఆసక్తులు": 5813,
      "బెదిరింపుల": 5814,
      "ఉత్తేజకరమైన": 5815,
      "అభ్యసనను": 5816,
      "అడ్డంకులను": 5817,
      "స్టోరేజ్": 5818,
      "నైపుణ్యం": 5819,
      "అడగవచ్చా": 5820,
      "సంతోషిస్తున్నాము": 5821,
      "దోహదం": 5822,
      "క్రీడలలో": 5823,
      "వాస్తవిక": 5824,
      "కాన్ఫిడెన్స్": 5825,
      "బాధ్యతాయుతంగా": 5826,
      "క్రిప్టోగ్రఫీ": 5827,
      "క్లాసిక్": 5828,
      "నేపథ్యంలో": 5829,
      "జ్ఞాపకశక్తి": 5830,
      "ఆహ్లాదకరంగా": 5831,
      "ఇచ్చాను": 5832,
      "గర్వపడుతున్నాను": 5833,
      "నిద్రపోలేదు": 5834,
      "కేలరీలు": 5835,
      "ధూమపానం": 5836,
      "సరీసృపాలు": 5837,
      "ఆవశ్యక": 5838,
      "ఆసుపత్రిలో": 5839,
      "వన్యప్రాణు": 5840,
      "విమానాశ్రయంలో": 5841,
      "వాషింగ్టన్": 5842,
      "యాంటీఆక్సిడెంట్లు": 5843,
      "స్వయంచాలకంగా": 5844,
      "అటవీ": 5845,
      "అబద్దం": 5846,
      "అయుతయ": 5847,
      "అసాధ్యం": 5848,
      "అబ్బా": 5849,
      "అంటున్నారు": 5850,
      "ఆథెంటి": 5851,
      "ఆండ్రాయిడ్": 5852,
      "ఆస్ట్రే": 5853,
      "ఆధిప": 5854,
      "ఆకాంక్ష": 5855,
      "ఆచరణాత్మక": 5856,
      "ఇసుక": 5857,
      "ఇయాన్": 5858,
      "ఉద్యమం": 5859,
      "ఉడకబెట్టిన": 5860,
      "ఊబకాయం": 5861,
      "ఊపిరితి": 5862,
      "ఎబిసి": 5863,
      "ఎండెడ్": 5864,
      "ఏకాభిప్రా": 5865,
      "ఐఒటి": 5866,
      "ఐచ్ఛికం": 5867,
      "ఓదార్పు": 5868,
      "కవరే": 5869,
      "కరిగిపో": 5870,
      "కదలడానికి": 5871,
      "చతురస్రా": 5872,
      "చౌకగా": 5873,
      "జలుబు": 5874,
      "ట్యూబ్": 5875,
      "తదనుగుణంగా": 5876,
      "దరఖాస్తు": 5877,
      "దశాబ్": 5878,
      "నమోదు": 5879,
      "బదిలీ": 5880,
      "బానిస": 5881,
      "భవనం": 5882,
      "మనుగడ": 5883,
      "యవ్వనంగా": 5884,
      "శరణార్థ": 5885,
      "సాల్వింగ్": 5886,
      "సత్యమా": 5887,
      "సస్పెన్షన్": 5888,
      "సమ్మిళిత": 5889,
      "నిరంకుశత్వం": 5890,
      "రిమైండర్లను": 5891,
      "రిటైల్": 5892,
      "స్లైడ్": 5893,
      "క్రోడీ": 5894,
      "కుంటూ": 5895,
      "ట్రైలర్": 5896,
      "డివిడెండ్": 5897,
      "డిపాజిట్": 5898,
      "డిస్ట్రిబ్యూటెడ్": 5899,
      "ప్రగతిశీల": 5900,
      "విరమణ": 5901,
      "విమర్శనాత్మక": 5902,
      "వినాలనుకుంటున్నారా": 5903,
      "వింటున్నారా": 5904,
      "ించబడిందని": 5905,
      "వాణిజ": 5906,
      "తిన్నారా": 5907,
      "తిరోగమనం": 5908,
      "తిరస్కరించాడు": 5909,
      "మారాయి": 5910,
      "ద్వేషి": 5911,
      "దాదాపు": 5912,
      "కామర్స్": 5913,
      "సంకోచ": 5914,
      "డ్రాగన్": 5915,
      "డ్రగ్స్": 5916,
      "గురుత్వాకర్షణ": 5917,
      "సాపేక్షత": 5918,
      "సిరీస్": 5919,
      "సినిమాలో": 5920,
      "పాంథియోన్": 5921,
      "చిటికెడు": 5922,
      "చింతిస్తున్నాను": 5923,
      "మిశ్రమాన్ని": 5924,
      "మినహాయింపులు": 5925,
      "మెట్రిక్": 5926,
      "పెంపకం": 5927,
      "ప్రాపంచిక": 5928,
      "ప్రాబ్లమ్": 5929,
      "కేవలం": 5930,
      "వెలువడే": 5931,
      "వెతుకుతున్నదాన్ని": 5932,
      "నెంబరు": 5933,
      "నెగెటివ్స్": 5934,
      "యూరోపియన్": 5935,
      "వైర్లెస్": 5936,
      "ఫిర్యాదు": 5937,
      "వీలైనంత": 5938,
      "పేలవమైన": 5939,
      "పేరాగ్రాఫ్": 5940,
      "తెలుసుకున్నప్పుడు": 5941,
      "హిస్టారికల్": 5942,
      "హిమానీనదాలు": 5943,
      "ఫార్మాలిటీ": 5944,
      "సోస్పియర్": 5945,
      "డెజర్ట్": 5946,
      "నాలెడ్జ్": 5947,
      "ఇన్ఫెక్షన్": 5948,
      "గ్రాన్యులేటెడ్": 5949,
      "ఖచ్చితత్వాన్ని": 5950,
      "ప్లాస్టిక్": 5951,
      "ప్లాట్ఫామ్": 5952,
      "స్వాధీనం": 5953,
      "భూగర్భ": 5954,
      "తొమ్మిది": 5955,
      "పదజాలం": 5956,
      "మార్గదర్శకత్వం": 5957,
      "కాంపోనెంట్": 5958,
      "ఎలక్ట్రానిక్": 5959,
      "ఎక్స్పీరియన్స్": 5960,
      "డిస్కౌంట్": 5961,
      "బ్రెగ్జిట్": 5962,
      "తరంగదైర్ఘ్యాలు": 5963,
      "ఆయుర్దాయం": 5964,
      "జియోథర్మల్": 5965,
      "ఆథెంటికేషన్": 5966
    },
    "merges": [
      [
        "న",
        "ి"
      ],
      [
        "ర",
        "ి"
      ],
      [
        "న",
        "ు"
      ],
      [
        "ర",
        "్"
      ],
      [
        "స",
        "్"
      ],
      [
        "న",
        "్"
      ],
      [
        "క",
        "్"
      ],
      [
        "ప",
        "్"
      ],
      [
        "ం",
        "చ"
      ],
      [
        "ా",
        "ల"
      ],
      [
        "ద",
        "ి"
      ],
      [
        "క",
        "ు"
      ],
      [
        "య",
        "ు"
      ],
      [
        "మ",
        "రి"
      ],
      [
        "ర",
        "ు"
      ],
      [
        "్",
        "య"
      ],
      [
        "మరి",
        "యు"
      ],
      [
        "ట",
        "్"
      ],
      [
        "డ",
        "ి"
      ],
      [
        "ప్",
        "ర"
      ],
      [
        "క",
        "ి"
      ],
      [
        "ల",
        "ు"
      ],
      [
        "త",
        "ు"
      ],
      [
        "ం",
        "ది"
      ],
      [
        "గ",
        "ా"
      ],
      [
        "వ",
        "ి"
      ],
      [
        "ి",
        "ంచ"
      ],
      [
        "న",
        "ా"
      ],
      [
        "ల",
        "ో"
      ],
      [
        "ా",
        "ని"
      ],
      [
        "చ",
        "ే"
      ],
      [
        "త",
        "్"
      ],
      [
        "వ",
        "ా"
      ],
      [
        "త",
        "ి"
      ],
      [
        "ాని",
        "కి"
      ],
      [
        "ల",
        "్"
      ],
      [
        "మ",
        "ీ"
      ],
      [
        "ం",
        "ట"
      ],
      [
        "మ",
        "ా"
      ],
      [
        "ం",
        "డి"
      ],
      [
        "మ",
        "్"
      ],
      [
        "డ",
        "ు"
      ],
      [
        "ద",
        "్"
      ],
      [
        "ట",
        "ా"
      ],
      [
        "న",
        "ే"
      ],
      [
        "ర",
        "ా"
      ],
      [
        "డ",
        "ానికి"
      ],
      [
        "ద",
        "ా"
      ],
      [
        "గ",
        "్"
      ],
      [
        "ప",
        "ు"
      ],
      [
        "క",
        "ా"
      ],
      [
        "డ",
        "ం"
      ],
      [
        "ల",
        "ే"
      ],
      [
        "న్",
        "ని"
      ],
      [
        "ద",
        "ు"
      ],
      [
        "ట",
        "ి"
      ],
      [
        "త",
        "ా"
      ],
      [
        "ై",
        "న"
      ],
      [
        "య",
        "ి"
      ],
      [
        "ల",
        "ి"
      ],
      [
        "స",
        "ం"
      ],
      [
        "క",
        "ో"
      ],
      [
        "చ",
        "్"
      ],
      [
        "ం",
        "గా"
      ],
      [
        "చే",
        "య"
      ],
      [
        "డ",
        "్"
      ],
      [
        "గ",
        "ు"
      ],
      [
        "న్",
        "నా"
      ],
      [
        "స్",
        "తు"
      ],
      [
        "ం",
        "త"
      ],
      [
        "ల",
        "ను"
      ],
      [
        "స",
        "ా"
      ],
      [
        "ాల",
        "ు"
      ],
      [
        "స",
        "ు"
      ],
      [
        "క్",
        "క"
      ],
      [
        "టా",
        "మ్"
      ],
      [
        "చ",
        "ు"
      ],
      [
        "మ",
        "ైన"
      ],
      [
        "స",
        "ి"
      ],
      [
        "ప",
        "ా"
      ],
      [
        "ష",
        "్"
      ],
      [
        "య",
        "ో"
      ],
      [
        "ాల",
        "ను"
      ],
      [
        "క్",
        "ష"
      ],
      [
        "మ",
        "ు"
      ],
      [
        "రి",
        "ంచ"
      ],
      [
        "ర",
        "ణ"
      ],
      [
        "వ",
        "్య"
      ],
      [
        "య",
        "ా"
      ],
      [
        "ల",
        "ా"
      ],
      [
        "ర",
        "ం"
      ],
      [
        "ర",
        "ీ"
      ],
      [
        "నే",
        "ను"
      ],
      [
        "చ",
        "ి"
      ],
      [
        "వ",
        "చ్"
      ],
      [
        "గ",
        "ి"
      ],
      [
        "వ",
        "ే"
      ],
      [
        "క",
        "ొ"
      ],
      [
        "ఒ",
        "క"
      ],
      [
        "మ",
        "ి"
      ],
      [
        "మ",
        "ె"
      ],
      [
        "ప",
        "ె"
      ],
      [
        "త",
        "ో"
      ],
      [
        "య",
        "ం"
      ],
      [
        "న్",
        "న"
      ],
      [
        "మీ",
        "రు"
      ],
      [
        "ర",
        "ో"
      ],
      [
        "మ",
        "ే"
      ],
      [
        "లే",
        "దా"
      ],
      [
        "ం",
        "ద"
      ],
      [
        "ఇ",
        "ది"
      ],
      [
        "ొ",
        "క్క"
      ],
      [
        "ప",
        "రి"
      ],
      [
        "హ",
        "ా"
      ],
      [
        "ం",
        "గ్"
      ],
      [
        "భ",
        "ా"
      ],
      [
        "య",
        "ొక్క"
      ],
      [
        "ష్",
        "ట"
      ],
      [
        "యో",
        "గ"
      ],
      [
        "ధ",
        "ా"
      ],
      [
        "చ",
        "ె"
      ],
      [
        "స్తు",
        "ంది"
      ],
      [
        "అ",
        "ను"
      ],
      [
        "త",
        "ీ"
      ],
      [
        "ప",
        "ి"
      ],
      [
        "వ",
        "ు"
      ],
      [
        "ప్ర",
        "ా"
      ],
      [
        "ం",
        "డ"
      ],
      [
        "ప",
        "ో"
      ],
      [
        "వచ్",
        "చు"
      ],
      [
        "ని",
        "ర్"
      ],
      [
        "స్",
        "తా"
      ],
      [
        "్య",
        "ా"
      ],
      [
        "ర్",
        "థ"
      ],
      [
        "క",
        "ే"
      ],
      [
        "స్",
        "థ"
      ],
      [
        "?",
        "."
      ],
      [
        "బ",
        "్"
      ],
      [
        "ఉ",
        "ప"
      ],
      [
        "ట",
        "ు"
      ],
      [
        "ం",
        "దు"
      ],
      [
        "శ",
        "్"
      ],
      [
        "స",
        "మ"
      ],
      [
        "వ",
        "ర్"
      ],
      [
        "ంట",
        "ి"
      ],
      [
        "వ",
        "ె"
      ],
      [
        "మా",
        "ర్"
      ],
      [
        "తు",
        "ంది"
      ],
      [
        "ప్",
        "పు"
      ],
      [
        "న",
        "ీ"
      ],
      [
        "ించ",
        "డానికి"
      ],
      [
        "ద్",
        "ధ"
      ],
      [
        "డ",
        "ే"
      ],
      [
        "క్",
        "తి"
      ],
      [
        "ంట",
        "ు"
      ],
      [
        "క",
        "ూ"
      ],
      [
        "ర",
        "ె"
      ],
      [
        "వ",
        "్"
      ],
      [
        "త్",
        "త"
      ],
      [
        "ం",
        "లో"
      ],
      [
        "ల",
        "కు"
      ],
      [
        "స",
        "హా"
      ],
      [
        "ం",
        "ట్"
      ],
      [
        "క",
        "లి"
      ],
      [
        "అ",
        "వ"
      ],
      [
        "స్",
        "ట"
      ],
      [
        "డ",
        "ా"
      ],
      [
        "ళ",
        "్"
      ],
      [
        "ప్",
        "ప"
      ],
      [
        "జ",
        "ీ"
      ],
      [
        "ప",
        "ై"
      ],
      [
        "ాల",
        "ి"
      ],
      [
        "ఉప",
        "యోగ"
      ],
      [
        "ర",
        "ే"
      ],
      [
        "చ",
        "ూ"
      ],
      [
        "న",
        "ం"
      ],
      [
        "చ",
        "ా"
      ],
      [
        "త",
        "ె"
      ],
      [
        "ాల",
        "ా"
      ],
      [
        "ించ",
        "డం"
      ],
      [
        "కో",
        "వ"
      ],
      [
        "ఉ",
        "న్నా"
      ],
      [
        "ప",
        "ొ"
      ],
      [
        "ష",
        "న్"
      ],
      [
        "వా",
        "రా"
      ],
      [
        "స",
        "ె"
      ],
      [
        "స",
        "ే"
      ],
      [
        "ద్",
        "వారా"
      ],
      [
        "ఫ",
        "్"
      ],
      [
        "శ",
        "ా"
      ],
      [
        "జ",
        "ి"
      ],
      [
        "ించ",
        "ండి"
      ],
      [
        "ద్",
        "ద"
      ],
      [
        "అ",
        "నే"
      ],
      [
        "చ",
        "ాలా"
      ],
      [
        "రు",
        "గు"
      ],
      [
        "డే",
        "టా"
      ],
      [
        "క",
        "రించ"
      ],
      [
        "ర",
        "ూ"
      ],
      [
        "ల్",
        "ల"
      ],
      [
        "అ",
        "త"
      ],
      [
        "త్",
        "ర"
      ],
      [
        "ఉ",
        "ండ"
      ],
      [
        "జ",
        "ా"
      ],
      [
        "బ",
        "ా"
      ],
      [
        "ర్",
        "య"
      ],
      [
        "న",
        "ె"
      ],
      [
        "మ",
        "ొ"
      ],
      [
        "ంట",
        "ే"
      ],
      [
        "త",
        "న"
      ],
      [
        "క",
        "ం"
      ],
      [
        "క",
        "ీ"
      ],
      [
        "వా",
        "రి"
      ],
      [
        "ం",
        "ధ"
      ],
      [
        "ను",
        "ండి"
      ],
      [
        "క్",
        "కు"
      ],
      [
        "నా",
        "కు"
      ],
      [
        "య",
        "ూ"
      ],
      [
        "ట",
        "ీ"
      ],
      [
        "ద",
        "ే"
      ],
      [
        "అ",
        "భ"
      ],
      [
        "ధ",
        "్య"
      ],
      [
        "ించ",
        "ి"
      ],
      [
        "కలి",
        "గి"
      ],
      [
        "మ",
        "ూ"
      ],
      [
        "చేయ",
        "డానికి"
      ],
      [
        "త",
        "ే"
      ],
      [
        "బ",
        "ి"
      ],
      [
        "స",
        "ర"
      ],
      [
        "క",
        "ె"
      ],
      [
        "గ",
        "ల"
      ],
      [
        "వ",
        "ంటి"
      ],
      [
        "ప్ర",
        "తి"
      ],
      [
        "బ",
        "డి"
      ],
      [
        "య",
        "ప"
      ],
      [
        "మీ",
        "కు"
      ],
      [
        "తీ",
        "సు"
      ],
      [
        "ం",
        "డ్"
      ],
      [
        "జ",
        "్"
      ],
      [
        "ప",
        "ని"
      ],
      [
        "ప్పు",
        "డు"
      ],
      [
        "వ",
        "ంత"
      ],
      [
        "స",
        "ృ"
      ],
      [
        "ము",
        "ఖ"
      ],
      [
        "వ",
        "రణ"
      ],
      [
        "స",
        "మా"
      ],
      [
        "ి",
        "క"
      ],
      [
        "ంది",
        "ంచ"
      ],
      [
        "లే",
        "దు"
      ],
      [
        "ట",
        "ె"
      ],
      [
        "ట",
        "ర్"
      ],
      [
        "వ",
        "ై"
      ],
      [
        "స",
        "ూ"
      ],
      [
        "క్కు",
        "వ"
      ],
      [
        "ించ",
        "ే"
      ],
      [
        "న్నా",
        "ను"
      ],
      [
        "త",
        "ర"
      ],
      [
        "ద",
        "ీ"
      ],
      [
        "ట్",
        "టు"
      ],
      [
        "వి",
        "ని"
      ],
      [
        "కో",
        "సం"
      ],
      [
        "ఉ",
        "ంది"
      ],
      [
        "వ",
        "ృ"
      ],
      [
        "క్ష",
        "ణ"
      ],
      [
        "సహా",
        "యప"
      ],
      [
        "స్",
        "త"
      ],
      [
        "డు",
        "తుంది"
      ],
      [
        "క్క",
        "డ"
      ],
      [
        "రించ",
        "ి"
      ],
      [
        "బ",
        "ంధ"
      ],
      [
        "స",
        "ై"
      ],
      [
        "్య",
        "ూ"
      ],
      [
        "క",
        "ాల"
      ],
      [
        "వ",
        "న"
      ],
      [
        "క్",
        "రి"
      ],
      [
        "్య",
        "ం"
      ],
      [
        "ట్",
        "ట"
      ],
      [
        "త్",
        "తి"
      ],
      [
        "చేయ",
        "డం"
      ],
      [
        "స",
        "హ"
      ],
      [
        "ంట",
        "ా"
      ],
      [
        "చేయ",
        "ండి"
      ],
      [
        "త",
        "గ్"
      ],
      [
        "ర్",
        "చు"
      ],
      [
        "ంచ",
        "ు"
      ],
      [
        "తి",
        "క"
      ],
      [
        "దా",
        "రు"
      ],
      [
        "అభ",
        "ి"
      ],
      [
        "జ",
        "ు"
      ],
      [
        "బ",
        "ో"
      ],
      [
        "ర",
        "మ"
      ],
      [
        "కు",
        "ంటు"
      ],
      [
        "ద్ధ",
        "ి"
      ],
      [
        "ఉ",
        "న్న"
      ],
      [
        "గ",
        "ొ"
      ],
      [
        "ఫ",
        "ి"
      ],
      [
        "వ",
        "ీ"
      ],
      [
        "శ",
        "క్తి"
      ],
      [
        "ష",
        "ి"
      ],
      [
        "విని",
        "యోగ"
      ],
      [
        "ద",
        "ాని"
      ],
      [
        "గు",
        "రించి"
      ],
      [
        "వ్య",
        "ా"
      ],
      [
        "ఉ",
        "ంటు"
      ],
      [
        "ఎ",
        "ందు"
      ],
      [
        "ర",
        "మైన"
      ],
      [
        "వ",
        "ం"
      ],
      [
        "వ",
        "హ"
      ],
      [
        "ప్ర",
        "భా"
      ],
      [
        "రా",
        "న్ని"
      ],
      [
        "వ్య",
        "క్తి"
      ],
      [
        "గ",
        "ో"
      ],
      [
        "ప",
        "ే"
      ],
      [
        "వ",
        "ర"
      ],
      [
        "ై",
        "నా"
      ],
      [
        "మ్",
        "మ"
      ],
      [
        "రో",
        "గ"
      ],
      [
        "కూ",
        "డా"
      ],
      [
        "త",
        "ంగా"
      ],
      [
        "మరి",
        "ంత"
      ],
      [
        "మే",
        "ము"
      ],
      [
        "ఉన్నా",
        "యి"
      ],
      [
        "సృ",
        "ష్ట"
      ],
      [
        "ఏ",
        "మి"
      ],
      [
        "సి",
        "న"
      ],
      [
        "వ్",
        "వ"
      ],
      [
        "ఉంటు",
        "ంది"
      ],
      [
        "అ",
        "ం"
      ],
      [
        "ఉ",
        "త్"
      ],
      [
        "బ",
        "ు"
      ],
      [
        "ల",
        "ై"
      ],
      [
        "కో",
        "ండి"
      ],
      [
        "ఇ",
        "క్కడ"
      ],
      [
        "ాల",
        "్"
      ],
      [
        "వి",
        "ధ"
      ],
      [
        "ించ",
        "వచ్చు"
      ],
      [
        "టి",
        "ంగ్"
      ],
      [
        "గు",
        "ర్"
      ],
      [
        "ంద",
        "ని"
      ],
      [
        "వృ",
        "ద్ధి"
      ],
      [
        "స్",
        "ట్"
      ],
      [
        "సా",
        "ం"
      ],
      [
        "కొ",
        "న్ని"
      ],
      [
        "స్తా",
        "యి"
      ],
      [
        "ళ్",
        "ళ"
      ],
      [
        "*",
        "*"
      ],
      [
        "మ",
        "ో"
      ],
      [
        "ల",
        "తో"
      ],
      [
        "తు",
        "లు"
      ],
      [
        "సం",
        "బంధ"
      ],
      [
        "వ్య",
        "వ"
      ],
      [
        "మే",
        "రీ"
      ],
      [
        "ఆ",
        "ధా"
      ],
      [
        "ఎ",
        "లా"
      ],
      [
        "ద",
        "ృ"
      ],
      [
        "ర",
        "ంగా"
      ],
      [
        "స్",
        "ప"
      ],
      [
        "వా",
        "రు"
      ],
      [
        "వా",
        "టి"
      ],
      [
        "ద్",
        "ర"
      ],
      [
        "కా",
        "ర్"
      ],
      [
        "తె",
        "లు"
      ],
      [
        "మొ",
        "త్త"
      ],
      [
        "_",
        "_"
      ],
      [
        "క",
        "ృ"
      ],
      [
        "జ",
        "న"
      ],
      [
        "ద",
        "్య"
      ],
      [
        "ల",
        "భ"
      ],
      [
        "స్థ",
        "ి"
      ],
      [
        "కోవ",
        "డానికి"
      ],
      [
        "వినియోగ",
        "దారు"
      ],
      [
        "ణ",
        "ా"
      ],
      [
        "మ",
        "ర్"
      ],
      [
        "ల",
        "ె"
      ],
      [
        "రి",
        "గి"
      ],
      [
        "న్",
        "ను"
      ],
      [
        "వా",
        "తా"
      ],
      [
        "గ్",
        "ర"
      ],
      [
        "అను",
        "మ"
      ],
      [
        "దే",
        "శ"
      ],
      [
        "అభి",
        "వృద్ధి"
      ],
      [
        "వాతా",
        "వరణ"
      ],
      [
        "ఇ",
        "ంట"
      ],
      [
        "ఉ",
        "ంటా"
      ],
      [
        "గ",
        "ే"
      ],
      [
        "న్",
        "స్"
      ],
      [
        "చే",
        "సే"
      ],
      [
        "లి",
        "య"
      ],
      [
        "స్తు",
        "న్నా"
      ],
      [
        "టామ్",
        "‌"
      ],
      [
        "సమ",
        "యం"
      ],
      [
        "అత",
        "ను"
      ],
      [
        "వ్యవ",
        "స్థ"
      ],
      [
        "ఆ",
        "మె"
      ],
      [
        "ఇ",
        "వ్వ"
      ],
      [
        "ప",
        "ూ"
      ],
      [
        "మ",
        "ై"
      ],
      [
        "మ",
        "ధ్య"
      ],
      [
        "శ",
        "ి"
      ],
      [
        "ంచ",
        "ి"
      ],
      [
        "చ్",
        "చి"
      ],
      [
        "అవ",
        "స"
      ],
      [
        "అనే",
        "క"
      ],
      [
        "ం",
        "డు"
      ],
      [
        "గ",
        "ణ"
      ],
      [
        "ప",
        "ర్"
      ],
      [
        "క్",
        "ట్"
      ],
      [
        "ప్ర",
        "ో"
      ],
      [
        "వి",
        "శ్"
      ],
      [
        "తా",
        "యి"
      ],
      [
        "రో",
        "జు"
      ],
      [
        "ధా",
        "రణ"
      ],
      [
        "తగ్",
        "గ"
      ],
      [
        "ఎందు",
        "కు"
      ],
      [
        "తెలు",
        "సు"
      ],
      [
        "ఆ",
        "రోగ"
      ],
      [
        "ప",
        "త్తి"
      ],
      [
        "మ",
        "్యూ"
      ],
      [
        "ష",
        "ణ"
      ],
      [
        "ాల",
        "ో"
      ],
      [
        "ాల",
        "కు"
      ],
      [
        "ించ",
        "ా"
      ],
      [
        "సా",
        "ధారణ"
      ],
      [
        "కొ",
        "త్త"
      ],
      [
        "చె",
        "ప్"
      ],
      [
        "నిర్",
        "వహ"
      ],
      [
        "స్తా",
        "రు"
      ],
      [
        "ముఖ",
        "్య"
      ],
      [
        "ం",
        "పు"
      ],
      [
        "ఎ",
        "క్కువ"
      ],
      [
        "క",
        "ను"
      ],
      [
        "త",
        "ం"
      ],
      [
        "త",
        "ను"
      ],
      [
        "మ",
        "న"
      ],
      [
        "ల",
        "ీ"
      ],
      [
        "క్",
        "స్"
      ],
      [
        "క్",
        "రమ"
      ],
      [
        "ట్",
        "లు"
      ],
      [
        "ట్",
        "టి"
      ],
      [
        "వే",
        "ర్"
      ],
      [
        "కే",
        "షన్"
      ],
      [
        "సహాయప",
        "డుతుంది"
      ],
      [
        "ం",
        "దా"
      ],
      [
        "అ",
        "ని"
      ],
      [
        "క",
        "ర్"
      ],
      [
        "క",
        "ంటే"
      ],
      [
        "గ",
        "ం"
      ],
      [
        "ట",
        "ో"
      ],
      [
        "చె",
        "ప్ప"
      ],
      [
        "వంత",
        "మైన"
      ],
      [
        "మొత్త",
        "ం"
      ],
      [
        ":",
        "."
      ],
      [
        "అ",
        "ంత"
      ],
      [
        "త",
        "మైన"
      ],
      [
        "న",
        "ాలు"
      ],
      [
        "ప",
        "ర"
      ],
      [
        "ర",
        "క్ష"
      ],
      [
        "ల",
        "క్ష"
      ],
      [
        "హ",
        "ి"
      ],
      [
        "ాల",
        "ని"
      ],
      [
        "కు",
        "ండ"
      ],
      [
        "తు",
        "ల"
      ],
      [
        "వా",
        "న్ని"
      ],
      [
        "సు",
        "లభ"
      ],
      [
        "అనే",
        "ది"
      ],
      [
        "సమా",
        "చా"
      ],
      [
        "సాం",
        "కే"
      ],
      [
        "అ",
        "లా"
      ],
      [
        "ఇ",
        "ం"
      ],
      [
        "చ",
        "ర్య"
      ],
      [
        "భ",
        "ు"
      ],
      [
        "త్",
        "రి"
      ],
      [
        "మార్",
        "కె"
      ],
      [
        "రె",
        "ండు"
      ],
      [
        "ించి",
        "న"
      ],
      [
        "పూ",
        "ర్"
      ],
      [
        "సాంకే",
        "తిక"
      ],
      [
        "ఖ",
        "ర్చు"
      ],
      [
        "జ",
        "ె"
      ],
      [
        "న",
        "ై"
      ],
      [
        "ఫ",
        "ా"
      ],
      [
        "వ",
        "ల్ల"
      ],
      [
        "ు",
        "లు"
      ],
      [
        "ప్ర",
        "యో"
      ],
      [
        "సా",
        "మ"
      ],
      [
        "మె",
        "రుగు"
      ],
      [
        "తె",
        "లియ"
      ],
      [
        "అ",
        "ంది"
      ],
      [
        "అ",
        "ందించ"
      ],
      [
        "ఆ",
        "ర్"
      ],
      [
        "స",
        "ో"
      ],
      [
        "న్",
        "య"
      ],
      [
        "ప్ర",
        "ే"
      ],
      [
        "పా",
        "ద"
      ],
      [
        "రం",
        "భ"
      ],
      [
        "అను",
        "భ"
      ],
      [
        "ప్రా",
        "రంభ"
      ],
      [
        "కోవ",
        "డం"
      ],
      [
        "ఫ్",
        "ట్"
      ],
      [
        "క",
        "మ్యూ"
      ],
      [
        "జ",
        "ం"
      ],
      [
        "డ",
        "ె"
      ],
      [
        "త",
        "క్కువ"
      ],
      [
        "ల",
        "లో"
      ],
      [
        "ర్",
        "చ"
      ],
      [
        "ప్",
        "యూ"
      ],
      [
        "ది",
        "ంచ"
      ],
      [
        "వె",
        "బ్"
      ],
      [
        "కం",
        "ప్యూ"
      ],
      [
        "తీసు",
        "కు"
      ],
      [
        "టె",
        "క్"
      ],
      [
        "అవస",
        "రం"
      ],
      [
        "ఆరోగ",
        "్య"
      ],
      [
        "కను",
        "గొ"
      ],
      [
        "లక్ష",
        "్య"
      ],
      [
        "కుండ",
        "ా"
      ],
      [
        "సామ",
        "ర్థ"
      ],
      [
        "కమ్యూ",
        "ని"
      ],
      [
        "క",
        "ల్"
      ],
      [
        "క",
        "స్ట"
      ],
      [
        "క",
        "రమైన"
      ],
      [
        "గ",
        "త"
      ],
      [
        "ఫ",
        "ో"
      ],
      [
        "మ",
        "క"
      ],
      [
        "మ",
        "ని"
      ],
      [
        "ర",
        "ాలు"
      ],
      [
        "చే",
        "సు"
      ],
      [
        "కా",
        "దు"
      ],
      [
        "ంత",
        "ో"
      ],
      [
        "వు",
        "లు"
      ],
      [
        "పొ",
        "ందించ"
      ],
      [
        "డేటా",
        "ను"
      ],
      [
        "దీ",
        "ని"
      ],
      [
        "కుంటు",
        "న్నా"
      ],
      [
        "ఉత్",
        "పత్తి"
      ],
      [
        "గుర్",
        "త"
      ],
      [
        "అనుమ",
        "తి"
      ],
      [
        "చెప్",
        "పా"
      ],
      [
        "ఇ",
        "తర"
      ],
      [
        "డ",
        "ని"
      ],
      [
        "త",
        "రు"
      ],
      [
        "ధ",
        "ి"
      ],
      [
        "న",
        "ాల"
      ],
      [
        "మ",
        "ంది"
      ],
      [
        "య",
        "త్"
      ],
      [
        "ప్ర",
        "త"
      ],
      [
        "వి",
        "వ"
      ],
      [
        "వి",
        "విధ"
      ],
      [
        "నా",
        "న్ని"
      ],
      [
        "వే",
        "గ"
      ],
      [
        "పె",
        "ద్ద"
      ],
      [
        "స్థ",
        "ా"
      ],
      [
        "ప్పు",
        "డ"
      ],
      [
        "అత",
        "ని"
      ],
      [
        "నె",
        "ట్"
      ],
      [
        "వన",
        "రు"
      ],
      [
        "కస్ట",
        "మర్"
      ],
      [
        "అ",
        "ర్థ"
      ],
      [
        "ఇ",
        "న్"
      ],
      [
        "ఏ",
        "ద"
      ],
      [
        "క",
        "రణ"
      ],
      [
        "చ",
        "న"
      ],
      [
        "డ",
        "ట"
      ],
      [
        "ద",
        "న"
      ],
      [
        "న",
        "మూ"
      ],
      [
        "య",
        "మైన"
      ],
      [
        "ాల",
        "లో"
      ],
      [
        "ప్ర",
        "యత్"
      ],
      [
        "లు",
        "వ"
      ],
      [
        "చే",
        "స్తుంది"
      ],
      [
        "త్",
        "మక"
      ],
      [
        "ల్",
        "ని"
      ],
      [
        "గ్",
        "రా"
      ],
      [
        "పు",
        "న"
      ],
      [
        "సా",
        "ఫ్ట్"
      ],
      [
        "రించ",
        "ండి"
      ],
      [
        "సహా",
        "యం"
      ],
      [
        "జ్",
        "ఞ"
      ],
      [
        "ఉంటా",
        "యి"
      ],
      [
        "అ",
        "ంద"
      ],
      [
        "క",
        "పో"
      ],
      [
        "వ",
        "ల"
      ],
      [
        "స",
        "ీ"
      ],
      [
        "హ",
        "రణ"
      ],
      [
        "స్",
        "య"
      ],
      [
        "తి",
        "ని"
      ],
      [
        "మా",
        "ణ"
      ],
      [
        "కా",
        "శ"
      ],
      [
        "కా",
        "రణ"
      ],
      [
        "రించ",
        "డానికి"
      ],
      [
        "యా",
        "క్"
      ],
      [
        "చి",
        "న్న"
      ],
      [
        "మార్",
        "పు"
      ],
      [
        "ళ్",
        "ల"
      ],
      [
        "ప్ప",
        "టి"
      ],
      [
        "సె",
        "స్"
      ],
      [
        "క్రి",
        "య"
      ],
      [
        "మ్మ",
        "ల్ని"
      ],
      [
        "ద్య",
        "ో"
      ],
      [
        "ప్రయో",
        "జన"
      ],
      [
        "ఆ",
        "ర్థ"
      ],
      [
        "ఉ",
        "దా"
      ],
      [
        "జ",
        "ే"
      ],
      [
        "ద",
        "్యా"
      ],
      [
        "ఫ",
        "ీ"
      ],
      [
        "బ",
        "డ"
      ],
      [
        "క్",
        "లి"
      ],
      [
        "ప్",
        "య"
      ],
      [
        "ది",
        "ష్ట"
      ],
      [
        "్య",
        "ే"
      ],
      [
        "వి",
        "స్త"
      ],
      [
        "ల్",
        "స్"
      ],
      [
        "మా",
        "న"
      ],
      [
        "సి",
        "స్ట"
      ],
      [
        "వచ్",
        "చా"
      ],
      [
        "మె",
        "ంట్"
      ],
      [
        "ష్ట",
        "మైన"
      ],
      [
        "నిర్",
        "ణ"
      ],
      [
        "నిర్",
        "దిష్ట"
      ],
      [
        "వర్",
        "క్"
      ],
      [
        "అవ",
        "సర"
      ],
      [
        "మొ",
        "ద"
      ],
      [
        "వ్యా",
        "పా"
      ],
      [
        "పర",
        "చ"
      ],
      [
        "జ్ఞ",
        "ా"
      ],
      [
        "ఆర్థ",
        "ిక"
      ],
      [
        "ఉదా",
        "హరణ"
      ],
      [
        "అ",
        "ది"
      ],
      [
        "అ",
        "వి"
      ],
      [
        "ఉ",
        "ంచ"
      ],
      [
        "ఎ",
        "వ"
      ],
      [
        "ద",
        "ర్"
      ],
      [
        "ప",
        "ంచ"
      ],
      [
        "స",
        "ౌ"
      ],
      [
        "స",
        "రి"
      ],
      [
        "స",
        "ర్"
      ],
      [
        "ూ",
        "హ"
      ],
      [
        "కు",
        "న్నా"
      ],
      [
        "ప్ర",
        "జ"
      ],
      [
        "చే",
        "సిన"
      ],
      [
        "చ్",
        "ఛ"
      ],
      [
        "వ్య",
        "క్"
      ],
      [
        "యా",
        "న్ని"
      ],
      [
        "మె",
        "యి"
      ],
      [
        "పె",
        "ంచ"
      ],
      [
        "పె",
        "ట్టు"
      ],
      [
        "ంద",
        "ో"
      ],
      [
        "పొ",
        "ంద"
      ],
      [
        "రూ",
        "పొందించ"
      ],
      [
        "బడి",
        "ంది"
      ],
      [
        "సై",
        "ట్"
      ],
      [
        "ఆధా",
        "రంగా"
      ],
      [
        "విశ్",
        "లే"
      ],
      [
        "అ",
        "యి"
      ],
      [
        "ఆ",
        "లో"
      ],
      [
        "ఆ",
        "దా"
      ],
      [
        "ఇ",
        "మెయి"
      ],
      [
        "ఎ",
        "ం"
      ],
      [
        "ఖ",
        "చ్చి"
      ],
      [
        "గ",
        "ీ"
      ],
      [
        "జ",
        "ర్"
      ],
      [
        "త",
        "ప్ప"
      ],
      [
        "మ",
        "రో"
      ],
      [
        "మ",
        "నం"
      ],
      [
        "ర",
        "ై"
      ],
      [
        "ర",
        "ాలను"
      ],
      [
        "వ",
        "త్"
      ],
      [
        "వ",
        "స్తు"
      ],
      [
        "ె",
        "ంట్"
      ],
      [
        "స్",
        "నే"
      ],
      [
        "వి",
        "ధా"
      ],
      [
        "వి",
        "ద్యా"
      ],
      [
        "లో",
        "కి"
      ],
      [
        "త్",
        "తు"
      ],
      [
        "సం",
        "వత్"
      ],
      [
        "చేయ",
        "వచ్చు"
      ],
      [
        "ష్",
        "టి"
      ],
      [
        "గి",
        "న"
      ],
      [
        "మి",
        "మ్మల్ని"
      ],
      [
        "పె",
        "రుగు"
      ],
      [
        "ప్రా",
        "ంత"
      ],
      [
        "నీ",
        "టి"
      ],
      [
        "జీ",
        "వి"
      ],
      [
        "జా",
        "బి"
      ],
      [
        "అం",
        "శ"
      ],
      [
        "కంప్యూ",
        "టర్"
      ],
      [
        "చెప్పా",
        "డు"
      ],
      [
        "అర్థ",
        "ం"
      ],
      [
        "ప్రయత్",
        "ని"
      ],
      [
        "అ",
        "ధ"
      ],
      [
        "ఉ",
        "ద్యో"
      ],
      [
        "క",
        "ల"
      ],
      [
        "త",
        "మ"
      ],
      [
        "మ",
        "ంచి"
      ],
      [
        "ర",
        "క్షణ"
      ],
      [
        "వ",
        "డం"
      ],
      [
        "హ",
        "ె"
      ],
      [
        "ి",
        "న"
      ],
      [
        "స్",
        "సు"
      ],
      [
        "ప్ర",
        "శ్"
      ],
      [
        "తు",
        "న్నా"
      ],
      [
        "చే",
        "స్తా"
      ],
      [
        "వా",
        "త"
      ],
      [
        "నే",
        "ర్చు"
      ],
      [
        "టి",
        "వ్"
      ],
      [
        "సం",
        "క్ష"
      ],
      [
        "సా",
        "ధ"
      ],
      [
        "పా",
        "త్ర"
      ],
      [
        "పరి",
        "ష్"
      ],
      [
        "ష్ట",
        "ం"
      ],
      [
        "సమ",
        "ర్థ"
      ],
      [
        "సమ",
        "స్య"
      ],
      [
        "కీ",
        "ల"
      ],
      [
        "వై",
        "పు"
      ],
      [
        "వర",
        "కు"
      ],
      [
        "__",
        "__"
      ],
      [
        "ప్రో",
        "త్"
      ],
      [
        "ముఖ్య",
        "మైన"
      ],
      [
        "మెరుగు",
        "పరచ"
      ],
      [
        "కనుగొ",
        "న"
      ],
      [
        "ప్పుడ",
        "ూ"
      ],
      [
        "ప్రశ్",
        "న"
      ],
      [
        "అ",
        "దన"
      ],
      [
        "ఎ",
        "ంచు"
      ],
      [
        "క",
        "ాలు"
      ],
      [
        "జ",
        "రుగు"
      ],
      [
        "ట",
        "ై"
      ],
      [
        "ప",
        "ద్ధ"
      ],
      [
        "ఫ",
        "ై"
      ],
      [
        "బ",
        "్యా"
      ],
      [
        "బ",
        "ట్టి"
      ],
      [
        "భ",
        "్"
      ],
      [
        "ప్",
        "లా"
      ],
      [
        "ట్",
        "లా"
      ],
      [
        "వి",
        "ష"
      ],
      [
        "వి",
        "లువ"
      ],
      [
        "మా",
        "ట్లా"
      ],
      [
        "రా",
        "ం"
      ],
      [
        "తా",
        "ను"
      ],
      [
        "సం",
        "భా"
      ],
      [
        "చు",
        "గా"
      ],
      [
        "వే",
        "య"
      ],
      [
        "కొ",
        "ంత"
      ],
      [
        "్యా",
        "న్ని"
      ],
      [
        "వె",
        "ళ్ళ"
      ],
      [
        "ఉపయోగ",
        "ించ"
      ],
      [
        "బడి",
        "న"
      ],
      [
        "తర",
        "చుగా"
      ],
      [
        "ఇంట",
        "ర్"
      ],
      [
        "తెలియ",
        "దు"
      ],
      [
        "పాద",
        "క"
      ],
      [
        "స్నే",
        "హి"
      ],
      [
        "ప్రోత్",
        "సహ"
      ],
      [
        "0",
        "0"
      ],
      [
        "అ",
        "ల్"
      ],
      [
        "ఎ",
        "ంత"
      ],
      [
        "క",
        "ని"
      ],
      [
        "ట",
        "ే"
      ],
      [
        "ద",
        "ల"
      ],
      [
        "ద",
        "శ"
      ],
      [
        "న",
        "ో"
      ],
      [
        "ర",
        "ని"
      ],
      [
        "వ",
        "ద్ద"
      ],
      [
        "స్",
        "టా"
      ],
      [
        "కు",
        "నే"
      ],
      [
        "ప్ర",
        "పంచ"
      ],
      [
        "తు",
        "న్న"
      ],
      [
        "తి",
        "రిగి"
      ],
      [
        "మీ",
        "ద"
      ],
      [
        "మా",
        "రు"
      ],
      [
        "దా",
        "రి"
      ],
      [
        "కా",
        "రం"
      ],
      [
        "తా",
        "రు"
      ],
      [
        "యం",
        "త్"
      ],
      [
        "ఉప",
        "యో"
      ],
      [
        "ించడం",
        "లో"
      ],
      [
        "సె",
        "ట్"
      ],
      [
        "మూ",
        "డు"
      ],
      [
        "సృష్ట",
        "ించండి"
      ],
      [
        "కార్",
        "బ"
      ],
      [
        "సాధారణ",
        "ంగా"
      ],
      [
        "కమ్యూని",
        "కేషన్"
      ],
      [
        "వివ",
        "రించండి"
      ],
      [
        "ఏద",
        "ైనా"
      ],
      [
        "పున",
        "రు"
      ],
      [
        "ఇమెయి",
        "ల్"
      ],
      [
        "అ",
        "న"
      ],
      [
        "ఆ",
        "కర్"
      ],
      [
        "ఇ",
        "ందు"
      ],
      [
        "ఇ",
        "ంటి"
      ],
      [
        "ట",
        "న"
      ],
      [
        "డ",
        "ీ"
      ],
      [
        "ద",
        "ం"
      ],
      [
        "న",
        "న్ను"
      ],
      [
        "ప",
        "రీ"
      ],
      [
        "ప",
        "ట్ట"
      ],
      [
        "బ",
        "ల"
      ],
      [
        "మ",
        "ర"
      ],
      [
        "శ",
        "ో"
      ],
      [
        "ా",
        "న్ని"
      ],
      [
        "స్",
        "క్"
      ],
      [
        "స్",
        "వా"
      ],
      [
        "ాల",
        "తో"
      ],
      [
        "కు",
        "న్న"
      ],
      [
        "ప్ర",
        "క్రియ"
      ],
      [
        "స్తు",
        "న్నాను"
      ],
      [
        "సా",
        "మా"
      ],
      [
        "మే",
        "ధ"
      ],
      [
        "పరి",
        "మి"
      ],
      [
        "నిర్",
        "ధా"
      ],
      [
        "అవ",
        "కాశ"
      ],
      [
        "ఉపయోగ",
        "ించడం"
      ],
      [
        "చూ",
        "డ"
      ],
      [
        "టె",
        "డ్"
      ],
      [
        "సూ",
        "చి"
      ],
      [
        "ఏమి",
        "టి"
      ],
      [
        "లై",
        "న్"
      ],
      [
        "నిర్వహ",
        "ించడానికి"
      ],
      [
        "అనుమతి",
        "స్తుంది"
      ],
      [
        "ప్రత",
        "్యే"
      ],
      [
        "నిర్ణ",
        "య"
      ],
      [
        "ఎం",
        "పి"
      ],
      [
        "కార్బ",
        "న్"
      ],
      [
        "ం",
        "ప"
      ],
      [
        "ం",
        "బ"
      ],
      [
        "అ",
        "ంచ"
      ],
      [
        "అ",
        "వు"
      ],
      [
        "ఇ",
        "ంధ"
      ],
      [
        "క",
        "థ"
      ],
      [
        "క",
        "ంట"
      ],
      [
        "ట",
        "ల్"
      ],
      [
        "డ",
        "బ్"
      ],
      [
        "ణ",
        "్య"
      ],
      [
        "త",
        "ల"
      ],
      [
        "త",
        "లు"
      ],
      [
        "త",
        "యా"
      ],
      [
        "ద",
        "ని"
      ],
      [
        "న",
        "గ"
      ],
      [
        "న",
        "ని"
      ],
      [
        "న",
        "ాలను"
      ],
      [
        "ప",
        "డ"
      ],
      [
        "బ",
        "హ"
      ],
      [
        "బ",
        "డ్"
      ],
      [
        "భ",
        "ూ"
      ],
      [
        "భ",
        "ద్ర"
      ],
      [
        "ర",
        "క"
      ],
      [
        "వ",
        "ల్"
      ],
      [
        "ై",
        "న్"
      ],
      [
        "ను",
        "గో"
      ],
      [
        "స్",
        "వ"
      ],
      [
        "కు",
        "లు"
      ],
      [
        "ట్",
        "ల"
      ],
      [
        "డి",
        "ని"
      ],
      [
        "గా",
        "న్ని"
      ],
      [
        "త్",
        "వం"
      ],
      [
        "పు",
        "స్త"
      ],
      [
        "కా",
        "వ"
      ],
      [
        "కా",
        "ర్య"
      ],
      [
        "చేయ",
        "గల"
      ],
      [
        "పా",
        "ర్"
      ],
      [
        "ము",
        "ందు"
      ],
      [
        "కొ",
        "నుగో"
      ],
      [
        "పరి",
        "క"
      ],
      [
        "పరి",
        "స్థి"
      ],
      [
        "పి",
        "ల్ల"
      ],
      [
        "కూ",
        "ల"
      ],
      [
        "ఉపయోగ",
        "ించే"
      ],
      [
        "ఉపయోగ",
        "ించవచ్చు"
      ],
      [
        "చూ",
        "పు"
      ],
      [
        "రూ",
        "ప"
      ],
      [
        "ఉండ",
        "వచ్చు"
      ],
      [
        "సహ",
        "జ"
      ],
      [
        "దాని",
        "ని"
      ],
      [
        "వ్యక్తి",
        "గత"
      ],
      [
        "సృష్ట",
        "ించడానికి"
      ],
      [
        "వాటి",
        "ని"
      ],
      [
        "కృ",
        "త్రి"
      ],
      [
        "టామ్‌",
        "ను"
      ],
      [
        "టామ్‌",
        "కు"
      ],
      [
        "గణ",
        "నీ"
      ],
      [
        "క్రమ",
        "ం"
      ],
      [
        "సమాచా",
        "రాన్ని"
      ],
      [
        "మార్కె",
        "టింగ్"
      ],
      [
        "పూర్",
        "తి"
      ],
      [
        "వెబ్",
        "సైట్"
      ],
      [
        "స్థా",
        "యి"
      ],
      [
        "ప్పటి",
        "కీ"
      ],
      [
        "సిస్ట",
        "మ్"
      ],
      [
        "మొద",
        "టి"
      ],
      [
        "సంవత్",
        "సర"
      ],
      [
        "కీల",
        "క"
      ],
      [
        "అదన",
        "ంగా"
      ],
      [
        "దారి",
        "తీ"
      ],
      [
        "ఉపయో",
        "గి"
      ],
      [
        "ఇందు",
        "లో"
      ],
      [
        "శో",
        "ధ"
      ],
      [
        "ప్రత్యే",
        "క"
      ],
      [
        "బహ",
        "ు"
      ],
      [
        "కృత్రి",
        "మ"
      ],
      [
        ":",
        "**"
      ],
      [
        "ఇ",
        "వి"
      ],
      [
        "ఉ",
        "ందని"
      ],
      [
        "జ",
        "నా"
      ],
      [
        "త",
        "ొ"
      ],
      [
        "త",
        "రం"
      ],
      [
        "ప",
        "ద"
      ],
      [
        "ర",
        "గ"
      ],
      [
        "ర",
        "కు"
      ],
      [
        "ల",
        "క్షణ"
      ],
      [
        "ి",
        "ప్"
      ],
      [
        "ి",
        "న్న"
      ],
      [
        "ని",
        "మ"
      ],
      [
        "ని",
        "ల్"
      ],
      [
        "రి",
        "థ"
      ],
      [
        "చే",
        "సి"
      ],
      [
        "చే",
        "శా"
      ],
      [
        "మీ",
        "డి"
      ],
      [
        "దా",
        "న్ని"
      ],
      [
        "పు",
        "ట్"
      ],
      [
        "కా",
        "ర"
      ],
      [
        "కా",
        "రు"
      ],
      [
        "కా",
        "నీ"
      ],
      [
        "డం",
        "లో"
      ],
      [
        "యి",
        "ంట్"
      ],
      [
        "సం",
        "రక్షణ"
      ],
      [
        "చ్",
        "చ"
      ],
      [
        "కొ",
        "న"
      ],
      [
        "పరి",
        "గణ"
      ],
      [
        "ధా",
        "న"
      ],
      [
        "అను",
        "కో"
      ],
      [
        "పో",
        "యా"
      ],
      [
        "నిర్",
        "మ"
      ],
      [
        "శ్",
        "రమ"
      ],
      [
        "వర్",
        "తన"
      ],
      [
        "కలి",
        "సి"
      ],
      [
        "స్ట",
        "ే"
      ],
      [
        "స్ట",
        "న్"
      ],
      [
        "కరించ",
        "డానికి"
      ],
      [
        "బా",
        "గా"
      ],
      [
        "బో",
        "స్టన్"
      ],
      [
        "కుంటు",
        "న్నాను"
      ],
      [
        "ప్రభా",
        "వాన్ని"
      ],
      [
        "వర",
        "గా"
      ],
      [
        "శి",
        "క్షణ"
      ],
      [
        "తగ్గ",
        "ించడానికి"
      ],
      [
        "నెట్",
        "వర్క్"
      ],
      [
        "సాఫ్ట్",
        "వేర్"
      ],
      [
        "సంక్ష",
        "ిప్"
      ],
      [
        "ఎంపి",
        "క"
      ],
      [
        "నిల్",
        "వ"
      ],
      [
        "అ",
        "న్ని"
      ],
      [
        "ఆ",
        "న్"
      ],
      [
        "ఆ",
        "హా"
      ],
      [
        "ఎ",
        "న్"
      ],
      [
        "ఎ",
        "దు"
      ],
      [
        "క",
        "ాలను"
      ],
      [
        "గ",
        "ె"
      ],
      [
        "జ",
        "న్"
      ],
      [
        "మ",
        "ం"
      ],
      [
        "మ",
        "ద్ద"
      ],
      [
        "ళ",
        "ా"
      ],
      [
        "ళ",
        "ిక"
      ],
      [
        "ష",
        "ా"
      ],
      [
        "ా",
        "డు"
      ],
      [
        "ని",
        "జ"
      ],
      [
        "రి",
        "క"
      ],
      [
        "రి",
        "త"
      ],
      [
        "రి",
        "య"
      ],
      [
        "క్",
        "ల"
      ],
      [
        "ప్",
        "రి"
      ],
      [
        "రు",
        "వు"
      ],
      [
        "ప్ర",
        "భు"
      ],
      [
        "ప్ర",
        "ధాన"
      ],
      [
        "తు",
        "లను"
      ],
      [
        "వి",
        "భ"
      ],
      [
        "ించ",
        "ు"
      ],
      [
        "వా",
        "స"
      ],
      [
        "వా",
        "ర్"
      ],
      [
        "పె",
        "ట్ట"
      ],
      [
        "భా",
        "గ"
      ],
      [
        "వర్",
        "డ్"
      ],
      [
        "జి",
        "క"
      ],
      [
        "ముఖ",
        "్యం"
      ],
      [
        "పర్",
        "యా"
      ],
      [
        "అంత",
        "ర్"
      ],
      [
        "సాంకేతిక",
        "త"
      ],
      [
        "అంది",
        "స్తుంది"
      ],
      [
        "జం",
        "తు"
      ],
      [
        "టెక్",
        "నాల"
      ],
      [
        "కుంటున్నా",
        "రా"
      ],
      [
        "డట",
        "ం"
      ],
      [
        "తప్ప",
        "కుండా"
      ],
      [
        "విద్యా",
        "ర్థ"
      ],
      [
        "జీవి",
        "త"
      ],
      [
        "పునరు",
        "త్"
      ],
      [
        "సామా",
        "జిక"
      ],
      [
        "మద్ద",
        "తు"
      ],
      [
        "టెక్నాల",
        "జీ"
      ],
      [
        ")",
        "."
      ],
      [
        "అ",
        "ప్"
      ],
      [
        "అ",
        "మె"
      ],
      [
        "అ",
        "ందు"
      ],
      [
        "ఇ",
        "ంట్"
      ],
      [
        "ఇ",
        "ప్పుడు"
      ],
      [
        "చ",
        "ర్"
      ],
      [
        "ప",
        "ీ"
      ],
      [
        "ప",
        "ను"
      ],
      [
        "బ",
        "ర్"
      ],
      [
        "బ",
        "ద్ధ"
      ],
      [
        "బ",
        "డుతుంది"
      ],
      [
        "య",
        "ండి"
      ],
      [
        "వ",
        "ో"
      ],
      [
        "శ",
        "ీ"
      ],
      [
        "శ",
        "రీ"
      ],
      [
        "హ",
        "ై"
      ],
      [
        "హ",
        "ో"
      ],
      [
        "ని",
        "ంగ్"
      ],
      [
        "ట్",
        "స్"
      ],
      [
        "డి",
        "జ"
      ],
      [
        "ప్ర",
        "చా"
      ],
      [
        "ప్ర",
        "దేశ"
      ],
      [
        "లు",
        "గా"
      ],
      [
        "తు",
        "న్నాను"
      ],
      [
        "వి",
        "ంచ"
      ],
      [
        "త్",
        "రం"
      ],
      [
        "మా",
        "కు"
      ],
      [
        "మా",
        "త్ర"
      ],
      [
        "ద్",
        "యు"
      ],
      [
        "సం",
        "ఖ"
      ],
      [
        "కో",
        "రు"
      ],
      [
        "సా",
        "ను"
      ],
      [
        "పా",
        "ఠ"
      ],
      [
        "రం",
        "గు"
      ],
      [
        "వచ్",
        "చే"
      ],
      [
        "మి",
        "క"
      ],
      [
        "మె",
        "షి"
      ],
      [
        "పె",
        "నీ"
      ],
      [
        "శ్",
        "రే"
      ],
      [
        "సమ",
        "ూహ"
      ],
      [
        "వర్",
        "గీ"
      ],
      [
        "మార్",
        "గ"
      ],
      [
        "శా",
        "స్"
      ],
      [
        "శా",
        "న్ని"
      ],
      [
        "కరించ",
        "ండి"
      ],
      [
        "కరించ",
        "డం"
      ],
      [
        "ఉండ",
        "ట"
      ],
      [
        "కం",
        "పెనీ"
      ],
      [
        "ించి",
        "ంది"
      ],
      [
        "వంత",
        "ంగా"
      ],
      [
        "ఎందు",
        "కంటే"
      ],
      [
        "ప్రభా",
        "వం"
      ],
      [
        "దృ",
        "ష్టి"
      ],
      [
        "ఇవ్వ",
        "ండి"
      ],
      [
        "సమాచా",
        "రం"
      ],
      [
        "ఇం",
        "కా"
      ],
      [
        "బడ",
        "తాయి"
      ],
      [
        "దర్",
        "శ"
      ],
      [
        "విశ్లే",
        "ష"
      ],
      [
        "అయి",
        "తే"
      ],
      [
        "వస్తు",
        "వు"
      ],
      [
        "ప్రయత్ని",
        "ంచ"
      ],
      [
        "మెరుగుపరచ",
        "డానికి"
      ],
      [
        "జరుగు",
        "తుంది"
      ],
      [
        "సూచి",
        "స్తుంది"
      ],
      [
        "కంట",
        "ెంట్"
      ],
      [
        "డబ్",
        "బు"
      ],
      [
        "కొనుగో",
        "లు"
      ],
      [
        "నిమ",
        "గ్"
      ],
      [
        "మీడి",
        "యా"
      ],
      [
        "పర్యా",
        "వరణ"
      ],
      [
        "పునరుత్",
        "పాదక"
      ],
      [
        "ఇంట్",
        "లో"
      ],
      [
        "మాత్ర",
        "మే"
      ],
      [
        "అ",
        "న్"
      ],
      [
        "ఆ",
        "స"
      ],
      [
        "ఆ",
        "ప్"
      ],
      [
        "ఇ",
        "తరు"
      ],
      [
        "ఉ",
        "ందా"
      ],
      [
        "ఎ",
        "స్"
      ],
      [
        "ఒ",
        "త్తి"
      ],
      [
        "క",
        "నె"
      ],
      [
        "జ",
        "ో"
      ],
      [
        "డ",
        "ో"
      ],
      [
        "ణ",
        "ి"
      ],
      [
        "ద",
        "య"
      ],
      [
        "న",
        "ను"
      ],
      [
        "ప",
        "డి"
      ],
      [
        "ప",
        "ర్య"
      ],
      [
        "ఫ",
        "ె"
      ],
      [
        "ఫ",
        "లి"
      ],
      [
        "బ",
        "య"
      ],
      [
        "బ",
        "ె"
      ],
      [
        "మ",
        "వు"
      ],
      [
        "య",
        "ంగా"
      ],
      [
        "ల",
        "పై"
      ],
      [
        "వ",
        "ాలు"
      ],
      [
        "స",
        "ము"
      ],
      [
        "ి",
        "త"
      ],
      [
        "ే",
        "స్"
      ],
      [
        "ని",
        "యంత్"
      ],
      [
        "ర్",
        "చ్"
      ],
      [
        "ర్",
        "డ్"
      ],
      [
        "ర్",
        "సు"
      ],
      [
        "ప్",
        "ల"
      ],
      [
        "ంచ",
        "్"
      ],
      [
        "ప్ర",
        "మా"
      ],
      [
        "గా",
        "హ"
      ],
      [
        "లో",
        "ప"
      ],
      [
        "కా",
        "ం"
      ],
      [
        "కా",
        "బట్టి"
      ],
      [
        "లే",
        "కపో"
      ],
      [
        "కో",
        "ల్"
      ],
      [
        "కో",
        "వచ్చు"
      ],
      [
        "చేయ",
        "ాలి"
      ],
      [
        "స్తు",
        "న్న"
      ],
      [
        "పా",
        "టు"
      ],
      [
        "పా",
        "యింట్"
      ],
      [
        "చి",
        "త్ర"
      ],
      [
        "మె",
        "రు"
      ],
      [
        "భా",
        "వన"
      ],
      [
        "చె",
        "ంద"
      ],
      [
        "పి",
        "ంగ్"
      ],
      [
        "ప్రా",
        "ప్య"
      ],
      [
        "వె",
        "ళ్"
      ],
      [
        "అవ",
        "గాహ"
      ],
      [
        "రే",
        "ట్"
      ],
      [
        "చూ",
        "ప"
      ],
      [
        "సె",
        "ర్చ్"
      ],
      [
        "ఫ్",
        "రె"
      ],
      [
        "అత",
        "్య"
      ],
      [
        "వారి",
        "కి"
      ],
      [
        "సూ",
        "చన"
      ],
      [
        "గొ",
        "ప్ప"
      ],
      [
        "ప్రభా",
        "వి"
      ],
      [
        "బు",
        "ల్"
      ],
      [
        "ళ్ళ",
        "ు"
      ],
      [
        "మో",
        "డ"
      ],
      [
        "లె",
        "ర్"
      ],
      [
        "రిగి",
        "న"
      ],
      [
        "సులభ",
        "ంగా"
      ],
      [
        "మార్కె",
        "ట్"
      ],
      [
        "ప్రే",
        "క్ష"
      ],
      [
        "కల్",
        "ప"
      ],
      [
        "తరు",
        "వాత"
      ],
      [
        "జే",
        "షన్"
      ],
      [
        "ప్రజ",
        "లు"
      ],
      [
        "అధ",
        "ిక"
      ],
      [
        "స్నేహి",
        "తు"
      ],
      [
        "అంచ",
        "నా"
      ],
      [
        "డిజ",
        "ైన్"
      ],
      [
        "1",
        "2"
      ],
      [
        "అ",
        "ద్"
      ],
      [
        "అ",
        "ండ్"
      ],
      [
        "ఆ",
        "టో"
      ],
      [
        "ఇ",
        "ష్ట"
      ],
      [
        "ఉ",
        "త్త"
      ],
      [
        "ఉ",
        "ంటే"
      ],
      [
        "ఎ",
        "ల్ల"
      ],
      [
        "ఎ",
        "క్కడ"
      ],
      [
        "క",
        "ాని"
      ],
      [
        "క",
        "ట్టు"
      ],
      [
        "ఖ",
        "ా"
      ],
      [
        "ద",
        "ూ"
      ],
      [
        "ప",
        "దా"
      ],
      [
        "య",
        "ే"
      ],
      [
        "య",
        "ర్"
      ],
      [
        "ర",
        "ాల"
      ],
      [
        "వ",
        "చ"
      ],
      [
        "వ",
        "డానికి"
      ],
      [
        "ష",
        "ల్"
      ],
      [
        "ొ",
        "క"
      ],
      [
        "ని",
        "వ"
      ],
      [
        "రి",
        "గా"
      ],
      [
        "స్",
        "వే"
      ],
      [
        "కు",
        "న్నాను"
      ],
      [
        "ట్",
        "రా"
      ],
      [
        "డి",
        "కి"
      ],
      [
        "ప్ర",
        "సి"
      ],
      [
        "ప్ర",
        "ణా"
      ],
      [
        "వి",
        "ద్య"
      ],
      [
        "వా",
        "హ"
      ],
      [
        "ల్",
        "లో"
      ],
      [
        "ల్",
        "లి"
      ],
      [
        "సం",
        "క్లి"
      ],
      [
        "చు",
        "వల్"
      ],
      [
        "సి",
        "ఫా"
      ],
      [
        "పా",
        "స్"
      ],
      [
        "క్ష",
        "న్"
      ],
      [
        "చి",
        "ంది"
      ],
      [
        "మి",
        "ంగ్"
      ],
      [
        "భా",
        "ష"
      ],
      [
        "ధా",
        "న్య"
      ],
      [
        "పి",
        "స్తుంది"
      ],
      [
        "ప్రా",
        "జె"
      ],
      [
        "పో",
        "యి"
      ],
      [
        "నిర్",
        "వచ"
      ],
      [
        "బ్",
        "బ"
      ],
      [
        "బ్",
        "లా"
      ],
      [
        "టు",
        "ంబ"
      ],
      [
        "శ్",
        "వాస"
      ],
      [
        "వర్",
        "చువల్"
      ],
      [
        "వె",
        "ళ్ల"
      ],
      [
        "ఉపయోగ",
        "ించి"
      ],
      [
        "కోవ",
        "ాలి"
      ],
      [
        "సే",
        "వ"
      ],
      [
        "కరించ",
        "ిన"
      ],
      [
        "అభ",
        "్య"
      ],
      [
        "సర",
        "ైన"
      ],
      [
        "ప్రతి",
        "స్ప"
      ],
      [
        "క్రి",
        "ంది"
      ],
      [
        "తగ్",
        "గి"
      ],
      [
        "ఫి",
        "షి"
      ],
      [
        "శక్తి",
        "ని"
      ],
      [
        "పే",
        "రు"
      ],
      [
        "సంబంధ",
        "ించిన"
      ],
      [
        "వినియోగదారు",
        "లు"
      ],
      [
        "లె",
        "క్"
      ],
      [
        "స్తున్నా",
        "రు"
      ],
      [
        "ప్రో",
        "గ్రా"
      ],
      [
        "ించా",
        "డు"
      ],
      [
        "మొత్తం",
        "మీద"
      ],
      [
        "సో",
        "షల్"
      ],
      [
        "డట",
        "ానికి"
      ],
      [
        "యాక్",
        "సెస్"
      ],
      [
        "ఆలో",
        "చన"
      ],
      [
        "ఖచ్చి",
        "తంగా"
      ],
      [
        "విధా",
        "నాన్ని"
      ],
      [
        "సంభా",
        "వ్య"
      ],
      [
        "పరీ",
        "క్ష"
      ],
      [
        "దారితీ",
        "స్తుంది"
      ],
      [
        "బోస్టన్",
        "‌"
      ],
      [
        "సంఖ",
        "్య"
      ],
      [
        "మెషి",
        "న్"
      ],
      [
        "అద్",
        "భు"
      ],
      [
        "స్వే",
        "చ్ఛ"
      ],
      [
        "ప్రణా",
        "ళిక"
      ],
      [
        "అ",
        "య"
      ],
      [
        "అ",
        "ల"
      ],
      [
        "అ",
        "డ్"
      ],
      [
        "అ",
        "ంటే"
      ],
      [
        "ఆ",
        "పి"
      ],
      [
        "ఏ",
        "మీ"
      ],
      [
        "ఒ",
        "ంట"
      ],
      [
        "క",
        "ాలి"
      ],
      [
        "క",
        "ర్య"
      ],
      [
        "గ",
        "ంట"
      ],
      [
        "చ",
        "ద"
      ],
      [
        "చ",
        "ండి"
      ],
      [
        "ఛ",
        "ా"
      ],
      [
        "డ",
        "ప"
      ],
      [
        "డ",
        "ర్"
      ],
      [
        "ద",
        "గ్"
      ],
      [
        "ద",
        "యం"
      ],
      [
        "ద",
        "గిన"
      ],
      [
        "ధ",
        "ు"
      ],
      [
        "న",
        "ల్"
      ],
      [
        "ప",
        "థ"
      ],
      [
        "ప",
        "ట్టు"
      ],
      [
        "మ",
        "లు"
      ],
      [
        "మ",
        "ొక్క"
      ],
      [
        "ర",
        "గా"
      ],
      [
        "ర",
        "కాల"
      ],
      [
        "శ",
        "ు"
      ],
      [
        "శ",
        "ై"
      ],
      [
        "శ",
        "ాల"
      ],
      [
        "శ",
        "్య"
      ],
      [
        "ష",
        "ె"
      ],
      [
        "ౌ",
        "డ్"
      ],
      [
        "ని",
        "కి"
      ],
      [
        "ని",
        "రో"
      ],
      [
        "రి",
        "కి"
      ],
      [
        "రి",
        "కీ"
      ],
      [
        "ర్",
        "ఘ"
      ],
      [
        "స్",
        "వంత"
      ],
      [
        "న్",
        "లు"
      ],
      [
        "క్",
        "ర"
      ],
      [
        "క్",
        "యా"
      ],
      [
        "ప్",
        "లే"
      ],
      [
        "ది",
        "గా"
      ],
      [
        "కు",
        "టుంబ"
      ],
      [
        "ప్ర",
        "ొ"
      ],
      [
        "వి",
        "జ"
      ],
      [
        "వి",
        "ద్యు"
      ],
      [
        "నా",
        "య"
      ],
      [
        "ాని",
        "క"
      ],
      [
        "చే",
        "స్తాయి"
      ],
      [
        "త్",
        "వ"
      ],
      [
        "మ్",
        "స్"
      ],
      [
        "గ్",
        "రీ"
      ],
      [
        "కా",
        "న్ని"
      ],
      [
        "లే",
        "ని"
      ],
      [
        "లి",
        "క"
      ],
      [
        "సు",
        "రక్ష"
      ],
      [
        "రించ",
        "ు"
      ],
      [
        "రీ",
        "రక"
      ],
      [
        "కొ",
        "రకు"
      ],
      [
        "తో",
        "ంది"
      ],
      [
        "రో",
        "ల్"
      ],
      [
        "పరి",
        "శ్రమ"
      ],
      [
        "భా",
        "గం"
      ],
      [
        "అను",
        "కుంటున్నాను"
      ],
      [
        "ప్రా",
        "ధాన్య"
      ],
      [
        "నిర్",
        "మాణ"
      ],
      [
        "కే",
        "ం"
      ],
      [
        "మార్",
        "గం"
      ],
      [
        "స్ట",
        "ో"
      ],
      [
        "ఉపయోగ",
        "ించండి"
      ],
      [
        "ఉన్నా",
        "ను"
      ],
      [
        "శా",
        "రీరక"
      ],
      [
        "ఉండ",
        "ాలి"
      ],
      [
        "బా",
        "టు"
      ],
      [
        "యూ",
        "ని"
      ],
      [
        "తీసు",
        "కోండి"
      ],
      [
        "సహాయప",
        "డ"
      ],
      [
        "వ్యక్తి",
        "గ"
      ],
      [
        "లై",
        "ట్"
      ],
      [
        "విధ",
        "ంగా"
      ],
      [
        "సంబంధ",
        "ం"
      ],
      [
        "గ్ర",
        "హ"
      ],
      [
        "అనుమ",
        "త"
      ],
      [
        "ఇంట",
        "రా"
      ],
      [
        "సమయం",
        "లో"
      ],
      [
        "నై",
        "పు"
      ],
      [
        "అనుభ",
        "వాన్ని"
      ],
      [
        "సామర్థ",
        "్య"
      ],
      [
        "విస్త",
        "ృ"
      ],
      [
        "సౌ",
        "కర్య"
      ],
      [
        "పెట్టు",
        "బడి"
      ],
      [
        "జాబి",
        "తా"
      ],
      [
        "మాట్లా",
        "డ"
      ],
      [
        "ఆకర్",
        "షణ"
      ],
      [
        "మర",
        "ొక"
      ],
      [
        "అవకాశ",
        "ం"
      ],
      [
        "తయా",
        "రు"
      ],
      [
        "గణనీ",
        "యమైన"
      ],
      [
        "శోధ",
        "న"
      ],
      [
        "పరిగణ",
        "న"
      ],
      [
        "అనుకో",
        "ను"
      ],
      [
        "నిజ",
        "ంగా"
      ],
      [
        "క్ల",
        "ౌడ్"
      ],
      [
        "సాను",
        "కూల"
      ],
      [
        "అవగాహ",
        "న"
      ],
      [
        "ఫ్రె",
        "ంచ్"
      ],
      [
        "మోడ",
        "ల్"
      ],
      [
        "లెర్",
        "నింగ్"
      ],
      [
        "ఎల్ల",
        "ప్పుడూ"
      ],
      [
        ",",
        "."
      ],
      [
        "ం",
        "పై"
      ],
      [
        "అ",
        "డ"
      ],
      [
        "ఆ",
        "ట"
      ],
      [
        "ఆ",
        "ప"
      ],
      [
        "ఆ",
        "స్వా"
      ],
      [
        "ఉ",
        "ద్"
      ],
      [
        "ఎ",
        "ప్పుడూ"
      ],
      [
        "క",
        "ంగా"
      ],
      [
        "క",
        "టన"
      ],
      [
        "చ",
        "రి"
      ],
      [
        "చ",
        "ర్చ"
      ],
      [
        "ట",
        "్యా"
      ],
      [
        "త",
        "ృ"
      ],
      [
        "ద",
        "ాలు"
      ],
      [
        "న",
        "డం"
      ],
      [
        "ప",
        "ాల"
      ],
      [
        "ప",
        "డుతుంది"
      ],
      [
        "బ",
        "ీ"
      ],
      [
        "బ",
        "డు"
      ],
      [
        "మ",
        "ైనా"
      ],
      [
        "య",
        "ని"
      ],
      [
        "వ",
        "ాలను"
      ],
      [
        "స",
        "వా"
      ],
      [
        "ని",
        "వా"
      ],
      [
        "స్",
        "పా"
      ],
      [
        "స్",
        "కృ"
      ],
      [
        "న్",
        "యూ"
      ],
      [
        "ంచ",
        "ె"
      ],
      [
        "కు",
        "లను"
      ],
      [
        "డి",
        "గా"
      ],
      [
        "డి",
        "జి"
      ],
      [
        "ప్ర",
        "యా"
      ],
      [
        "ప్ర",
        "వర్తన"
      ],
      [
        "ప్ర",
        "కటన"
      ],
      [
        "కి",
        "ంగ్"
      ],
      [
        "ంది",
        "న"
      ],
      [
        "గా",
        "రిథ"
      ],
      [
        "వి",
        "వరణ"
      ],
      [
        "నా",
        "ణ్య"
      ],
      [
        "లో",
        "ని"
      ],
      [
        "చే",
        "రు"
      ],
      [
        "చే",
        "ర్చ"
      ],
      [
        "వా",
        "డ"
      ],
      [
        "ద్",
        "దు"
      ],
      [
        "టా",
        "ప్"
      ],
      [
        "గ్",
        "గా"
      ],
      [
        "లే",
        "ఖ"
      ],
      [
        "దు",
        "స్తు"
      ],
      [
        "టి",
        "మై"
      ],
      [
        "తా",
        "డు"
      ],
      [
        "లి",
        "ం"
      ],
      [
        "సం",
        "తో"
      ],
      [
        "గు",
        "ణ"
      ],
      [
        "స్తు",
        "ందని"
      ],
      [
        "సా",
        "ర్"
      ],
      [
        "రీ",
        "సై"
      ],
      [
        "వచ్",
        "చింది"
      ],
      [
        "ఒక",
        "ే"
      ],
      [
        "మే",
        "ణా"
      ],
      [
        "పరి",
        "జ్ఞా"
      ],
      [
        "అను",
        "స"
      ],
      [
        "తీ",
        "ర్"
      ],
      [
        "తీ",
        "వ్"
      ],
      [
        "ప్రా",
        "సెస్"
      ],
      [
        "స్తా",
        "డు"
      ],
      [
        "శ్",
        "ర"
      ],
      [
        "నీ",
        "రు"
      ],
      [
        "కూ",
        "డి"
      ],
      [
        "త్త",
        "గా"
      ],
      [
        "ళ్",
        "లు"
      ],
      [
        "చూ",
        "సు"
      ],
      [
        "జి",
        "న్"
      ],
      [
        "ధ్య",
        "ం"
      ],
      [
        "సమా",
        "జ"
      ],
      [
        "సూ",
        "చ"
      ],
      [
        "స్త",
        "ూ"
      ],
      [
        "కాల",
        "క్ర"
      ],
      [
        "వీ",
        "టి"
      ],
      [
        "గుర్",
        "తు"
      ],
      [
        "మేరీ",
        "కి"
      ],
      [
        "ఆధా",
        "ర"
      ],
      [
        "స్ప",
        "ష్టమైన"
      ],
      [
        "స్థి",
        "రమైన"
      ],
      [
        "ఇంట",
        "ె"
      ],
      [
        "అవస",
        "రాన్ని"
      ],
      [
        "ించా",
        "రు"
      ],
      [
        "సులభ",
        "ం"
      ],
      [
        "నై",
        "తిక"
      ],
      [
        "అంది",
        "స్తాయి"
      ],
      [
        "తీసుకు",
        "నే"
      ],
      [
        "ఆరోగ్య",
        "కరమైన"
      ],
      [
        "సామర్థ",
        "్యం"
      ],
      [
        "సామర్థ",
        "్యాన్ని"
      ],
      [
        "దీని",
        "కి"
      ],
      [
        "వేగ",
        "ంగా"
      ],
      [
        "ప్రయోజన",
        "ాలను"
      ],
      [
        "మాన",
        "వ"
      ],
      [
        "ఉదాహరణ",
        "కు"
      ],
      [
        "ఎవ",
        "రు"
      ],
      [
        "కున్నా",
        "డు"
      ],
      [
        "రూపొందించ",
        "ండి"
      ],
      [
        "విశ్లే",
        "షణ"
      ],
      [
        "ఉద్యో",
        "గ"
      ],
      [
        "____",
        "____"
      ],
      [
        "కొంత",
        "మంది"
      ],
      [
        "అల్",
        "గారిథ"
      ],
      [
        "బల",
        "మైన"
      ],
      [
        "నిర్ధా",
        "రించు"
      ],
      [
        "పార్",
        "టీ"
      ],
      [
        "తొ",
        "ల"
      ],
      [
        "ఆన్",
        "లైన్"
      ],
      [
        "ఎదు",
        "ర్"
      ],
      [
        "జీవిత",
        "ంలో"
      ],
      [
        "అమె",
        "రి"
      ],
      [
        "శీ",
        "ల"
      ],
      [
        "ఆప్",
        "టిమై"
      ],
      [
        "సము",
        "ద్ర"
      ],
      [
        "ప్రభావి",
        "తం"
      ],
      [
        "ఆటో",
        "మే"
      ],
      [
        "పదా",
        "ర్థ"
      ],
      [
        "ప్రాజె",
        "క్ట్"
      ],
      [
        "ఫిషి",
        "య"
      ],
      [
        "లెక్",
        "కి"
      ],
      [
        "ప్రోగ్రా",
        "మ్"
      ],
      [
        "దగ్",
        "గ"
      ],
      [
        "నిరో",
        "ధ"
      ],
      [
        "సురక్ష",
        "ి"
      ],
      [
        "పరిగణన",
        "లోకి"
      ],
      [
        "చరి",
        "త్ర"
      ],
      [
        "డిజి",
        "టల్"
      ],
      [
        "కాలక్ర",
        "మేణా"
      ],
      [
        "\"",
        "."
      ],
      [
        "అ",
        "తి"
      ],
      [
        "అ",
        "మ్మ"
      ],
      [
        "అ",
        "మలు"
      ],
      [
        "ఆ",
        "ఫ్"
      ],
      [
        "ఇ",
        "చ్చి"
      ],
      [
        "ఉ",
        "ష్"
      ],
      [
        "ఉ",
        "దయం"
      ],
      [
        "ఎ",
        "న"
      ],
      [
        "ఎ",
        "క్క"
      ],
      [
        "ఎ",
        "డా"
      ],
      [
        "ఏ",
        "ర్"
      ],
      [
        "క",
        "ైన"
      ],
      [
        "గ",
        "ైన"
      ],
      [
        "గ",
        "లి"
      ],
      [
        "గ",
        "ాలి"
      ],
      [
        "జ",
        "నం"
      ],
      [
        "జ",
        "రగ"
      ],
      [
        "ణ",
        "ం"
      ],
      [
        "ణ",
        "త"
      ],
      [
        "త",
        "ర్"
      ],
      [
        "త",
        "్యా"
      ],
      [
        "త",
        "ప్పు"
      ],
      [
        "ద",
        "ో"
      ],
      [
        "ధ",
        "ర"
      ],
      [
        "న",
        "డి"
      ],
      [
        "న",
        "మ్"
      ],
      [
        "న",
        "మ్మ"
      ],
      [
        "ప",
        "డు"
      ],
      [
        "బ",
        "ృ"
      ],
      [
        "భ",
        "ౌ"
      ],
      [
        "మ",
        "ౌ"
      ],
      [
        "మ",
        "ళ్ళ"
      ],
      [
        "య",
        "న్"
      ],
      [
        "ర",
        "స్"
      ],
      [
        "ర",
        "ండి"
      ],
      [
        "ల",
        "ం"
      ],
      [
        "ల",
        "వ"
      ],
      [
        "వ",
        "ది"
      ],
      [
        "వ",
        "ంట"
      ],
      [
        "స",
        "భ్"
      ],
      [
        "ు",
        "ల"
      ],
      [
        "ని",
        "క"
      ],
      [
        "ని",
        "ల"
      ],
      [
        "ర్",
        "జీ"
      ],
      [
        "స్",
        "మార్"
      ],
      [
        "స్",
        "వీ"
      ],
      [
        "న్",
        "యా"
      ],
      [
        "క్",
        "సి"
      ],
      [
        "క్",
        "రీ"
      ],
      [
        "క్",
        "యూ"
      ],
      [
        "క్",
        "టివ్"
      ],
      [
        "ప్",
        "తి"
      ],
      [
        "ది",
        "గు"
      ],
      [
        "డి",
        "యో"
      ],
      [
        "ప్ర",
        "దా"
      ],
      [
        "ించ",
        "ాలి"
      ],
      [
        "లో",
        "త"
      ],
      [
        "వా",
        "డు"
      ],
      [
        "వా",
        "స్త"
      ],
      [
        "ల్",
        "డ్"
      ],
      [
        "మా",
        "ట"
      ],
      [
        "మా",
        "రి"
      ],
      [
        "ద్",
        "వేగ"
      ],
      [
        "రా",
        "న్"
      ],
      [
        "రా",
        "యండి"
      ],
      [
        "పు",
        "లు"
      ],
      [
        "కా",
        "న్"
      ],
      [
        "తా",
        "న్ని"
      ],
      [
        "లి",
        "కి"
      ],
      [
        "లి",
        "జె"
      ],
      [
        "కో",
        "ర్"
      ],
      [
        "కో",
        "డ్"
      ],
      [
        "చేయ",
        "బడిన"
      ],
      [
        "గు",
        "డ్"
      ],
      [
        "ాలు",
        "గా"
      ],
      [
        "సి",
        "ద్ధ"
      ],
      [
        "పా",
        "త"
      ],
      [
        "వ్య",
        "త్యా"
      ],
      [
        "చి",
        "వరగా"
      ],
      [
        "వే",
        "ది"
      ],
      [
        "కొ",
        "ంచె"
      ],
      [
        "మే",
        "నే"
      ],
      [
        "ంద",
        "న"
      ],
      [
        "భా",
        "వో"
      ],
      [
        "పో",
        "ర్"
      ],
      [
        "పో",
        "ల్"
      ],
      [
        "పో",
        "టీ"
      ],
      [
        "కే",
        "జీ"
      ],
      [
        "స్థ",
        "ానిక"
      ],
      [
        "వె",
        "ంట"
      ],
      [
        "రె",
        "ండి"
      ],
      [
        "రె",
        "ండ"
      ],
      [
        "కలి",
        "గే"
      ],
      [
        "రే",
        "షన్"
      ],
      [
        "చూ",
        "శా"
      ],
      [
        "జి",
        "ంగ్"
      ],
      [
        "ఉండ",
        "ే"
      ],
      [
        "ఉండ",
        "ండి"
      ],
      [
        "జా",
        "గ్ర"
      ],
      [
        "బా",
        "ధ్య"
      ],
      [
        "నె",
        "స్"
      ],
      [
        "బి",
        "జీ"
      ],
      [
        "గల",
        "రా"
      ],
      [
        "గల",
        "వు"
      ],
      [
        "సృ",
        "ష్టి"
      ],
      [
        "సూ",
        "ర్"
      ],
      [
        "తర",
        "గ"
      ],
      [
        "దీ",
        "ర్ఘ"
      ],
      [
        "కాల",
        "ం"
[...]
